#version: 0.2 - Trained by `huggingface/tokenizers`
Ġ d
e r
o n
o r
Ġ f
a n
Ġ w
Ġ t
Ġ s
i n
e y
a t
Ġd i
Ġ p
2 0
Ġ b
e n
Ġ a
Ġ c
e s
Ġf or
e m
Ġ m
o u
o m
a l
i t
a y
Ġ g
a r
Ġ n
Ġ S
Ġd ey
Ġ o
an d
Ġ 20
Ġt o
Ġ h
s t
i d
t h
i on
Ġw ey
e t
e l
i c
Ġ and
Ġ M
u r
o l
Ġ D
c t
Ġ N
b er
i g
Ġ A
Ġ r
k e
Ġo f
Ġ20 20
i m
i a
id e
Ġ l
en t
i l
Ġd em
at ion
Ġ e
Ġ I
o w
Ġg o
Ġ T
s e
Ġd on
in g
Ġ F
e p
Ġ O
Ġ 3
a m
Ġs ay
Ġt h
Ġ in
u n
e d
a ke
ig er
Ġ 2
Ġ y
a c
ĠN iger
Ġ B
a d
em ber
Ġs t
Ġb e
Ġ on
Ġ V
ide o
i s
at e
o t
Ġf r
a s
Ġ P
ĠV ideo
Ġn a
Ġ Ġ
Ġ E
Ġ C
Ġ k
el l
ep t
v e
ĠS ept
Ġdi s
l e
i p
ĠSept ember
Ġc om
Ġ W
i r
o d
Ġ 1
ĠNiger ia
Ġ J
o p
Ġ20 1
Ġ im
Ġd e
Ġ G
Ġw e
ou r
c h
Ġn o
ĠD ur
ĠDur ation
u t
t er
Ġfr om
n d
u s
o ber
ĠO ct
ĠOct ober
o s
e e
es t
p p
a g
v er
Ġr e
Ġa s
ou t
Ġw it
Ġ H
l y
Ġy ou
e et
Ġp r
ic e
Ġm ake
Ġs h
e ct
Ġa l
c e
i st
A R
AR S
Ġp ip
Ġ L
a st
es s
Ġ "
et in
Ġ U
or t
Ġon e
Ġa m
il l
as s
f or
Ġb o
Ġcom e
Ġb an
ĠM eet
Ġp l
ac e
e ar
Ġc h
Ġf it
er s
or i
Ġ v
2 2
Ġth e
Ġpip o
Ġ an
Ġn e
s ide
i an
al l
a in
Ġp ass
Ġw h
a b
i ke
o c
Ġin side
Ġ K
i ve
Ġa b
r e
ol ice
o v
Ġdi a
S ARS
Ġd o
u se
Ġg et
2 1
Ġh er
u l
g e
Ġ R
d a
o st
i f
Ġ201 8
Ġt r
Ġ Ċ
Ġm e
th er
Ġc on
un d
Ġ '
g h
e c
u m
f f
u p
ĠI n
u st
Ġab out
ig h
Ġ -
Ġwit h
Ġo da
Ġf ace
r ol
a p
om e
i al
Ġw ell
Ġt ake
Ġp at
r i
at es
in e
ot o
a k
q u
i v
Ġpat rol
Ġh ow
a ct
0 5
0 6
Ġf oto
" ,
en d
ac k
i e
ĠF SARS
Ġ j
r y
ar y
e at
Ġh our
es id
Ġw etin
Ġan y
or s
ar t
Ġw or
Ġm y
om ent
Ġt im
ĠP r
Ġp ost
ur n
w it
Ġl o
Ġ (
ĠS ee
it y
o ther
Ġ201 9
ĠA n
Ġe x
wit ter
Ġw om
Ġhour s
an a
Ġg oment
Ġth ing
Ġ un
od y
esid ent
ĠD i
Ġto k
r ic
a w
Ġa pp
ĠĠ ĠĠ
Ġt ori
m ent
Ġd r
ĠNiger ian
Ġ .
o k
N a
Ġy ear
Ġa f
at ch
h er
a v
t a
ay s
ell i
a h
u e
ĠU gh
ĠUgh elli
Ġc all
e op
Ġp olice
igh t
ĠF und
ĠM ay
for m
ĠE nd
0 1
Ġ at
Ġs u
i k
Ġ Y
ĠT witter
ac h
Ġb in
Ġl ike
ĠH ow
eop le
Ġk on
h e
n g
a pp
Ġb u
Ġ 4
ĠW etin
Ġg r
h u
ic al
0 0
el ect
an s
an ge
an t
for e
Ġsh e
Ġ up
o ol
l d
b ody
Ġal l
Ġl e
ĠC h
u d
ĠA f
Ġp eople
Ġm ed
Ġb ut
Ġ or
al k
a se
ur v
Ġwom an
iv al
M E
Ġw ay
o se
m ed
Ġs ome
r d
Ġk ill
Ġa g
Ġbe fore
h ana
ff ect
Ġne ed
Ġs o
w o
ur e
g in
ol d
Ġc ar
u el
Ġch ange
Ġa r
Ġt alk
on g
Ġm an
an ce
ĠS urv
a use
y s
ou se
Ġapp ly
c c
S ME
Ġwh y
ĠSurv ival
ĠM SME
elect ion
ag e
o y
Ġg ive
Ġyou ng
d ay
Ġt ell
ĠP olice
ou n
Ġmed ia
form ate
ch ool
Ġe v
ĠT ori
3 0
ou th
ĠG hana
Ġt urn
ĠS t
Ġk n
2 5
on y
Ġ 5
Ġlo ve
Ġbe c
Ġh app
2 8
Ġre g
Ġbu y
u b
ĠIn formate
u h
ar i
u g
ĠT op
u it
ĠAf ric
w ays
Ġs chool
p ort
in d
ĠA b
Ġt in
u ary
Ġf ir
Ġaf ta
is h
i ate
Ġal ways
ĠJ os
Ġe ffect
il y
Ġim med
Ġkn ow
oc ial
A n
ad s
e b
ic k
ĠF G
hu a
Ġany body
Ġm on
Ġs qu
Ġ ,
ag os
Ġwor k
Ġimmed iate
Ġf am
at ors
Ġbo il
ar d
ĠJos hua
j a
i se
Ġbo x
Ġw atch
Ġf uel
Ġs e
Ġcom ot
Ġh e
ast e
Ġst ates
Ġne w
act ical
Ġr es
ĠD e
Ġs ey
i es
th ony
Ġt actical
Ġs ocial
Ġsqu ads
ĠN a
ĠPr esident
o g
ĠL agos
Ġin n
or e
Ġfr uit
o b
Ġfam ily
o ver
ĠM ike
ol l
ĠG od
Ġdi e
eat her
ys on
ĠT yson
ĠS ARS
Ġb r
Ġinn ov
w eather
Ġ3 6
ĠMay weather
Ġun a
05 2
Ġinnov ators
Ġdr ess
Ġre ad
Ġtim es
21 28
Ġw an
06 30
22 25
ĠAn thony
Ġw aste
Ġ en
Ġ use
Ġst ate
Ġs p
ast ic
Ġsu pp
An other
am e
Ġyear s
Ġpl astic
Ġw in
ĠĠ ĠĊ
Ġr out
on d
Ġbox ing
it e
Ġrout ine
Ġl aw
Ġpatrol s
on e
Ġv s
ĠJ un
r ation
Ġh ouse
Ġ election
d o
Ġc l
p l
Ġb l
ĠW h
Ġ201 7
Ġcon t
D i
or n
i ver
1 5
Ġs ee
es in
Ġtim e
or d
Ġsh ow
Ġkon t
2 3
ab i
Ġag ain
uh ari
Ġin ter
Ġt e
Ġfir st
ut e
s o
Ġb us
our t
Ġw en
Ġ" "
Ġreg ist
Ġpl ay
ow n
o on
m er
if e
g a
Ġo p
ĠB B
Ġn or
Ġ ent
Ġa d
Ġd at
ar e
is s
ĠB uhari
Ġ us
Ġ if
in ess
r a
Ġp art
ou nd
. "
i b
Ġt wo
ation al
Ġof f
ĠEnd SARS
Ġm at
Ġh and
ĠK an
Ġbo y
Ġ out
e w
am er
Ġp ort
h ip
id gin
oc k
Ġa cc
Ġst ill
Ġregist ration
v est
Ġn ow
Ġs abi
Ġy our
Ġtin s
ion s
Ġbus iness
ig n
Ġat t
en ce
t y
Ġh im
k ip
Ġst ep
Ġd ance
amer oon
in ist
ĠM ar
Ġal so
Ġport al
em ent
Ġ 6
Ġtr ans
ul t
i z
1 3
Ġs ec
le ct
Ġto p
ou s
e k
o in
r is
ĠD em
eb r
Ġev en
ĠI m
i ja
Ġ Z
ver y
Ġj ust
ĠW ia
Ġh eat
ir l
r ee
Ġkont ri
ĠJ u
ĠĠĠĠ ĠĠĠĠ
Ġstep s
ĠAfric a
oun t
Ġbec ause
Ġc ute
ĠU n
01 23
Ġr ep
at h
p r
ĠSt ate
an c
Ġ 7
Ġst art
ĠJ an
ĠI s
Ġb i
ĠF or
ik in
el e
it ion
Ġp esin
Ġ1 6
ad u
am p
ĠA r
ĠC ameroon
ĠT r
Ġst r
and id
um p
ĠA ug
w n
ĠA l
Ġ 8
ĠAug ust
il e
o od
ation s
ie w
Ġh el
er al
Ġc andid
Ġp ikin
Ġop en
iver s
Ġb y
1 6
ĠNigerian s
il d
in al
Ġle ad
Ġth is
ĠJu ly
Ġtrans port
a ve
Ġb et
ĠJan uary
ĠA d
in ce
ĠJun e
ĠL e
Ġm ar
ers on
o ot
Ġs er
er e
b o
m an
Ġ Q
ic t
1 9
Ġf e
Ġatt ack
ou p
Ġ1 9
Ġpip ol
ĠA s
ou gh
ĠBB C
Ġg irl
Ġv ot
ĠN ov
Ġd en
Ġin c
Ġtransport ation
Ġcom m
Ġmon ey
oll ow
ĠFund s
as h
Ġ1 0
ĠNov ember
Ġar r
Ġs c
Ġto o
o h
n ors
r am
ir us
Ġre c
Ġpr esident
v iew
Ġ qu
Ġa ct
w e
ĠT h
inist er
Ġc or
Ġf ollow
an g
Ġc ause
Ġhel p
ebr uary
Ġb ack
ĠF ebruary
n or
er c
ĠF r
Ġcon f
Ġaf ter
ĠS he
w w
am a
ĠP idgin
ĠY outh
im e
Ġon ly
Ġinter view
a il
Ġgo ver
act s
Ġwor ld
ĠAb u
e h
Ġp ut
c on
Ġpl ent
ĠD ec
ab le
Ġm ore
ic h
as on
Ġhapp en
om m
Ġm eet
1 7
Ġcandid ates
ĠMar ch
Ġman y
Ġc ourt
Ġp erson
5 6
i or
c om
Ġhapp un
ĠDec ember
ĠB r
ag es
nors hip
Ġl at
Ġsupp ose
Ġs m
Ġ 9
ill ion
Ġcar ry
ay a
an k
Ġex pl
4 6
Ġsh ort
Ġm in
Ġcom p
ĠIn vest
Ġc r
Ġbec ome
3 8
Ġbe gin
ay o
Ġ our
ĠB ut
p ect
l and
it ies
is on
ent s
Ġw ant
Ġ :
ff er
a ir
Ġo ver
n e
in k
ĠWh y
Ġl ast
Ġs end
Ġpr ot
Ġme an
Ġa re
00 0
Ġth at
ĠA pr
Ġde c
Ġmat a
ĠO b
Ġf ind
ĠH igh
Ġd ay
ĠApr il
ĠD is
ĠE m
en c
o f
Ġo wn
Ġ i
ĠA ir
ĠG over
ord ing
Ġy u
o ve
Ġf ight
u c
Ġwom en
or ld
os s
e g
Ġ( @
v en
or y
ĠE do
1 0
r ess
it al
Ġgo v
v ice
Ġre ach
n ment
Ġh ear
Ġc ol
y a
Ġb ig
l ist
Ġad d
al a
re at
et ty
ĠAfric an
Ġe very
Ġsupp ort
ĠH ar
ĠQ u
W ia
Ġth ree
Ġwh en
l ic
Ġshort list
Ġj oin
Ġarr est
l es
a j
Ġde h
Ġst ud
ĠM an
erc ise
Ġagain st
a f
Ġl ife
ow er
Ġex ercise
Ġf ive
Ġp ol
Ġdis c
Ġgirl s
on av
ĠS h
v a
ĠKan ayo
onav irus
Ġgo od
ĠIm ages
Ġf acts
Ġc ount
w ard
Ġent er
1 8
Ġo ga
ĠT he
en s
t o
D em
Ġr em
Ġvot e
ĠS outh
Ġv ideo
ĠTr ump
th ing
. .
Ġp er
Ġs ince
am es
Ġgr adu
" "
Ġh in
ol a
w a
ĠS kip
S kip
ĠQu ick
ĠMSME s
ĠNa ija
Ġst op
h one
ĠM inister
od i
Ġcar e
Ġent a
ĠE lect
ĠN o
B ut
Ġ is
ĠG etty
Ġp ay
ĠS en
Ġoff ic
ĠA m
Ġwe h
o ad
Ġf ans
Ġw r
al th
Ġn ame
Ġl and
ĠC omm
d own
Ġas k
Ġlo ok
F or
Ġsec ond
Ġgradu ate
em i
ĠB ig
Ġw ife
Ġwh o
x t
in a
d er
Ġn ot
Ġc anc
Ġ #
a u
Ġte ach
Ġtr y
b all
ĠU S
Ġ und
op e
ĠW orld
ul l
ian s
iss ion
Ġo ld
ed eral
re ad
Ġl ock
t t
Ġm i
Ġfor mer
eh ov
ehov ah
ĠA k
for ce
Ġpl an
od a
Ġrep ort
es ter
ĠJun ior
Ġwe ek
Ġch op
Ġr un
Ġ end
r oy
Ġlaw y
ub lic
Ġs ake
m y
Ġgr oup
E C
r en
ur ity
Ġsm all
p s
ak a
oot ball
D is
old est
t ion
Ġr ele
Ġd own
Ġpart y
ak er
t ee
Ġth em
ap a
ĠH e
Ġ1 2
ĠS und
ĠH ouse
Ġf l
ĠJ ehovah
Ġan n
le g
W e
P C
Ġte am
ĠR e
Ġs us
7 5
Ġund er
g b
ĠSund ay
Ġd ates
ĠAir force
ad e
t op
Ġs election
Ġgover nment
ap e
Ġre al
p er
Ġhe ad
ol ly
us s
B N
Ġw ar
v el
um ber
Ġthing s
f ul
Ġrele ase
a z
il it
Ġm atch
wo od
ol e
ag ue
Ġcol lect
ĠN ational
ing s
ec ial
enc y
Ġw ia
u k
Ġwh ere
ar ia
Ġs i
ik os
Ġmon th
on t
Ġp o
Ġm en
el f
Ġdi ffer
ri k
Ġg u
ĠIn st
b e
Na ija
es day
/ /
D P
: //
es e
Ġlock down
Ġp ar
tt ps
ĠInvest ment
Ġc o
an i
us ic
Ġd est
it ed
Ġmat ter
s h
Ġann oun
Ġpol it
u al
ad i
Ġexpl os
ust r
Ġbe at
Ġf our
Ġthe ir
olly wood
ut es
er n
Ġlat est
ĠT o
Ġn umber
Ġin vest
r ect
Ġst at
Ġm ind
ag ram
ey e
u th
Ġb re
ĠC up
Ġ ?
Ġdiffer ent
ĠS o
or k
Ġb ad
r ist
Ġlawy er
Ġb ody
ur ing
z e
p t
Ġconf am
n ational
mer ic
Ġbr other
am m
Ġpl ace
Ġexplos ion
ok o
Ġdest roy
Ġb orn
Ġto day
ĠB en
our n
Ġplay er
Ġc ase
ĠN ew
i ous
Ġth r
Ġcare er
N iger
Ġf in
Ġm illion
k i
Ġgo al
b b
g er
ĠI d
Ġo ther
o o
on s
w eet
Ġmin utes
ĠM ake
Ġbr ing
l ud
Ġs ign
Ġk orn
Ġdisc over
Ġb el
Ġon top
em b
Ġv is
Ġfe em
h ttps
ĠA ustr
ig ate
Ġplent y
ep ar
ie f
ĠBB Naija
Ġ ve
Ġr et
ĠO ga
Ġm ilit
Ġs ell
an y
ut ion
ivers ity
Ġr ight
oin t
ir e
p e
Ġcount ry
Ġs en
a i
Ġp apa
es us
ĠA nd
Ġd ays
al e
Ġm ember
Ġde ath
Ġ1 5
Ġr el
Ġres p
Ġprot est
op ul
Ġpl us
u ce
ĠInst agram
j o
oc al
ĠM uh
Ġfr ee
ic s
ĠElect ion
ib le
er ry
ĠAbu ja
ĠG old
Ġcanc el
bb c
Ġl ist
ĠO l
Ġc ap
Ġsec urity
g an
ĠIs land
p idgin
Ġs ing
' s
w ell
oh n
u ct
ĠN ollywood
Ġch ar
bo ok
os p
ult s
Ġw aka
Ġannoun ce
ĠM on
ww w
Ġ $
E R
ĠA meric
ĠEm ir
ĠAs s
Ġbl ast
ĠC or
Ġl ate
Ġde f
Ġare a
z o
ĠKan o
Ġd uring
s a
Ġm ust
Ġf ootball
Ġwr ite
am b
Ġf ar
ie ve
ĠO n
ĠShe hu
Ġbu ild
ĠM r
Ġinc lud
b oy
Ġf inal
g et
." "
en eral
Ġ1 4
Ġ )
Ġl ive
id n
W etin
Ġh igh
Ġs ame
Ġch o
av id
Ġk ain
ĠA do
Ġm usic
ĠAn other
ĠĠĠĠĠĠĠĠ ĠĠĠĠĠĠĠĠ
W h
ĠAn g
a it
ĠI f
osp ital
ĠB an
Ġre ason
a im
ĠA PC
Ġmar k
ĠW est
Ġs epar
ace book
ĠUn ited
ĠMuh amm
g y
Ġ eye
ĠJ ohn
ĠD r
n ess
ĠR es
ĠW aya
Ġfir e
Ġp ack
ov id
Ġne ver
Ġp opul
ad a
Ġplent i
at or
Ġm ama
Ġc le
ĠO s
Ġcont in
we en
Ġm ost
ur s
Ġpr om
Ġan oda
os ition
at ur
ĠT en
Ġpr ison
Ġoff ice
ĠId ris
Ġal leg
Ġfin ish
ĠGold en
on c
ĠAbu le
r es
Ġne xt
id ent
up er
ĠA t
1 1
ĠLe ague
is ion
ĠW e
i er
Ġh old
Ġ 0
ĠJ ames
ĠO zo
Ġst ay
ĠA cc
Ġc el
Ġne va
Ġm aker
et e
Ġse f
Ġfr i
at a
Ġor der
n a
ĠB ey
Ġfri end
Ġcon d
Ġs ur
er t
it ure
at er
ĠBan ana
ĠP DP
Ġstat ement
av a
Ġ5 8
Ġlead ers
Ġar t
Ġcont ain
ra el
Ġab use
Ġch ild
Ġall ow
Ġar ound
Ġbet ween
Ġattack s
Ġf urn
Ġfurn iture
Ġr ed
us h
Ġ3 0
F C
id ay
Ġe ar
ic ap
Ġb ikos
Ġo pp
Ġhand icap
Ġ em
38 16
T he
ĠGolden boy
Ġhandicap able
13 17
56 10
d s
Ġ1 3
ĠJ esus
Ġ very
Ġse x
od e
in s
ed a
ist s
Ġcl ub
ĠCh rist
i ec
Ġnew s
iec es
Ġ1 1
Niger ia
Ġt est
ĠD avid
n ew
Ġacc use
u f
ĠO ne
ĠB l
Ġcon c
ĠS p
Ġc amp
ĠT erry
ĠWh ite
ĠD ie
Ġfe el
ĠMuhamm adu
ĠZ aria
n er
Ġle g
d i
Ġve x
l em
Ġs et
ĠF acebook
ĠN or
iv es
a ul
ĠGover norship
uth or
Ġpr e
Ġpr ob
Ġstr ong
y tee
um an
ĠT rik
ĠP l
ĠR uss
ke ep
ar a
d as
ar s
Ġoffic ial
Ġ @
ĠIn ter
Ġhapp y
Ġp al
Ġp ower
u le
Ġk idn
ĠT ime
ĠTrik ytee
Ġbre ak
Ġmilit ary
2 7
ĠC ourt
o th
ĠL ay
Ġp ublic
iz e
ĠW en
1 4
ric a
Ġgov norship
46 21
ant s
Ġhe alth
Ġle ave
n ing
Ġsc ore
ĠIs rael
il m
b and
ĠG r
t ori
ĠAustr ian
un ity
Ġf ear
p ieces
ĠAl l
2 4
b a
y ear
Ġgr ee
Ġbel ieve
Ġa ffect
Ġpo ison
ĠK ing
Ġt reat
Ġs ure
Ġbet ter
ĠLay con
Ġ1 8
Ġtr av
Ġ20 0
Ġas s
Ġelection s
ĠC ovid
l op
Ġacc ording
Ġr oad
ĠD or
Ġt er
Ġh ospital
en al
Ġto wn
1 2
Ġs ong
ĠE l
N EC
m en
Ġf ull
Ġl et
ĠUn iversity
Ġf ood
Ġ2 4
Ġpr od
Ġmeet ing
m e
e ace
r ia
Ġse ason
Ġ &
Ġpr og
Ġpack age
Ġp ick
Ġ1 7
r ah
ĠI b
Ġlat er
ĠHar am
on al
us band
Ġcor onavirus
I m
ĠBey onc
ĠB ond
a ff
g o
r it
Ġ1 00
ath y
Ġn ational
Ġd es
if y
ah ala
Ġcontin ue
ĠYouth s
ĠC ong
Ġret urn
Ġinc re
ĠI nd
Ġlead er
r et
Ġl ocal
Ġth ink
t witter
ec k
Ġr ul
ĠY u
P esin
Ġprob lem
w ork
id d
ĠU K
atur day
2 6
ĠS er
Ġ it
Ġb odi
r up
Ġo das
Ġsus pect
Ġvis it
r o
Ġcl ose
Ġe ver
Ġsh are
ic in
Ġh on
ter s
r at
v ent
ris is
Ġf ilm
ĠDor athy
Ġd ate
ĠS aturday
Ġ2020 3
f er
en g
Ġstud ents
ast or
Ġh usband
ur ch
Ġincre ase
e f
Ġr icin
ĠB ar
ĠMon day
ĠM ad
Ġk ing
Ġc ent
Ġ elect
A s
Ġ2 5
ĠComm ission
ĠF inal
ĠF ederal
j ect
Ġj ud
I f
Ġthr ough
Ġmember s
ir a
Ġtrav el
Ġc ur
and a
Ġw ahala
un a
ĠB oko
Ġtr ue
t le
ĠP ort
ĠRes ults
T h
Ġa ward
Ġn ear
Ġcl aim
ĠR ivers
ĠK en
ĠS ec
ĠY ou
Ġm ain
lop hone
as es
s on
A C
con om
Ġl ong
esid o
read y
Ġim port
om ot
am u
Ġin st
Ġp ict
aw a
Ġrec ord
Ġin d
ĠS e
Ġl a
a x
Ġs ol
Ġdi st
Ġsi x
Ġpr op
Ġgr ound
O R
3 3
Ġup d
ĠE ng
Ġpopul ar
s elf
Ġs ide
Ġmark et
ĠR ep
Ġo b
Ġc atch
el y
Ġc ity
Ġsh oot
Ġf all
se f
Ġdec l
ab a
t s
Ġin v
Ġk ind
Ġ es
w u
t r
Ġw ater
ĠI NEC
Ġser ious
Ġf ederal
gb on
ĠCor onavirus
amp ions
Ġd ep
, "
Ġop er
Ġn ight
Ġcle ar
Ġa ir
m s
Ġkont ris
t il
y e
Ġm ove
ĠW ed
Ġcom pl
Ġy or
Ġmonth s
2 9
Ġm outh
Ġprog ram
ĠE rica
oc i
S o
Ġ2 1
t al
Ġal ready
Ġwh ile
Ġchild ren
Ġread y
on se
P r
u ch
Ġst and
Ġsp ecial
o ke
Ġh ous
Ġst age
Ġprom ise
Ġs y
ĠD are
Ġpal ava
Ġser ve
e ad
Ġwe ar
d uc
Ġth ough
i ence
ar k
Ġp hone
Ġr ule
ĠM al
ik u
ĠE n
e al
Ġin to
gbon ge
Ġp eace
Ġlo se
Ġs l
A F
Ġupd ate
Ġw i
ĠT u
Ġcel ebr
Ġco ach
Ġdo ct
ell e
t in
Ġmar ry
ĠS uper
Ġam ong
ĠG ov
gy pt
le ep
Ġor gan
Ġreal ly
ĠD en
Ġ2 3
ase ki
S he
ĠFr iday
F A
Ġth an
Ġw ays
ur y
Ġun til
r on
at her
Ġher e
Ġwh ich
ĠInvest igate
if ic
Ġ2 2
ĠE ur
Ġstr ike
el se
ol og
emb ly
ĠTu esday
ĠRuss ia
Ġth ose
Ġde vice
n esday
ther n
Ġsu ffer
ear ch
Ġs k
A l
Ġg ame
Ġ keep
ĠC ity
ĠJ ust
Ġev ri
Ġm inister
Ġqu al
Ġm ess
ĠO r
ĠAng lophone
Ġgov nor
Ġplay ers
ĠG u
Ġs it
i o
Ġc ases
ĠOb aseki
Ġresp onse
cc ess
Ġs al
i el
Ġrem ain
ĠWed nesday
ĠD ay
Ġb est
Ġv ict
m it
Ġs leep
a ign
ump tion
ĠO k
A N
l ish
I N
b ab
ĠU N
Ġreg ion
Ġm iss
t on
E N
Ġmon i
p h
Ġpr ay
.. .
Ġc risis
ĠB e
Ġp h
H ow
w ay
g est
ab e
es h
A f
Ġl ear
uthor ities
Ġb urn
Ġin f
Ġres umption
Ġsp e
Ġteach ers
d om
Ġfor ce
Ġexpl ain
Ġh ard
Ġp ain
au gh
Ġ2 6
ĠM e
Ġart ist
Ġhon our
Ġsu ccess
duc ation
ĠA h
Ġh uman
ĠE gypt
Ġde al
c o
Ġ20 21
Ġdecl are
A d
b odi
Ġalleg ations
se ase
ip o
Ġse ven
vel op
ĠF our
Ġch eck
r al
Ġex per
Ġcap ital
ĠNor th
Ġc re
ir d
ĠG b
Ġfor e
Ġcomm it
Ġs ave
Ġo gbonge
Ġr est
if t
ur es
Ġbe en
oun c
ĠS ome
Ġv ill
Ġre act
Ġs old
ĠP aul
Ġ19 9
Ġsus p
ĠS am
s enal
Ġpolit ical
c ourt
ĠInter national
orn ing
Ġ2 7
i ers
Ġcamp aign
ut y
i x
l ine
ff ic
her e
Ġcomp any
ĠS ar
ĠAcc ording
Ġp ic
Ġan other
ĠAmeric a
Ġk omot
Ġdi rect
ch i
ĠE x
ĠBr other
Ġcon s
Ġfor m
Ġw ait
Ġlear n
k r
Ġ iss
w h
g r
Ġprogram me
Ġtr ain
Ġh ope
ivers ities
Ġred uce
Ġe ach
) ,
r id
ĠG eneral
al f
Ġpr ov
ĠLe g
Ġpresident ial
ĠP art
Ġinter national
O ne
" .
t ain
Ġser vice
FC C
ĠM us
Ġcandid ate
urs day
Ġconc ern
ak ar
r oss
Ġg un
ĠO m
Ġar my
Ġh ot
Ġa c
Ġc oll
d ing
Ġpict ure
C h
O N
Ġs ist
et ition
Ġm orning
c es
Ġcar i
Ġbe g
in ation
ĠTh ursday
ĠC ent
ess ion
is m
ag les
else a
as k
ce ive
Ġimport ant
ĠW om
r ed
at s
b um
un ch
uc k
ĠT ol
ĠHar court
rup tion
Ġwork ers
im es
ĠA g
Ġa ge
s w
ĠA ct
Ġdr ink
Ġbo ys
) .
ĠM os
ĠC o
Ġhe av
Ġs w
p or
ounc il
Ġchar ge
ch ester
ĠDem oc
en e
Ġschool s
ĠS T
Ġbo ok
Ġcor rect
ĠE k
F K
Ġbet a
ĠP astor
I C
Ġ2 9
u j
ase d
ain e
Ġm ov
Ġsepar ation
i y
et er
Ġsp read
em e
Ġsp end
i ol
m a
Ġban k
R T
st it
y amu
t i
ĠI ze
Ġdi sease
ing er
ĠB ible
ĠO jo
ĠF FK
Ġf ine
N o
Ġ2 8
Ġm uch
ĠP ap
ĠGover nor
ĠT e
res ent
Ġpick in
ĠAss embly
I yamu
at ive
Ġre f
Ġb elle
Ġinclud e
Ġch urch
Ġinclud ing
ĠCh ina
ria ge
Ġle vel
I D
n et
Ġp oint
Ġopp osition
Ġprot ect
im al
air man
ĠG o
Ġsh ar
ĠEur ope
Ġo il
Ġcont rol
Ġacc ount
ĠAr senal
Ġt it
ri es
Ġj ourn
Ġr o
Ġe conom
Ġsuccess ful
ĠM oh
ĠE agles
ĠO g
I n
iv il
Ġdec ide
Ġwh ole
Ġin s
Ġhous em
Ġad v
ĠA y
D C
ot e
A nd
et y
Ġt weet
ĠFr ance
ue en
b s
aj or
Ġinvest ig
Ġcomm unity
el s
ir al
Ġdr op
Ġdr aw
ect or
Ġr ape
Ġpr of
ĠCh elsea
Ġhear t
ĠB est
ĠL aw
Ġgr ow
ĠCh ampions
Ġ201 6
ĠB ab
Ġres ult
Ġcont est
Ġh ome
Ġf ake
Ġ201 5
ĠU kr
ak i
Ġex p
ac c
op h
21 3
Ġsome thing
rat ic
Ġun iversities
Ġl ie
"" .
Ġbe h
p le
an n
ĠAt iku
ĠGb ese
ĠCh ief
ĠC l
w est
ĠPap i
A S
ĠAr ot
Ġd el
Ġn om
ĠM y
ĠLeg work
st and
ĠS al
Ġkidn ap
Ġnor th
ĠPr of
ĠBr it
Ġinvest igate
u es
ĠE FCC
ĠAb d
Ġtin k
Ġbo th
ĠArot ile
ĠMoh am
ri b
3 1
ĠMan chester
ĠĠ Ċ
Ġde ad
Ġdec ision
Ġgoal s
Ġcelebr ate
ĠSen ator
it i
Ġmess age
Ġr ish
ĠP ar
im s
Ġc oup
Ġpr es
ap h
P ower
Ġs af
Ġs om
Y ou
at ed
ĠB i
a id
n o
ĠTol ul
Ġt ill
Ġv irus
a ur
Ġb illion
ds men
ĠĠ Ġ
Ġa p
ĠH im
ĠQ ueen
Ġper form
ac y
Ġbl ack
ĠPart y
Ġh ost
Ġst ar
Ġpr ess
Ġs ack
ĠT V
Ġw ill
D e
Ġdr ug
Ġpr o
Ġtr ad
Ġsing er
Ġsold iers
Ġv iol
on a
ĠBl ack
her o
ent ly
Ġspe ak
Ġ5 0
ĠSen ate
ĠKen ya
Ġs weet
ou b
ch n
ĠN ations
ĠJ er
Ġin j
Ġqu est
ep end
i ent
Ġh ar
inist ry
a ud
ĠCong ress
Ġcur r
Ġan imal
Ġweek s
a ise
ĠHe alth
Ġh alf
ake d
f t
ot t
Ġex pect
or o
an e
ĠE b
Ġout side
ad una
ang u
ĠA F
Ġth ey
ĠB ay
ĠA S
p ool
Ġsen se
Ġs outh
ar r
Ġs ick
Ġth ere
Ġstud y
Ġden y
Ġa uthorities
Ġwor ry
ĠMad rid
ĠA ward
Ġ8 0
Ġmar riage
l am
Ġre ceive
uf o
Ġh ave
iver pool
Ġh ist
Ġj ob
ĠJ on
Ġw eda
nd o
ĠPr emi
Ġd an
om a
Ġo k
Ġcho ose
Wh y
Ġpr oc
Ġany thing
ĠS av
ĠI RT
in es
Ġvill age
Ġm ot
ent ion
Ġcor ruption
it iz
Ġan sa
j oy
ac her
' ,
M ake
Ġch all
Ġb ur
ard s
il ity
Ad do
ĠWom en
Ġn aked
ĠB o
form ation
ond on
Ġ u
Ġcho ok
m al
ĠST S
AC S
Ġh ol
ĠDemoc ratic
G hana
ĠAb ub
Ġw on
l ia
ĠTolul pe
er man
ĠS ACS
ĠJust ice
ĠO y
Ġwith out
ĠGov nor
b i
Ġsal ary
r or
or al
Ġman ag
Ġf ail
ĠB ank
ĠAk ufo
ĠAmeric an
ĠAr my
S ome
Ġm ajor
onal d
Ġle ast
l ey
Ġex am
id ren
Ġstud ent
ĠC ol
k a
Ġpolit ic
Ġw ed
Ġc ut
em ale
wh ile
in o
Ġg l
i est
Ġa v
he ad
ĠL ondon
ĠC on
Ġcanc er
lia ment
ĠUkr aine
ĠAbub akar
en ch
Ġcont r
Ġyou th
Ġde velop
Ġrel ations
ĠD el
Ġgover nor
Ġla unch
Ġbl ood
c el
ect ion
ĠBen in
Ġw as
Ġc ivil
ĠC om
ĠSav age
k ey
Ġdi v
Ġelect ric
Ġv acc
Ġtr ib
Ġdef end
ĠP h
ĠW ill
Ġofficial s
ĠK aduna
Ġen joy
rah im
rit in
Ġright s
u ation
eg al
port s
Ġbl ock
Ġres pect
l ight
Ġrem ember
on i
w here
Ġsu b
Ġag ree
M A
Ġsol ve
Ġd et
Ġt ax
Ġ 000
Ġfriend s
Ġact iv
ĠS an
Ġhist ory
et s
Ġear ly
ad y
Ġsusp end
Ġal bum
Ġst aff
t ok
p ecial
ĠAm b
h ow
ĠD ir
Ġo va
Ġfl ood
w ey
Ġr ound
ens ion
ic es
Ġt ey
re am
Ġany tin
Ġcar ri
Ġwar n
Ġc ry
ĠF I
E nd
Ġth ird
Ġs on
Ġl ight
ĠL iverpool
r ow
Ġfr ont
ĠY ear
Ġhousem ates
ish a
Ġjud ge
ĠD ep
Ġres ign
Ġunder stand
Ġe ight
A cc
B B
ĠD ani
adi um
e ver
ĠM ess
Ġs in
ĠGhana ians
ĠAF P
Ġf ly
ĠP eople
Ġsh ock
Ġapp ear
Ġfar m
Ġinter net
ĠF acts
ĠM at
ĠPr esido
augh ter
Ġcre ate
ĠSar aki
Ġd er
ak ers
ir it
ĠGover nment
m ost
ir m
em ic
Ġtreat ment
Ġt w
Ġb ill
Ġwed ding
Ġt en
Ġsex ual
ĠIb rahim
ĠP ipo
ret ary
Ġpr iv
Ġbuild ing
d em
ĠJ ose
Ġag o
Ġh it
app er
Ġqu ick
U S
Ġno body
g es
Ġsh ake
Ġfore ign
j as
im i
ĠL ek
ĠBen ue
Ġb ab
Ġp osition
Ġso on
en ge
ĠPremi er
t e
Ġbl ue
T A
Ġqual ify
Ġlaw m
Ġevery thing
C ameroon
h o
Ġexper ience
n ers
ou ld
Ġg inger
Ġl angu
ver s
Ġrem ove
Ġgu y
Ġr ob
Ġrep resent
' '
Ġac ross
amp le
ĠM ed
Ġte acher
an while
ia m
Ġon es
ir th
ĠKan u
t ing
Ġc ust
ar ry
if f
H O
ĠE ven
Ġact ress
Ġwor d
Ġcomp etition
Acc ording
ĠM ag
Ġs urv
ri be
ĠG e
5 9
Ġe as
onal do
ĠC O
on es
Ġt em
Ġacc ident
st em
Ġare as
r uit
er ation
im bab
ĠP ol
ger y
ver t
Ġdem a
Ġact or
Ġs ent
Ġ el
Ġm ag
ĠF l
um e
Ġg ada
Ġpr im
imbab we
re g
Ġapp oint
Ġstr eet
A P
Ġob ey
ĠLek ki
ĠK w
ĠRe al
oci ation
in c
Ġb all
le x
Ġoffic ers
ug g
k id
em a
Ġk w
Ġtit le
ĠB ur
j i
ĠGr oup
ĠPr ince
Ġcount ries
Ġf act
an jo
rah am
ĠSen egal
Ġev ritin
5 8
I G
Ġ3 1
pecial ly
qu e
oth ers
stit ution
Ġna ira
Ġinvestig ation
e ed
hu k
Ġev ent
iz kid
ĠBi ya
Ġevery body
Ġe ducation
I A
Ġc itiz
Ġdo z
om s
adi o
S S
ĠH er
ĠTh is
Ġinst ead
Ġjourn al
ĠE d
im inal
al ly
ĠC ouncil
im um
us al
ve al
Ġwin ner
Ġex t
Ġbig gest
Ġpres ent
5 0
ĠS chool
Ġrelations hip
ight s
Ġc ost
ĠDel ta
y l
ĠD onald
ĠF ootball
Ġa head
ĠI tal
Ġlet ter
Ġb ased
ke d
Ġes pecially
ĠMos es
ĠMess i
Ġpo or
ict ion
e ther
Ġiss ue
th ough
Ġcon g
ĠMoham med
Ġg en
un g
Ġto g
Ġact ion
Ġdoct or
m ar
Ġre veal
Ġregist er
i ber
h et
ĠAb raham
Ġrul ing
Ġan sw
Ġpre ach
Ġfor ces
uct ion
ĠM or
ord er
ap er
Ġelectric ity
Ġs n
M y
ge ther
p ic
Ġal most
Ġsy stem
Ġth ank
ĠNew s
Ġch ance
Ġreg ions
ĠWh o
er em
Ġrep l
re ak
l u
t ime
Ġ20 22
Ġpar ents
Ġok ay
um a
E ven
ah oo
Ġd ri
ou ch
Ġrec ruit
en a
Ġmed ical
ud an
Ġsur gery
Ġon line
ĠPr og
Ġconf irm
Ġs elf
ĠI g
Ġd aughter
Ġhand le
Ġsit uation
Ġpol ic
Ġp oss
ĠEng lish
o il
Ġlangu age
Ġtog eda
iel d
Ġa wa
Ġh is
ĠM ich
Ġpr ice
Ġcar d
usal em
n y
Ġbo bo
Ġf emale
ous and
ĠS c
ĠG erman
re en
Ġcomm ission
ou thern
man uel
Ġg eneral
Ġde b
ĠSer vice
ia s
ĠB oy
ĠBrit ish
Ġ4 0
Ġter ror
Ġen g
Ġapp r
ĠAf ta
ĠM in
olog y
Ġin t
ĠC huk
Ġr ain
Ġpr ost
ĠR onaldo
ĠRep ublic
ast er
Ġproc ess
Ġpr iest
S ee
im a
Ġb irth
ĠC ont
or ge
Ġpr esido
Ġex ample
ĠDavid o
Ġcompl ain
ay e
Ġdoct ors
pl oy
Ġquest ion
ĠZ imbabwe
Ġter m
ĠN n
Ġrul es
Ġmot or
Ġkidn app
Ġto gether
ur u
qu al
Ġatt end
aj o
ug abe
Ġsepar at
Ġr is
ab our
ĠEng land
c ue
Ġth reat
em y
at tle
ult ure
o z
Ġbab y
an ia
el a
Ġ201 4
ĠDir ector
Ġansw er
W en
Ġplan e
ĠL ib
ĠR am
ĠR ich
Ġoper ation
in b
Ġp awa
Ġeas y
it s
Ġnor mal
p m
ou d
A M
id ge
for d
ra z
id ence
Ġcent re
g ency
Ġher dsmen
d ey
Ġp ast
Ġp oll
is ation
e v
ition al
Pr esident
Ġviol ence
O n
as anjo
ut ure
Ġpriv ate
a el
Ġres earch
Ġeconom y
el sa
E S
ig r
est y
Ġad m
Ġst rik
ĠC r
th i
Ġchall enge
ent y
os it
D el
T ER
l et
H e
ot a
op s
Ġprod uce
Ġsent ence
en da
Ġbl ess
Ġf ast
Ġd oll
Ġc over
5 3
Ġinter est
ĠB urn
Ġwh at
Ġtr aff
ĠS ol
ĠV ice
ĠU g
Ġg reat
ĠS udan
ĠCong o
ĠW izkid
ĠIs lam
ait h
Ġt ear
ath an
Ġany how
art ment
cel ona
Ġp age
Ġmusic ian
ĠD on
Ġfor get
Ġsp oil
ec ut
Ġc an
ĠM ugabe
or ry
Ġgroup s
Th is
N G
Ġh ide
ĠUn ion
thi op
o e
Ġrepl ace
om b
ir on
Ġes c
Ġt ar
st r
Ġsist er
Ġser v
ĠFI FA
ĠO ndo
Ġcl oth
Ġs ot
Ġ19 8
Ġg old
ir st
Ġarr ange
u pp
as o
Ġso jas
Ġg ames
ĠI k
O ga
ell ow
Ġcommit tee
Ġrecruit ment
ĠHe ad
P olice
Ġ X
Ġsh idren
ĠN y
ĠJer usalem
ap se
ri se
ĠSam uel
h am
op en
Ġpr ep
ĠTr ap
Ġrec over
ĠFr ench
um ent
V ID
ul ate
01 6
ĠA pp
ĠChrist ian
c le
Ġh air
up r
ine a
15 5
Ġprop er
R IC
i od
Ġsh a
Ġex c
Ġres cue
G od
Ġt y
Ġdr ive
am ent
i j
Ġtr ial
or ters
ut ers
Ġinc ident
or row
Ġth en
ob i
xt ape
ĠM el
Ġoffic er
at ter
il leg
y r
ĠF al
Ġvot es
ĠOb asanjo
b reak
re ement
Ġwell a
i ed
ric t
ĠMan y
Ġalleg ed
Ġst ory
Ġsh ine
ĠF C
ĠW ike
Ġle ague
ĠSt ates
Ġm od
ĠK idd
Ġse xtape
Ġpart s
ac es
ari es
Ġro om
N T
Ġt witter
33 6
Ġpolitic ians
Del ete
ou l
und red
Ġcel eb
inb ajo
Ġprep are
ĠC an
ĠF ay
il i
ert ific
Ġpro ject
ĠBay elsa
e en
ar n
da h
ester day
Ġvict ims
Ġe h
Ġpre vent
Ġbr others
Ġris k
ecut ive
Ġbl ow
Ġad vice
ĠAss ociation
Ġin formation
Ġk omm
Ġgr and
ub u
ĠSec retary
upr eme
Ġm ist
ĠAd am
T ori
Ġn et
Ġdes c
Ġdr ag
A T
Ġs av
ip ol
ess or
Ġres ults
4 0
it h
ĠK ore
ĠUn a
Ġcle an
Ġheav y
Ġto tal
Ġdem and
Ġsur p
Ġair port
id er
Wh en
Ġcomm un
Ġbe ing
ĠAd ek
Ġcond ition
Ġ illeg
ĠCh ar
Ġrel ig
Ġlawm akers
it a
ĠProg ress
Ġinv ol
Ġwh ether
Ġcr oss
Ġhigh est
oub le
Ġr apper
ĠE thiop
Ġun iversity
Ġch ief
Ġf ew
ĠN w
Ġcom ment
Ġf uture
Ġprov ide
ĠOg un
Ġt ouch
Ġhel ep
og le
ob al
Ġpart ies
M e
en se
Ġf un
Ġk arry
ĠGu inea
P O
Ġp un
ĠD o
Ġim p
ĠPresident ial
Ġbox er
Ġcoll apse
ĠG oment
iz ation
f ra
Ġth ese
end er
air s
g ement
ol o
an z
Ġs an
om i
ele v
Ġstrik er
r in
Ġcr ime
S P
ult an
ĠAh med
Ġposs ible
ĠBar celona
Ġsaf e
ĠAward s
aj i
Ġl ect
ĠAr t
Ġteam s
Ġgo d
ĠF in
ĠMar k
Ġr aise
ĠGe orge
Ġp osit
c ome
Ġth ousand
Ġsp irit
esid ency
Ġem er
at ives
Ġn ation
Ġsen ior
Ġh as
ĠI r
Al l
m i
Ġbu d
it or
ĠR eg
Ġw age
ub a
ard i
amb ia
Ġ [
ĠJon athan
Ġmanag er
ĠB uk
Ġcr iminal
Ġp urs
Ġpun ish
L D
Ġs um
ĠĠĠĠĠĠĠĠĠĠĠĠĠĠĠĠ ĠĠĠĠĠĠĠĠĠĠĠĠĠĠĠĠ
IG ER
w aya
ang er
ad an
ĠRe uters
Ġanimal s
ĠGhana ian
est ival
Ġlawy ers
Ġd ream
ĠE ast
Ġn ine
ME NT
our age
Ġr ice
Ġag reement
ub e
Ġqu ar
RIC A
Ġr ite
Ġim pr
ab o
ĠOr gan
em an
Ġbud get
6 0
oy al
ak ing
Ġcl ass
Ġpolit ics
ĠChuk wu
ĠNa ira
Ġcompl ete
ĠMus l
ĠCent ral
ugg le
c ast
Ġa h
ĠO sh
igh b
ĠOs inbajo
Ġcitiz ens
Ġsurp rise
an ya
ĠLib ya
Ġs orry
Ġc al
ĠM ah
Ġt or
at an
ell a
le ge
oy a
Ġper iod
ĠF uel
ly m
ĠCh airman
Ġpurs ue
S t
Ġb order
amb ra
Ġshar p
ĠS ultan
Ġman age
Ġjust ice
Ġnot ice
Ġe ast
Ġte chn
ot s
ori al
at ta
Ġsu g
Ġsuspect s
Ġ ;
Ġb ail
ul ar
if a
ĠOs un
Ġsurv ive
v es
ĠM inistry
ĠCommission er
Ġs id
ĠJ ud
S C
Ġ z
Ġadv ise
em n
am di
z ek
al i
Ġpar liament
por ate
ĠO ff
Ġwe bs
Ġmake up
Ġsell er
o ice
Ġab eg
er ve
Ġcr ash
ĠB el
ĠF ive
ir i
Ġkill ings
Ġpart ic
et imes
Ġbeh ind
Ġcontr act
al ia
et rol
il ty
ĠB am
ĠP eter
Ġtrans fer
ond er
Ġtar get
Ġdesc ribe
Ġ3 5
Ġkill ing
ĠSp ecial
Ġst ation
ian o
Ġsing le
ĠMal i
Ġn ames
Ġvis a
Ġy esterday
Ġh undred
ĠAr ab
ri end
g i
Ġf av
it ions
Ġl ess
ĠE ducation
Ġvot ers
Ġpopul ation
ĠInd ia
S h
Ġc up
ĠA lex
ĠW ar
ug u
Ġwr ong
Ġd oc
ĠO ffic
Ġtor ch
' t
c l
ic o
Ġim m
Ġv al
ĠPr ime
ĠAcc ra
ĠKidd waya
and emic
ĠDani el
Ġag ency
An thony
Ġf eat
Ġwar ning
20 21
ĠMe anwhile
Ġc erem
ĠV ict
Ġrep ly
ode ine
Ġw est
ic ine
Ġcust om
ar m
ur b
Ġre open
ec ause
ĠCO VID
th ers
I S
Ġilleg al
A r
Ġf aith
Ġa way
Ġfr eed
ĠK am
Ġfinal ly
ĠCh in
Ġpar a
ĠUg anda
Ġr ush
an ies
Ġind epend
oci ety
i ents
ĠAn ambra
ĠN g
Ġch airman
IGER IA
u ke
uj e
ĠJan e
Ġrob ber
Ġv iral
BB C
AF RICA
ĠEk iti
ur der
Ġopp ort
ĠBurn a
ĠD E
Ġr ich
Ġan g
ĠR iver
ĠS upreme
Ġcond emn
Ġset tle
Ġvacc ine
Ġre qu
Ġwebs ite
og i
Ġs ite
Ġcomm ot
Ġadd ress
m o
Ġcor porate
Ġgu ilty
ĠGo ogle
Ġhar ass
ĠKore a
Ġt able
ĠS w
ĠC ar
Ġdisc uss
Ġ ident
Ġp le
Ġam b
ose c
Ġacc ept
Ġbre ast
Ġre ject
Ġout break
ĠEm manuel
Ġdist roy
m ade
ee ch
ĠEurope an
ĠY ork
Ġass ist
b u
Ġne ighb
ĠElect ions
Ġcurr ent
b y
l ess
Ġl oss
ir c
Ġg bab
Ġcoup le
Ġbur ial
! !
I V
u ge
elev ision
Ġal ive
ester s
ĠSec urity
m ins
ĠL iber
Ġjud gement
raz il
m on
Ġj ail
c ar
Ġp ush
Ġg b
Ġtr ust
Ġfreed om
er y
ĠO d
Ġmin imum
Ġchar ges
ĠU B
Ġ6 0
b n
Ġl ine
Ġl ink
ĠW HO
Ġcon vert
ĠFor mer
ĠComm it
am f
Ġcerem ony
ĠSt r
Ġheav en
TA IN
ĠFay ose
ertific ate
M r
r acy
ic a
ĠA man
Ġin formate
OR LD
Ġst adium
enc ies
o id
ate au
Ġar g
EN TER
Ġkomm and
Ġnom in
e x
Ġf ound
ĠM o
Ġtr end
ĠG and
Ġre fer
ĠKing dom
Ġfor ward
ĠOb i
uthor ity
TAIN MENT
Ġp andemic
ah i
anc es
W ORLD
ĠG ood
Ġmin s
ENTER TAINMENT
Ġlect ur
Ġtorch light
n esty
ot os
ag a
ens ive
Ġdef eat
ag o
inist ration
ĠGerman y
ĠCent re
C O
ĠO lym
ed eration
Ġk l
Ġcomp anies
Ġhol y
ĠNn amdi
ĠK h
ĠBe fore
Ġb attle
ĠU s
ĠCommit tee
Ġm urder
B e
z i
Ġb oss
Ġpoint s
a iz
Ġprod uct
g ent
U U
Ġw onder
ia fra
Ġapp lic
Ġeven ing
U N
ĠK im
r om
Ġr ole
Ġne g
og o
N IGERIA
Ġwh ite
Ġprim ary
E A
oy e
c ement
Ġt ourn
ĠR ed
Ġtem ple
Ġc ass
ĠM usic
Ġmist ake
Ġsp eech
uj u
ĠJose ph
I s
Ġw ound
Ġsh ot
T o
Ġw ake
ust ry
b l
g ive
Ġ emb
ĠI v
Ġcon n
Ġwith in
Ġm id
ia ms
ff airs
15 7
ĠSp ain
Ġm is
ĠJ e
ĠJohn son
i wa
Ġres ume
on ia
Ġk oll
Ġlaw s
h ood
Ġp enal
Ġmatch es
ĠIg bo
l l
ĠItal y
Ġs uper
Ġiss ues
5 7
ĠB ill
Ġ est
ĠI G
Ġinv ite
aud i
ĠRich ards
ĠK ogi
og ue
Ġyouth s
B uhari
ad d
ĠAbd ul
ĠMich ael
Ġk ick
Ġnor thern
ĠElect oral
Ġno thing
ike d
ch e
Ġresp ond
Ġs earch
ut in
Ġtr ow
Ġj am
ĠCo ast
Ġcass ava
Ġm ay
Ġcon stitution
15 8
ĠAdek oya
Ġemer gency
ĠUB EC
Ġon ce
ĠP at
ĠEthiop ia
Ġ ide
ĠG l
ier ra
Ġprost het
ĠAman am
v iral
v iron
ĠR ights
Ġcr it
f inal
k on
ĠE conom
ĠBuk ola
Ġprosthet ics
ĠW aste
en n
ĠO p
Ġhand made
Ġstr uggle
Ġla ik
viron ment
d r
m ake
13 22
anc ial
Ġen c
ĠLe one
Ġhot el
in i
o x
Ġm ad
Ġm oment
ober t
f riend
Ġp astor
Ġb ury
Ġc irc
Ġsh ould
ĠGand uje
m all
Ġg as
Ġyou one
at ely
im ate
Ġna w
Ġtrain ing
Ġn ack
ĠIs a
Ġcomm on
Ġg ather
Ġrec ent
Ġf igh
Ġw el
Ġg ift
ĠM ac
ĠN d
ag ement
Ġtourn ament
o ch
Ġdis app
Ġsh ut
k ill
Ġm al
ate g
ĠL ion
Ġgover norship
ĠJu dah
Ġmov ie
ĠA re
Ġl ow
Ġpl aces
Ġt ire
ĠD at
Ġsw ear
ĠS im
Ġy arn
Ġ201 3
Ġesc ape
ĠB orn
ĠH uman
ill a
Ġme as
Ġt ank
tr od
ĠAf con
ĠFr om
Ġposit ive
v i
ar ian
ĠA j
ĠSal ah
Ġbirth day
Ġo thers
Ġme at
Ġdevelop ment
M any
er o
ĠF irst
as ala
ip s
oc co
Ġem ploy
Ġl ady
Ġe d
p ir
y le
Ġm other
ĠWh en
3 7
ĠAfric ans
Ġen ough
ig a
ĠP ri
ĠP ublic
Ġhand s
Ġsc atter
ent al
ĠIm o
w in
ĠPl ateau
Ġneighb our
k y
Ġa ch
ĠFor ce
Ġ' '
ur ther
be ge
ĠF A
ĠB iafra
Ġm ass
ĠS ocial
Ġl ives
ĠCh urch
Ġsong s
Ġy ab
ĠL abour
ĠVict or
ĠL ocal
Ġmed icine
Ġev idence
Ġprod uc
id i
r oad
15 6
in ho
15 9
Ġcom ed
ĠL a
Ġb en
ul ani
gh an
act er
Ġdeb ate
w orld
Ġp erc
ĠAn y
ĠFr anc
N ow
irl s
Ġjournal ist
ĠP an
Ġsh ame
ĠAk in
Ġleg al
eng ers
Ġsick ness
o ok
Ġd am
ĠE v
ĠY or
' .
am i
eop les
r if
Ġmar ch
Ġproper ty
a ut
Ġw iked
Ġ ey
Ġf urther
ail able
ĠWill iams
em pt
vent ion
Ġsupp orters
s el
Ġ3 3
ĠB razil
Ġ9 0
Ġreal ity
Ġ201 2
uk wu
Ġg bege
Ġperson al
ĠMus a
ĠS audi
Ġth ief
Ġh y
ĠE s
Ġy an
T H
Ġsec ret
ĠRuss ian
Ġtraff ic
PO B
u w
oc us
ester n
Ġtrad itional
ĠN ana
5 4
u ff
Ġm igr
ep h
ric k
Ġinj ury
rif ice
Ġapp eal
amf ara
Ġs il
Ġm inistry
ud e
l ier
in ary
Ġp an
em en
Ġh ail
ĠM aur
Ġal ong
P EN
ur g
ĠA c
Ġr ise
Ġbec os
reg ation
am in
Ġprot esters
ĠDep uty
Ġs ociety
Ġbr ain
Ġreport s
ad or
A m
P l
al y
Ġsh op
Ġse ize
idd le
Ġr esident
Ġof rin
Ġan ti
e ast
f ort
al s
Ġdirect or
ĠAg ency
b ikos
ell o
ach a
Ġle ft
f l
Ġd anger
Ġf ish
an ta
ter n
ĠY a
Ġperc ent
Ġe at
Ġe pp
ĠJ ul
us i
Ġc ouncil
ĠA N
ĠT ur
Ġ3 4
T r
f a
Ġtr uth
c a
Ġp ub
Ġ !
Ġab road
ĠComm and
Ġav ailable
b r
l ing
ĠTh ree
or onavirus
ĠD an
os h
ĠTr ans
ĠD ino
Ġwe ap
Ġaward s
Ġfore ver
d e
Ġb ag
ĠN D
Ġs ch
ĠA isha
ĠT im
ĠG ar
ĠCh ris
amp ion
Ġdisc ip
ent i
in u
Ġb ed
ĠF emi
y an
Ġc ertificate
ĠA w
Niger ian
Ġch ampions
pr ess
ĠCan ada
Ġg ain
Ġal one
ĠAf ter
Ġind ustry
Ġopport unity
ĠD eb
ĠIslam ic
B l
15 3
ct ion
Ġdem oc
Ġbet ta
Ġdi g
Ġb ar
ĠM il
ĠR obert
ĠY emi
Ġsur r
Ġcong regation
Ġappr ove
Ġm os
Ġfr esh
Ġthreat en
at ure
Ġm ask
Ġsk in
Ġcons ider
or m
Ġw ota
FC ON
A t
Ġr ub
ap chi
Ġag encies
Ġbl ame
Ġkontri es
Ġf ocus
ĠM en
Ġtr ade
ĠPar is
Ġt iff
ĠCh ad
Ġar med
eg n
ĠInd epend
Ġben ef
ow ore
um our
Ġtrib e
ĠMel aye
ĠProgress ives
Ġdoll ars
D en
ĠW in
Ġne c
ĠN ow
ĠH AP
A b
ĠN k
ĠA p
ĠS ierra
3 4
r aph
t ar
Ġy et
ĠP eoples
Ġpl ant
ĠSt ud
ash ion
Ġsy m
t ed
Ġbr oda
Ġc op
ĠR om
enc es
idd on
Ġdel iver
Ġfr aud
Ġw ont
ĠK y
anc y
17 19
ĠBorn o
ar on
iv ing
ĠHAP PEN
b ut
Ġg ri
ial s
3 6
I T
ĠD SS
ĠAS UU
Ġw et
th e
un le
ĠMor occo
u a
er a
ap t
ĠDe velop
ĠZ amfara
Ġco ok
Ġav oid
ak u
anz ania
ad es
oad cast
ĠNorth west
ĠH ospital
Ġpat ients
Be fore
Ġw ish
ak ata
ĠDe f
Ġs eat
ol ic
i h
Ġst ars
Ġey es
ass y
ĠIn s
Ġs ama
Ġin trod
Ġcomm and
A PC
it er
ĠS ince
Ġdem sef
Ġpr egn
i que
Ġa w
is a
ash ir
Ġrec ently
Ġdes ign
Ġsol ution
ĠM c
ĠD ey
ĠB aba
Ġimpr ove
ow s
ĠT er
Ġev iction
Ġseparat ists
Ġfeat ure
B O
id a
Ġr adio
Ġl ar
ug ur
Ġph oto
im b
OR T
Ġorgan ise
s y
Ġt elevision
al ent
Ġ201 1
og n
ĠD ou
ia h
ĠG ram
w ide
Ġf und
ut er
Ġpict ures
ĠAbd ull
Ġenc ourage
U n
J ust
ol ution
erc y
Ġp on
se d
od ay
Ġv ice
ĠAr gent
ori es
re w
Ġ7 0
Ġpress ure
Ġv oice
ĠAk p
Ġdrug s
ĠS ani
Ġ201 0
ĠH am
Ġpass engers
Af ta
ĠProf essor
Ġsom etin
Ġr ace
uk a
AM B
Ġpenal ty
Ġk asala
ĠG ab
Ġmov ement
Ġbur st
Ġ19 7
P ipo
al o
il ies
Ġpr act
ĠKan ye
ĠMar ley
Ġoper ate
Ġvict ory
Ġsist ers
L agos
Ġb omb
ob e
Ġshoot ing
4 9
ik a
Ġen s
ĠDevelop ment
Ġf ac
ĠM art
Ġr ank
ĠF ulani
ri ed
Ġj uju
iy u
ĠLiber ia
p ite
Ġnom ination
Ġfarm ers
j u
at t
Ġfor give
em ies
om at
Ġh om
Ġevri body
ĠEb ola
G A
Ġf ile
an ch
ag u
ger ia
K A
in em
ub ai
Ġprom ote
Ġp aper
ĠG en
Ġresp ons
Ġcent ral
Ġvict im
k ina
Ġ *
ĠP utin
Ġsh out
Ġmilit ants
ott en
s port
Ġt re
Ġm el
ĠAd ele
Ġreason s
D at
ic ide
ur r
ĠBam enda
ĠT wo
ĠK e
15 4
Ġsot ay
ĠM et
um b
Ġser ies
ific ation
ĠChin ese
5 5
E T
Ġs im
Ġ3 2
is er
ass ador
ĠAd eb
J esus
Ġc orn
om o
ual ly
Ġt ick
ĠD R
Ġsav ant
D r
ĠB ikos
ĠW al
uge es
ĠF aso
Ġpr osec
Ġsc ata
Af ter
ig ration
ĠAm nesty
tr ue
Ġhol iday
s al
at form
Ġk ey
Ġw ash
ĠP al
Ġ4 2
ĠAb i
ĠAc ad
1 00
ĠS outhern
Ġsom etimes
l ed
v ed
Ġprov oke
G O
Ġcont ent
Ġweek end
Ġsen ator
or ce
ĠS y
os a
Ġbo ard
ĠPl ay
O U
o ff
Ġ4 8
at ing
Ġc ulture
ĠM b
ol u
ĠN e
ĠAn oda
Ġdr ama
Ġt aim
Ġm ill
Ġg ate
Ġactiv ities
ĠEconom ic
ĠM iss
ĠP S
ell y
Ġe qual
Ġy ahoo
Ġse ver
Ġwin ners
eng i
P DP
ĠD apchi
ĠC risis
Ġwit ness
Ġad j
ĠS owore
un al
ĠG un
oph ob
Ġst eal
ĠK ar
Ġdep uty
rib ute
Ġalleged ly
ĠArab ia
Ġt our
ĠE ver
Ġ4 5
mit h
i om
Ġc odeine
Ġdo or
air e
ĠAng el
m as
il s
Ġch air
ĠHar ry
Ġclub s
Ġwel come
Ġmal aria
anc ing
Ġcommun ities
Ġharass ment
ĠC ross
ak y
ĠĠĠĠ ĠĠ
ĠAk wa
l ement
om on
ors hip
ĠDep artment
T ube
ĠSt adium
Ġfam ilies
Ġsk ata
M an
T V
r uct
gh en
Ġcl os
Ġfl ight
Ġsepar ate
Ġens ure
m illion
se c
Ġcon v
ĠCom p
4 8
Ġquar ter
Ġdoc ument
a ily
Ġa ut
Ġst yle
Ġfav our
Ġt ie
over ty
ĠPar liament
SP ORT
l a
ĠM s
ĠF ifa
ord in
ourn al
ĠMr s
Ġcoll abo
ĠAbdull ahi
at orial
Ġa ud
Ġm il
Ġr iver
ap an
Ġannoun cement
Ġdef ence
Ġshar ed
Ġeconom ic
Ġdat a
ĠIv ory
ĠFranc is
ek a
Ġdri ver
Ġim sef
Ġch ampion
Ġwor ds
Ġjourn ey
P P
Ġf ig
Ġ3 7
ĠC ath
ĠR ec
ĠI POB
ĠT anzania
pt oms
l or
Ġf estival
il le
ĠR oad
Ġatt empt
keep er
ĠCol lege
ic le
ĠT in
ĠL y
Ġfe ver
Ġchar acter
l in
Ġ5 00
un t
Ġlist en
Ġty pe
m ission
Ġ ur
en ophob
Ġacc ess
ele g
ash on
ĠSe ason
otten ham
Ġwor th
Ġconf er
Ġinvol ve
Ġp etition
Ġun ion
Ġhous es
Ġdiv orce
ĠN as
Ġmin ute
Ġinf ect
Ġprof ession
Ġpr ed
g as
Ġc ateg
Ġrec ogn
Ġthr ow
4 5
d en
Ġp etrol
ĠT un
Ġgr ant
ĠAmb ode
ĠMed ia
am o
Ġpl ans
Ġpub lish
ain t
Ġob s
ĠPh il
Ġh ate
ur ance
G etty
Ġpl atform
Ġpat ient
ĠWen ger
Ġperform ance
ĠD ubai
Ġen emies
Ġsp ace
Ġown er
Ġvideo s
ĠGr and
ĠYou Tube
Ġc ure
Ġc oun
it es
ak o
Ġpon ish
E O
g ree
h a
ur al
ĠI ke
Ġmid f
Ġide a
O ur
Ġb il
ĠN et
ch ange
Ġsusp ension
ĠYa ound
i et
y o
Ġr umour
ĠJ o
Ġmon itor
Ġem p
Ġkidnapp ers
4 7
D A
l er
Ġd om
ĠB al
ĠE zek
Ġal ias
vent us
ĠSec ond
F F
Ġf ix
ĠP eace
our inho
Ġmat er
ĠAir port
Ġext ra
Ġpolic y
ĠA FCON
Ġr ate
ĠB or
Ġj oll
we alth
Ġlectur ers
Ġg at
ĠW it
ical ly
ĠArgent ina
is ia
ĠG h
Ġact ing
ĠM ore
us uf
Ġun to
Ġinj ure
Ġs ad
Ġs emi
Ġm ention
Ġcap tain
er m
Ġs outhern
20 19
Ġm ourn
Ġapplic ation
3 5
z a
Ġgl obal
h ole
it ute
ĠP re
at akata
ĠM ov
Ġsc reen
Ġfigh ters
Ġf ellow
Ġthousand s
B r
Ġf ather
ĠI t
ĠJ ournal
az z
Ġever i
ĠIr an
Ġconn ect
dr aw
B I
d ers
Ġ19 6
ĠComm on
Ġgu ide
c ow
ĠM ost
os hip
Ġcol on
Ġcustom ers
ĠYor uba
ion al
ĠF ore
Ġk ount
ĠSe x
er v
Ġf ield
Ġw all
in t
ĠA tt
ĠRe ad
Ġintrod uce
Ġconfer ence
Ġ ver
ĠD ia
Ġk am
Ġcar s
con s
B ecause
Ġm a
ĠM ary
ov en
Ġcont act
Ġadm inistration
A EC
ĠAn n
Ġbus h
Ġoff er
S outh
Ġl it
ush p
Ġs ports
und e
Ġen vironment
Ġpray er
ĠOlym p
j e
l aw
ĠAl h
ĠOsh iom
Ġval ue
ĠB ello
ĠW ale
ob o
Ġbr idge
ĠIG P
ill s
und i
Ġex press
Ġsub mit
ĠAdele ke
or ter
ĠA gb
ĠA ffairs
Ġst one
ut ions
Ġwor se
ĠBr idge
Ġsm oke
S en
est ic
ĠEx ecutive
ĠTin ubu
ushp upp
3 9
an o
Ġo h
ee k
Ġ200 9
Ġb ull
ĠL eb
Ġdi ffic
ĠC AF
ĠCh ib
ĠTh em
or se
Ġm ob
ĠS om
Ġe qu
ĠI I
ĠJ ack
Ġpr aise
ĠSt ars
Ġserv ices
ĠMac ron
Ġh ang
ĠĠĠĠ Ġ
Ġleaders hip
s p
Ġs ak
ĠL ady
ass a
iel der
Ġindepend ence
Ġp il
ĠS ir
ĠAl i
Ġarr ang
Ġear th
Ġeng ine
Ġmill ions
Ġb ase
Ġas sa
oy d
ushpupp i
in n
Ġdi al
ed i
our ces
ĠH IV
ff ort
ik o
ĠIf e
C R
O ndo
Ġl augh
ĠAd e
no ghen
Ġmigr ants
Ġl ab
ĠC ardi
Ġde adi
Ġat h
Ġdeath s
Ġnear ly
Ġs iddon
ep per
Ġ3 8
Ġsh ip
Ġprison ers
ĠOy o
ĠSouth west
Ġsecond ary
Ġarg ue
Ġna im
ĠU mar
qu ar
ĠSol omon
ĠO w
ed e
Ġwe ak
ok es
Ġsqu ad
Ġlist in
Ġg ist
ĠM a
ĠW ild
ĠJ apan
ĠIn side
Ġassa ult
Ġk ry
ĠW i
ĠAl geria
ĠPan ther
ĠM ain
ok oto
Ġsen ate
Ġp overty
ĠT ottenham
es i
om orrow
Ġl ost
Ġim self
Ġam ount
Ġor ig
ĠFr ank
Ġmod el
Ġpunish ment
Ġpartic ip
Ġproduct s
ab ility
Ġun it
we ight
Ġap olog
Ġrelig ion
ĠND DC
A h
V iew
an ish
Ġk atakata
Ġpr ize
Ġtr oph
Ġwith draw
inist ers
Ġph ys
ail s
atur al
Ġsug gest
Ġdiffic ult
ĠJ AMB
Ġany bodi
Ġgoal keeper
Ġcond uct
Ġcorn er
Ġdi d
ĠT ok
if ied
Ġpost p
W orld
o om
on ce
ĠI gh
ĠT iwa
ĠK ill
Ġab i
ĠY usuf
Ġref ugees
Ġsaf ety
sel ves
Ġa irl
Ġh ttps
Ġsuspect ed
Ġsn ake
Ġseparat ist
O M
d is
Ġm ount
ĠZ uma
n ow
ĠS ay
ĠJ ew
our ce
oy in
pect or
Ġfour th
ĠB us
Ġpr aiz
Ġnews p
ĠM ak
Ġe ffort
Ġking dom
Ġgen er
Ġsever al
A L
S ince
and an
Ġatt ention
emb le
ĠIb om
ĠChar les
Ġp our
Ġal though
ĠL ast
ĠOn noghen
l uck
ĠK um
Ġfl og
g u
Ġg ang
ĠB et
Ġbo at
ĠR ock
if ul
og raph
5 00
l ike
se x
ist an
ib ility
ĠAd v
P eople
y n
Ġs ons
ĠS port
ĠO f
un ic
ĠP er
ĠRep resent
Ġprim aries
ĠOp en
Ġd ry
Ġt ort
Ġdist urb
add y
ĠM ourinho
ĠO ke
ĠJu ventus
Ġmidf ielder
4 4
Ġcl ash
ĠSh i
Ġgu ys
ĠS il
Ġpr ove
ce ed
ilit ary
Ġceleb ration
Ġtechn ology
Ġb read
Ġm iddle
ĠS pe
le an
ĠW atch
ib o
Ġconc ert
ic ester
il on
ĠT ar
ĠP apa
if er
Af rica
Ġquest ions
gi um
C C
Ġelection one
rist iano
ĠChrist mas
ĠKam to
P A
c oh
ĠT em
Ġbe ar
ta ff
Ġpoll ing
aut iful
om as
Ġmy self
Ġfinal s
B C
y ou
Ġf at
ĠN engi
Ġ3 00
ĠG irls
all ow
Ġj ump
ĠCommon wealth
Ġf air
Ġw orship
Ġprog ress
ĠMoham ed
i us
Ġg y
ĠE U
op a
r act
Ġw oship
Ġg ay
ĠA aron
ĠE mer
Ġgr oun
Ġse a
Ġsl ave
ĠOffic er
k in
Ġs ound
en ger
id el
ĠC ons
Ġpass port
abi o
a us
Ġf ashion
ir ed
Ġ200 7
Ġach ieve
g un
it ation
ĠD J
Ġdemoc racy
agu da
Ġd eleg
Ġp ot
ĠPr esidency
Ġf ill
ĠS mith
ĠM ercy
ip e
Ġse ka
Ġw ild
Ġkn ock
ĠIm age
ang ote
ĠAh m
p ar
gin a
V C
ĠS taff
ĠW AEC
ĠJ ac
Ġtr ee
Ġlo an
Ġus ers
Ġgun men
ĠBur kina
Ġkl ot
Ġdial ogue
Ġoff ence
Ġtown s
Ġinst it
Ġed ition
Ġt omorrow
il a
Ġy i
ot i
ach ing
Ġcol le
ĠMusl im
. '
ĠC amp
Ġk om
ĠSh atta
Ġ199 9
Me anwhile
Ġs port
ĠD es
Ġdo g
Ġinvest ment
ĠDo ct
Ġgat z
b ah
i ately
Ġs ector
Ġm ach
Ġe art
ĠV iew
ĠK ab
ard ash
Ġcur se
Ġarrang ement
Ġm ental
re c
Ġtr ack
Ġhim self
ĠAustr alia
Ġprotest s
er ing
Ġdi r
ĠF ederation
ĠB u
ĠK elly
Ġproduc er
3 2
Ġb as
and on
un mi
Ġb and
ĠS okoto
ĠFore ign
ĠS u
Ġo oo
Ġ3 9
ĠH ol
Ġex ecutive
Ġknow n
ĠMan agement
ĠFl oyd
Ġrelig ious
Ġbenef it
t d
ay ode
Ġpr oud
ĠL im
Ġtr ap
Ġeh n
e um
k o
x y
Ġs un
ic op
ing ton
ĠH on
Ġvot ing
N PC
O lu
st on
Ġr ock
ĠF ound
qu ine
Ġmad am
O s
Ġc ult
ĠA KA
ĠU z
ĠF at
A meric
h old
Ġ4 4
Ġevery where
Ġear lier
Ġcurr ently
coh ol
W AS
um u
Ġdiv ide
ĠGram my
ĠLeb an
A ng
in ic
ĠS ch
Ġo o
ĠB ad
Ġpart ner
anc er
ĠAs h
Ġgov ment
Ġpolitic ian
Ġrefer ee
E L
Ġl ic
Ġl im
ĠH el
Ġfl ag
Ġterror ist
Ġtick et
Ġd ash
Ġs aid
Ġc ell
Ġc ough
Ġc ities
ĠS ong
Ġthr u
Ġsot ey
enn ifer
Y SC
Ġm et
ĠS aul
as ion
Ġwor st
ud u
Ġfe ed
Ġorgan is
ĠBel gium
Ġdir ty
Ġw ind
ĠA L
Ġde ep
Ġret ire
Ġexp ose
Ġrequ est
C oronavirus
G eneral
Ġc ash
ĠN un
ĠO gb
Ġ4 6
mer c
Ġelect oral
ĠR w
au chi
ef a
Ġd eter
Ġgo f
ĠP erson
ers elf
ĠAl though
B A
b ack
ĠA z
ĠP ipol
ĠU m
Ġv iew
Ġcomp ete
Ġcontin ent
Ġbil ive
Ġsak rifice
ĠS us
ĠM P
ĠCo ach
Ġcrit ic
at ory
ĠE ar
ĠMusl ims
Ġident ify
Ġo cc
Ġbegin ning
Ġrobber y
Ġst ations
ut i
ag as
ul u
Ġtr ouble
Ġor d
ĠSen ior
Ġbank s
ĠB os
ell ig
ĠJ oe
ĠH ushpuppi
ĠK ardash
ĠDani els
ĠLion el
ĠAbi ola
it o
ĠA uthorities
ĠU T
ward s
Ġpeace ful
Ġsold ier
d on
Ġh erself
od as
ĠG ambia
Ġun i
Ġproblem s
Ġjob s
B T
Ġw a
el ess
ĠB re
ul ly
Ġtr uck
ĠWh ile
ĠIb adan
H er
m ark
ĠC ap
ir t
Ġch e
oc ate
Ġj oke
Ġinf lu
Ġdri vers
F rom
Ġd ark
ĠA uthority
ul ation
pe ach
ĠBab ilon
ĠMil an
Ġf if
ĠT ogo
Ġfootball er
Ġdanger ous
Ġpract ice
ĠR oyal
ier re
Ġcond itions
w es
Ġpr esidency
ak es
ĠRe v
az ine
Ġmain tain
Ġdam age
ĠDef ence
Ġn on
ur a
ĠPr ot
Ġcr ow
Ġit s
Ġdefend er
ĠAre a
quar ters
ograph y
b an
s mall
Ġim pl
Ġt ish
ĠP D
ĠIn formation
Ġass embly
icop ter
20 0
Ġb orrow
Ġh ust
ain ab
aph osa
ĠTun isia
ĠChib ok
Ġl ik
ĠC af
ĠIndepend ent
ian a
Ġway o
ĠMan e
ĠGood luck
ĠIns pector
ak ob
Ġ4 7
Ġsupp ly
Ġi P
ĠSer ena
ĠBrit ain
ĠUs man
Ġuni form
E MA
H im
O r
r ate
Ġm ission
Ġm inisters
Ġr ac
ĠWh at
ĠAcad emy
/ @
Ġb apt
ov ed
Ġ5 1
ash ola
e in
l us
Ġab andon
Ġj oy
ra ft
Ġcho ice
ĠYou ng
Ġdel ay
ĠAkp abio
merc ial
S O
Ġst ra
ĠL uc
Ġwin ning
oven ant
ĠS ey
pl ay
ĠLe icester
Ġpar k
ĠWe ah
Ġnewsp aper
Ġc y
Ġto tori
ol s
oc ent
Ġ4 3
Ġ4 9
Ġfollow ers
Ġsy rup
ĠMag u
ĠOshiom hole
b orn
b urg
ĠB y
Ġal cohol
og ba
Ġhear ing
f ight
ist ant
Ġdep end
ĠT imes
Ġafter n
oro quine
Ġstreet s
Ġcal m
Ġtrow ay
Ġf oot
id s
et t
ag er
year s
ĠWom an
ĠRam aphosa
al ity
ow o
ĠO ther
ĠW ey
ĠW ork
z er
in da
ey mar
ĠS ing
ĠJ ennifer
Ġ4 00
inc ess
Ġtroph y
Ġt ight
ol i
ĠD angote
ĠB ob
Ġbe autiful
ri v
Ġres emble
Ġcr ed
Ġcivil ians
Ġtort ure
Ġaftern oon
it ch
Ġkn ack
ĠLe ad
Ġfl ow
Ġve h
Ġexp ensive
ĠDou ala
Ġdeter m
wes ili
j amin
Ġr oyal
ĠC ristiano
Ġsc ar
Ġple ase
Ġresident s
ĠEver ton
4 1
e el
Ġf an
it t
ĠD am
Ġcont ribute
Ġsc or
az onia
Ġdes pite
Ġprofession al
ĠB auchi
fl ix
A pp
g ing
Ġfor est
Ġl uck
un e
Ġarr ive
ĠTh omas
Ġequ ip
av i
ĠCh ild
ro om
ĠMad am
Ġcent res
ask et
arr el
Ġtank er
N ew
Ġw ere
Ġm em
Ġal tar
ish op
sh idren
rup t
ffic ial
ats ina
Ġappoint ment
ĠKardash ian
ĠC H
Ġwe ight
Ġso fa
Ġorgan isation
ĠCath olic
ig e
ĠBey once
Ġsid on
Ġdisapp ear
ĠTur key
Ġw ine
ch a
Ġorig inal
R E
o or
ĠO per
am ily
stit u
T M
n is
Ġc our
nd er
Ġimmed iately
Ġpay ment
Ġext end
enophob ia
ĠEzek wesili
Ġp ure
Ġ4 1
Ġbl ind
ĠZ ambia
ĠBr own
ĠBur undi
Ġcommission er
Ġhust le
F acebook
Ġa k
Ġg i
el ine
ĠN ine
ĠO ver
as i
os un
ĠL ove
ĠAl so
Ġang el
Ġadj ourn
Ġcateg ory
Ġord inary
t alk
Ġt anda
ĠD j
ĠW ith
ĠAd m
ĠRe gina
Ġro ads
ĠOrgan ization
ĠJac ob
4 3
e es
l oroquine
ĠN ed
Ġtr ip
An y
Ġbr odas
ĠAd amu
Ġremain ing
ĠLaw y
Ġ20 00
od uc
ie v
Ġev ents
ĠOb ama
IN G
Ġdet ails
E F
I NEC
ess ary
ĠAb ia
ĠAd es
gr and
Ġceleb s
ĠN C
am ber
Ġ5 7
Ġevery day
ĠRep ort
Ġnet work
d ro
Ġto il
ĠC EO
Ġch em
aw i
Ġyour self
Ġtop ic
Ġgov nors
ĠMuhamm ad
tain ment
ĠOlymp ics
ĠSpe aker
ĠJ ob
Ġent r
OR I
ĠFal cons
tern al
ĠS is
Ġl ack
Ġim peach
P aul
u z
Ġs ue
al u
ĠS qu
le ar
Ġ200 8
Ġdep ort
Ġkidnapp ing
Ġreopen ing
A k
Ġa ka
ĠN aw
Ġsl ow
Ġtw enty
Ġcop y
Ġpostp one
ĠFound ation
H E
w rit
at y
Ġc inem
ĠE qu
Ġex tr
Ġtraff ick
agas car
f ew
Ġb ow
Ġb abe
ĠP esin
Ġdis qual
od o
Ġal ert
Ġany time
ĠY ak
Ġref use
BB Naija
Ġd ouble
ur t
ĠJ ord
ch ar
ĠGod win
Ġsug ar
E FA
g g
r op
Ġa uthority
ĠM and
Ġdem on
Ġre view
ĠEn ugu
ĠSan usi
Ġjournal ists
Ġstra ight
I M
ers ey
Ġexper ts
Ġcust ody
Ġath let
t ake
Ġ x
es a
ĠI gb
ĠC el
ir ement
ĠL assa
Ġad mit
Ġfin ancial
ĠAss istant
ĠTe chn
Ġweap ons
Ġmos qu
E m
b ig
Ġh ala
ĠA C
Ġl as
um ents
ĠCh i
Ġmanag ement
a uty
ĠF ood
Ġsu ch
Ġexc ept
ĠRw anda
ellig ence
Ġh ap
Ġl oc
ĠO da
ĠE CO
ĠC al
Ġk atch
ĠG ame
Ġopen ing
Ġsc ient
Ġrest rict
Ġforeign ers
ĠPD T
r im
Ġp epper
ig bo
ĠI wo
Ġsu c
ĠZ ainab
Ġkw anta
i ot
Ġd ue
Ġb le
ĠV ot
ĠSim on
ĠMov ement
D avid
ĠM ik
Ġk iss
ĠR el
Ġtr o
Ġcomp are
Ġdiscip les
n ia
z iz
ĠD og
Ġyoung est
Ġstat us
Ġmusic ians
Ġorgan ization
ron es
Ġhousem ate
ĠSan wo
Ġdom estic
ĠTar aba
es om
ĠD om
ber g
ov a
Ġaffect ed
Ġcong rat
a a
f r
p erson
ĠN eymar
ĠL ions
ĠL iga
ĠPl enti
Ġac ad
Ġchall eng
ĠAdam s
Ġrich est
b ad
y cle
Ġs ession
Ġb ott
om an
Ġk ol
Ġcom mercial
ĠAd ey
ĠAustr ia
ĠOrgan isation
Ġairl ine
Ġl abour
ĠP et
ag wa
pl es
Ġactiv ist
ĠArt ist
ĠFin ancial
Ġcinem as
l oad
Ġl ot
ĠF ire
ĠV irus
ost le
ĠHow ever
Ġfl ights
ĠBen jamin
ĠOl uw
Ġinf ection
Ġdet ain
inc ip
TH ER
T witter
ĠN YSC
ĠH is
ĠIn t
Ġreg ret
og un
Ġinn ocent
ĠUS A
ĠChrist ians
Ġsym ptoms
Ġd ere
Ġno va
Ġex change
Ġbr oadcast
Ġdecl ar
Ġtrad ers
Ġnomin ate
M ad
l ad
an na
id en
ig en
Ġs at
at ia
th ank
ct ions
ĠN NPC
Ġgo ing
Ġdon t
ug ee
ĠMat t
ĠItal ian
Ġassist ant
ĠDeb ate
ĠECO WAS
Ġd uty
Ġstr ess
Ġgu idel
ĠOl am
Ġcrow d
E D
se e
ed er
ĠP ierre
ĠK atsina
Ġmag o
EA D
ĠS ports
ol as
ure au
ĠAm inu
Ġlawm aker
ĠPS G
e em
p ipol
at al
Ġr ap
un k
ian ce
Ġbr anch
Ġfollow ing
ĠSp irit
Ġwet i
ĠAhm ad
avi our
er gy
ĠS weet
ĠF ree
Ġup andan
Ġhel icopter
ĠOn y
Ġbillion aire
Ġfound er
Ġmil k
ĠWild er
ĠRepresent atives
e ven
Ġn atural
ĠN DC
Ġdon e
Ġlo ad
Ġsu icide
ĠAnd rew
Ġoper ations
p art
Ġm oon
Ġg all
Ġr ent
Ġr ing
ĠT ra
ĠF BI
od u
Ġqu arrel
ĠFin ance
Ġcomed ian
ĠM use
ĠC ape
ĠAl bum
ĠSh are
ĠFal z
Ġpartic ular
ĠMart in
ĠAlh aji
I P
or ity
Ġdi pl
ĠM all
ĠF il
Ġcom b
ab or
ric ulture
Ġad vert
ĠEb ony
ĠOff ice
T Y
Ġ20 06
ur se
Ġex ternal
av es
en ess
Ġj aguda
Ġcomp uter
Ġleg end
Ġcontr over
Ġpoll ution
ĠNw oko
Ġfriend ly
Ġs ac
Ġp en
ĠM ama
ee ze
Ġmi x
c r
Ġc os
Ġc amer
it ing
ĠT ORI
ĠV ol
Ġde ceive
Ġmon key
Ġprotect ion
Ġaccount s
Ġdet ention
Ġgof ment
L C
Ġwe ather
Ġher o
Ġany where
Ġprod uction
Ġevri bodi
ĠOk oro
Ġdel ete
Ġexam s
ĠNy esom
r ob
ĠSt eph
ĠAb acha
Ġpikin s
Ġco ff
ro ach
ĠJord an
ĠS af
ed y
Ġde gree
ag ues
Ġpr emi
ĠY ah
ind e
ĠMe ghan
Ġd omot
ĠM er
ent ial
ĠO ur
ist ics
ĠL il
Ġpower ful
Ġins ult
ĠMah ama
Bl ack
Ġequip ment
E very
Ġh orse
Ġsh ops
ab lish
Ġgr ass
Ġle ak
ĠCh air
Ġsp ons
Ġcur few
ĠAmb assador
Ġdisapp oint
Ġbapt ize
ĠYak ubu
m iss
Ġh un
ĠM un
Ġl ift
Ġno bodi
ant e
eb o
ĠGl obal
Ġhap un
it her
Ġk p
ĠW estern
Ġre v
ob ol
Ġparticip ate
p ing
w ick
Ġw alk
ĠComm unity
Ġcitiz en
vi ation
B ashir
f ect
ov al
use gun
Ġsec retary
Ġf otos
ay lor
ĠM ilitary
ĠB af
Ġas pir
ass an
Ġv arian
Ġbeh aviour
Ġpriest s
Ġinvol ved
ĠMaur ice
ruct ure
w etin
ĠN am
ik i
ĠSh ell
Ġstat ue
ĠPol it
Ġlar gest
I ON
on ze
it in
ĠM n
ĠD iv
am s
ĠB on
orn ey
ĠAl iyu
Ġsm ell
Ġnumber s
ĠGh c
r ight
y ahoo
Ġs elect
Ġb ri
ĠF un
ĠE st
ab in
ĠAn as
ren e
Ġqual ity
aur a
ĠFl or
Ġsum mit
ĠPlay er
b al
g ie
y u
an ga
is i
ĠG al
Ġmar ried
ĠAct ing
in ate
Ġc reat
id es
et a
Ġr ival
ĠW il
ut or
ĠL ife
ĠR ob
Ġev ry
Ġbr and
ĠLe vi
Ġfe es
of i
aj u
af i
sec urity
p ox
ĠS atan
Ġsh ele
ĠWh ich
Ġcol our
ĠHer dsmen
Ġnec essary
ĠJournal ist
P E
Ġw ould
Ġre b
Ġcap t
IN N
Ġsn ap
Ġmeas ures
Ġmach ine
I L
S A
ic ate
Ġk over
ĠG ames
Ġreg ular
Ġpred ict
ĠBos eman
O k
Ġb aba
en ue
am med
ĠE very
ĠC yr
ĠL at
Ġwork er
ord ers
Ġevery one
ĠPl enty
Ġ200 3
Ġterror ism
ĠLy on
Ġobs erve
5 2
e er
Ġm ade
Ġr en
ĠJ oy
ĠDur ing
ĠĠĠĠ ĠĠĠ
Ġsome one
ĠTh rones
Ġeng age
Ġemb assy
Ġtoil et
G over
w ia
it an
ĠP ope
ĠE to
Ġk lean
Ġgr eet
ug al
Ġboy friend
Ġtit les
ĠBay ern
ploy ment
ĠApp le
R O
a e
ĠN ot
ĠO pp
ĠB ol
ĠC ond
ĠH en
ĠR oma
Ġgr ave
ĠTh ird
ĠMal awi
Ang lophone
R A
f ield
Ġh ad
Ġk ings
ĠL ive
ock et
Ġportal one
ash ons
ĠMad agascar
Ġsurr ound
ĠiP hone
Ġtro ops
4 2
9 9
ĠA viation
ĠF ar
Ġatt ract
Ġsc ene
Ġmean ing
ĠMed ical
ĠLeban on
L e
Ġ else
in ed
Ġb ite
ĠA ud
re al
Ġse k
ĠKen y
Ġqual if
et te
ĠM aid
ĠN ob
Ġde v
Ġch ang
ian t
ĠY obe
Ġ5 5
ris on
Ġdiv ision
ĠIgh alo
c raft
Ġbl og
uf ai
Ġvill ages
ĠKw ara
ĠCont rol
Ġneg ative
A U
om it
Ġo we
ord s
ĠDr ake
Ġtest ing
Ġpray ers
K en
Ġs ection
Ġm ale
ĠL ike
Ġsu bs
ĠY our
ĠSt ella
ock down
uss ia
ev in
Ġest ablish
ĠT al
ĠT rib
ĠP ass
ĠP ikin
ĠE t
ab ar
Ġj un
ES T
let ico
Ġsha ut
ĠIwo bi
M ar
b ased
p a
at o
ĠJ en
Ġwit out
ĠH ollywood
ĠR adio
Ġbel ong
ĠJe an
B ig
k el
r ay
u i
ĠB all
ell ing
ut u
ub am
Ġartist e
Ġmov ies
Ġadm ission
ĠGar ba
omat ic
D F
b es
ĠU p
ink a
Pr of
ĠApp eal
Ġfun ny
ĠWit ness
ĠPre z
stitu ency
f ace
ov ic
Ġcl imb
land s
ĠOb y
be fore
any i
Ġpan el
l ie
x it
Ġw uru
Ġb al
Ġg ar
ĠD ist
ĠB ureau
ĠP VC
ĠH ot
ĠK ings
Ġbr ut
Ġsec ure
ĠTr ade
Ġclaim s
In st
Ġcomment s
ĠKy ari
7 0
N A
O THER
e ga
Ġp ull
ĠN umber
Ġgo ds
ĠV er
ĠC BN
ĠH in
Ġen ergy
Ġsp okes
Ġsm ile
ĠComm unic
Ġnot e
ĠDr ug
Ġart ists
ĠBo x
Ġapolog ise
oy i
ĠWh ats
ĠInst itute
Ġinf r
ĠSw ed
final s
Ġw ood
Ġm aking
ĠI y
iger ia
ĠB ak
ĠC ro
Ġv ol
av ing
Ġsc r
ank w
ĠOl usegun
Ġhospital s
ĠGov norship
Ġpro of
ĠGab on
i ary
ĠS l
ĠP ark
ĠP etrol
ĠL ai
ĠK a
Ġair ports
Ġpregn ancy
n i
th od
ĠG O
Ġpr ime
ĠR et
Ġcr own
AF P
ĠLaw al
Ġimpl ement
Ġvarian t
J ehovah
Ġo y
ic ation
ad o
ĠE K
ĠUn iversities
Ġmajor ity
Ġexam ination
yr ight
Ġpil ot
Ġathlet es
- ...
I t
O L
O b
R ead
Ġg reen
ĠT her
ĠP I
Ġpr incip
ĠL am
ĠU nder
Ġcon str
Ġconf ess
Ġregion al
ĠM ans
ĠF ela
ĠO t
is dom
ĠJ ay
ise d
Ġalleg ation
Ġofficial ly
ĠSar ah
ugur i
Ġcour se
n ey
p ire
in st
ey ang
Ġp ocket
ĠM od
ĠO j
Ġhon or
ĠOlam ide
E FCC
S T
h i
p ut
w en
Ġt ask
Ġ20 23
ĠV al
ĠC ount
ĠU EFA
Ġch eat
Ġany one
ĠAf ghan
Ġcomp et
Ġrel ax
opul ar
ĠPort ugal
Ġmiss ing
ĠCon f
ĠReg ion
Ġhundred s
ĠPal ace
ubam eyang
9 0
Ġ vers
Ġd oub
Ġf ool
al ition
ĠĠĠĠĠĠĠĠĠĠĠĠĠĠĠĠ Ġ
Ġcelebr ities
Ġrub ber
f it
s ey
s ay
w uru
er i
ig il
ĠC oll
ast and
ĠSp anish
Ġgl ory
Ġmay be
ĠHol y
ĠD uke
Ġshe ep
omm end
ress ion
ĠCl ub
Ġcomed y
aus a
Ġche ap
c ity
Ġm ult
ep rene
Ġdia sef
av y
ant ine
ib e
Ġ7 5
Ġmost ly
Ġmob ile
Ġc ast
Ġo gas
Ġpr ices
ĠL G
ast ructure
ab et
ĠPr im
ang agwa
Ġhead quarters
ĠKill ings
B ar
z y
Ġb iz
om en
ol ate
ĠT aylor
ĠF ashola
ĠB iden
ĠC C
ĠPr incess
Ġcor rupt
Ġper mission
gr ace
Ġcirc ulate
Ġmater ials
Ġgy ms
) ;
ig ation
ĠT ony
ĠF estival
ĠH app
ĠR EAD
Ġlo ot
Ġown ers
lud e
Ġpreach ing
ĠAdam awa
M T
a ugur
Ġp ur
ar awa
ĠA ch
ip p
Ġsh ift
Ġcon vention
Ġen emy
Ġconf idence
ĠProgress ive
ĠAlex and
f rom
u y
ĠE ric
Ġcom ing
ĠPr ess
Ġpart ners
uc lear
ĠGr ace
Ġprop ose
Ġgun sh
ĠNg ige
9 8
Ġst or
Ġk are
ĠJ eh
Ġsp as
ĠEur opa
Ġnec k
g old
n es
x ico
Ġs ource
ĠM ount
Ġe p
ĠT ins
ĠP ower
Ġre ign
Ġag enda
Ġdist rict
Ġfav or
ĠSis iku
ĠS upp
ol ve
ap ata
ant i
Ġrec ommend
ĠEmir ates
Ġ199 0
Ġweap on
Ġpregn ant
ĠNet flix
Ġsuc ceed
W HO
e a
Ġ ign
20 18
th ew
ĠN FF
ĠE id
ĠW a
Ġcl imate
ĠCon stitution
Ġgall ery
5 1
p et
p ol
Ġc ool
Ġl ion
ĠI S
Ġdon ate
ĠP ep
ĠJ akob
ĠL u
ul ations
Ġun cle
ue a
Ġqu een
ĠNo ah
Ġsl ap
rib ution
v ious
Ġpr os
ivers ary
Ġvot er
ĠMos cow
In side
Ġmag azine
C H
ĠN GO
ĠB as
Ġtr obol
ĠAb ba
eng th
Ġnation wide
Ġaw are
INN ER
ĠMaid uguri
0 4
Ġt alent
Ġn ite
ĠT own
ĠC ust
iv id
01 9
ĠSt ar
Ġcurr ency
ĠAmb azonia
Ġple ad
U K
k ing
and e
ĠN O
Ġe th
Ġe gg
ĠF er
ĠG om
ch ukwu
Ġen sef
ĠCameroon ian
ĠBr ight
eg un
Ġcre am
Ġhy dro
char ge
z aky
Ġp ion
ate gy
Ġ( $
Ġcr imes
Ġcivil ian
Ġpolic emen
Ġemp ty
Ġguidel ines
Ġr aid
Ġr ally
ĠPr ov
ok u
Ġag ent
Ġbr onze
ĠLe ah
Al though
ĠTe am
Ġcriminal s
Ġinstit utions
ĠN go
ĠP s
Ġam end
ĠR em
if fer
ĠY es
Ġsome body
Ġund astand
Ġspe ed
Ġreact ion
ĠAnn an
Ġbull et
f u
s l
Ġb ribe
ĠA ubameyang
Ġr ide
Ġe ither
ĠT oday
re ed
ak zaky
Ġj olly
Ġcons ult
Ġel ders
Ġcloth es
Ġproject s
Ġrobber s
l atan
Ġt ay
ar p
Ġst ore
ĠL uke
ĠU FC
ĠCh eck
Ġ5 6
Ġconf use
Ġjoin t
ĠNor thern
Ġbeh ave
OM I
l ife
y te
ĠS m
ĠI N
ĠO ut
ĠC ivil
Ġk amp
iti ative
Ġcamer a
L ast
m m
Ġf ee
ar ity
ar ant
ĠJ im
ĠU td
ari ous
Ġwork ing
Ġgirl friend
ĠOb a
ĠEl iz
Ġinvestig ations
Ġkw esh
Ġsid an
Ġindepend ent
Ġchalleng es
ĠTrib unal
i i
o at
Ġf t
Ġc ow
ur ed
ĠF amily
ĠC y
ĠC andid
ĠK evin
ib ia
ĠAs ia
Ġrem ind
Ġcap tion
Ġcelebr ity
Ġz one
Ġsil va
Ġscreen ing
Ġmosqu ito
Ġbri ef
b assy
p o
t urn
Ġs oup
in ner
ell or
Ġdo h
Ġpat apata
ĠAn ti
Ġthough ts
Ġdead line
ĠMn angagwa
Ġg ender
ĠPr o
Ġag ents
ĠIm m
Ġgu ard
rist er
Ġass ociation
Ġdoc uments
ĠOlym pic
Ġmel u
G oment
in ma
Ġ20 05
op er
Ġwant ed
Ġdiffer ence
Ġpal ace
Ġter ms
Ġins ist
ĠCro atia
7 8
G ov
Ġd aily
Ġst ab
is ing
ĠK or
Ġkill i
Ġte en
Ġdes erve
Ġinv asion
Ġref ugee
Ġlevel s
Ġcoun ter
e i
m ys
Ġm us
it arian
ĠS abi
Ġgo at
Ġdis grace
ir ty
Ġas h
Ġact ors
Wh ich
Al so
abe th
Ġexper t
Ġtechn ical
l oy
Ġt ough
ol ation
all a
ĠK om
Ġab ove
Ġsec ession
Ġtrad ition
yl v
ĠCont ent
Ġrespons ible
Ġchem ical
ĠOkoro cha
S uper
Ġ er
ĠS ah
ĠA irl
il ities
am mer
is l
ch loroquine
ap ers
ĠNa omi
ĠZ eal
ĠNo body
Ġem ot
Ġsan ctions
Ġsum mer
Ġwind ow
s et
Ġ ill
Ġm ir
ĠS imi
Ġin form
ver age
ĠR oh
Ġcall s
ight y
Ġsim ple
Ġ iron
or th
ĠE le
ĠE PA
ĠU r
Ġbo ost
Ġlo ose
Ġex ist
ĠDi sease
ase f
ĠDemoc racy
Ġmeas ure
ĠSecond ary
abin et
r est
Ġp idgin
Ġn ut
im en
ĠF ans
ĠG et
ĠL ee
aw o
Ġev il
Ġop tion
Ġ8 5
Ġwr iter
Wh o
ĠRes earch
Ġpre fer
ĠFl ood
ĠIsa ac
Ġcolle agues
U na
ĠS ub
Ġin ject
Ġin augur
Ġtr ous
Ġsen ators
Is rael
fort un
ĠAtt orney
Ġlab el
Americ an
Ġspons or
0 8
A E
K ano
M O
Ġt ack
Ġc old
Ġm or
Ġg ats
ĠS um
ic les
ĠN ick
as a
Ġab le
ĠPr ison
Ġex act
ĠY OU
Ġacc ol
Ġjoin bodi
Ġevri where
Ġcre w
ĠSc ience
ivid ual
T erry
Ġ et
Ġd ump
is her
ĠE ye
ear t
Ġdo ing
ĠBr oadcast
Ġbuild ings
Ġconc lude
ardi ola
x ual
Ġc ovid
Ġy eye
Ġdis miss
Ġ5 4
ĠOk oye
Ġdeterm ine
ĠMun ich
ĠTher esa
Ġbiz ness
W est
h en
n el
n ic
ĠV illa
ĠP M
ost ed
Ġacc us
ĠAt l
Ġ200 4
ĠEl isha
Ġdep artment
Ġsk ills
ĠUT OMI
ĠBre xit
ĠAdm inistration
ĠEK PE
F r
ĠS aint
Ġst orm
ĠC ard
ag ine
ĠU che
Ġrun ning
Ġbel ow
Ġmess ages
ĠStr ike
Ġavailable View
ĠSom alia
ĠMain land
Ġdisqual ify
ĠPI US
ol and
Ġl ay
ell ers
ĠU efa
Ġdo se
An oda
Ġhe al
az i
Ġprop aty
ĠJust in
Ġsit ting
ĠAy uk
Ġel der
ĠFC FA
ali for
Ġlectur er
Ġmoment s
' :
b on
s ene
Ġn uclear
Ġgo sp
Ġy ellow
ĠH all
wit h
ok en
Ġ6 5
ĠFor bes
Ġevery bodi
Ġident ity
ĠAL SO
Ġpion eer
yte chn
ĠEKPE I
Ġgosp el
T wo
c or
l o
s hip
at i
Ġb ore
Ġb orders
Ġm ast
ĠB ashir
ir u
ch o
us ion
Ġch ase
ĠK uti
ĠAn ton
ach i
Ġrespons ibility
iffer ent
P Y
h an
Ġt on
Ġb it
ĠD aura
Ġim age
Ġpass enger
ĠK ofi
Ġrep orter
Ġgen eration
ĠJud ge
ĠBus iness
Ġrestrict ions
Ġinfr astructure
alifor nia
A Y
S om
T oday
z z
ĠO x
ĠO z
ac ity
ĠB er
Ġst ake
Ġch est
ul s
ĠSwed en
Ġtack le
V ideo
Ġs ens
Ġp ity
et ch
ĠF ury
ĠG ift
Ġbr eeze
ĠEm bassy
Ġgood s
uf act
ĠUkr ain
Tr ump
Ġmos que
Ġdeclar ation
6 8
b en
on to
Ġw ide
ic ked
ĠF ull
Ġre form
all ey
Ġsu d
Ġrep air
ĠChampions hip
ĠBo ard
ĠMat thew
Ġterror ists
Ġentr eprene
E k
H CR
Ġa ffairs
Ġl if
ĠT om
ag ing
ist ia
Ġme ans
ap o
Ġop t
Ġbi ography
olog ist
Ġtrib unal
ĠCr imes
lus ive
j ust
m ail
Ġw ise
ĠS ant
ĠM ust
ĠM ax
ĠF ever
ĠB uea
ĠK ol
Ġsp ot
Ġper man
ĠSer v
rid ge
ding a
Ġexpect ed
Ġproc ed
Ġgb as
Ġcy ber
Ġbott om
u wa
Ġpr epar
ul a
qu ick
ĠAb out
Ġrep eat
anc ellor
Ġgover nors
aj e
Ġresp et
Ġleg s
IC EF
Ġdoll ar
ĠX enophobia
ĠPetrol eum
un anya
Ġre ven
ach e
Ġact ions
ĠMuh ammed
ĠSe ven
Ġph otos
ĠCont e
on ey
Ġa verage
ĠT abe
ĠF emale
Ġbe auty
ach ukwu
Ġsee k
ĠTh at
Ġthr one
ĠChad wick
Ġphys ical
ĠRel ations
ĠEliz abeth
p ers
ĠD aily
ĠB ud
iv ely
ib odi
Ġcare ful
For mer
Ġprop het
ann el
Ġball ot
Ġquar antine
Ġfig ures
M ost
k m
Ġdi abet
Ġn ons
as he
ĠR ot
ong a
Ġ5 2
ĠAd em
Th at
oph et
ĠBal ogun
Ġsud den
0 3
R M
T N
Ġm aster
ĠW ash
ĠL ew
re ate
Ġsp ec
ĠInter net
Ġass ure
Ġsw allow
ĠJose f
ĠPol and
ĠWa ec
E n
R C
Y es
Ġt ent
Ġc ra
Ġh ung
ĠA th
ĠC alifornia
Ġk or
ut a
ĠH ous
Ġab s
Ġj ersey
ĠZ latan
Ġsc ience
Niger ians
go ing
Ġind ividual
ĠAg u
Ġbook s
ĠFC T
Ġshut down
ĠMand ela
. ''
K ing
m ond
on el
ĠS wit
ĠP ere
ĠE j
Ġch ick
Ġbusiness es
ĠPl an
ĠAct s
Ġclos ure
ĠYah aya
A G
t en
w ed
Ġt ing
Ġb one
ĠA so
Ġl ite
il es
ĠI j
ir gin
ĠL olo
ie h
ib an
Ġ6 4
oo oo
Ġset t
ĠInd ian
ĠOr t
gr ound
Ġap art
ĠRich ard
Ġfun eral
Ġsurr ender
Ġrecogn ise
ĠAde osun
iev ement
Ġhun ger
Ġchang es
D AC
z gold
Ġ ke
Ġt ab
Ġs and
ĠD um
ac ed
rit ory
Ġrul er
AF DAC
ron ic
ĠGu ardiola
Ġvacc ination
Ġimp act
Just ice
aky i
ĠHis bah
Ġign ore
P L
Ġo l
ĠM oz
Ġr it
ĠC odeine
Ġk ana
ust ain
ant age
Ġ199 4
Ġconcern s
ĠAy o
ĠKw esi
ĠMin ute
ĠAN OTHER
Ġcritic ise
O K
Ġt ag
em s
am ad
ac le
ĠR esident
ĠSh ow
Ġhigh er
Ġsong writ
Ġimp ose
ĠBor is
ĠDoct or
ĠNgo zi
G H
m und
Ġf ully
Ġm ate
Ġgo t
Ġbe ach
ĠW eek
op y
ĠL GA
Ġmed al
esin a
Ġoff a
Ġsk y
Ġgun s
Ġkount ry
Ġlit tle
xy chloroquine
ĠLuc y
s k
il ar
ĠB ala
ĠH ausa
ack s
iss au
ĠFor um
Ġrec ording
Ġthem selves
ĠAnd re
Af ric
ann y
ĠCl in
Ġhar m
ĠKw ankw
ĠFootball er
Ġsch eme
zer land
Ġcongrat ulate
? ,
F I
ĠS un
ĠL as
Ġapp rec
az on
Ġdist ancing
Ġserious ly
Ġprof essor
Ġexp ire
Ġcirc um
I b
M ay
Ġ /
el and
el son
Ġr oll
ĠO ch
ĠB ecause
ĠC he
ĠG ree
ĠU wa
ĠK ayode
und er
Ġover se
ĠAng ola
ĠIf unanya
ĠĠĠĠĠĠĠĠĠĠĠĠĠĠĠĠĠĠĠĠĠĠĠĠĠĠĠĠĠĠĠĠ ĠĠĠĠĠĠĠĠĠĠĠĠĠĠĠĠĠĠĠĠĠĠĠĠĠĠĠĠĠĠĠĠ
ted ola
ĠSy m
Ġtrous er
? "
M M
S p
n ed
ou m
ic ron
Ġr ans
ĠH u
ĠL and
ari bu
ew a
Ġann iversary
ĠSe a
ĠEn ter
Ġ199 3
Ġviol ent
O S
c are
Ġw imen
Ġs ins
Ġp ension
ber y
Ġr at
ĠO ld
ĠB ishop
ept ion
ap s
Ġkill er
ib r
ĠĠĠĠĠĠĠĠĠĠĠĠĠĠĠĠ ĠĠ
ĠEb uka
Ġtw ins
Ġrank ing
Ġlik ely
TM PY
Ġcapt ure
Ġhung ry
P osted
W C
g ed
p ose
an ess
Ġt ee
Ġh at
ĠO dinga
ĠC P
ĠH y
ĠL os
Ġstr ength
Ġpan ic
Ġdocument ary
ĠJack son
ĠNun ieh
ĠKeny atta
ĠServ ices
B oko
L ike
l ict
p ob
Ġt ips
at ar
Ġfeem s
iy i
yl um
ĠWal ter
ĠWhats App
Ġnons ense
d ia
Ġm out
Ġn i
Ġl iving
ad ies
ĠC ancer
ĠK emi
Ġso ft
Ġar ia
Ġcl ock
ris ky
Ġprob e
ĠMe xico
ĠOm ar
Ġresearch ers
Ġty p
ĠAkin w
sal ms
Ġcolon ial
igen ous
Ġdoub t
4 019
E x
c k
Ġm and
Ġn ashons
et ta
ĠC ode
ĠR od
Ġbig in
ĠMin imum
Ġamb assador
A D
T ok
s i
Ġc edi
Ġm er
Ġdem ma
is as
ose xual
ĠAb eg
Ġstr ategy
Ġsecond s
uk u
Ġsign s
Ġve get
Ġem ail
ĠMc C
Ġfig ure
ĠSteph en
Ġc abinet
ay i
ĠS ule
th is
ĠF ani
ĠE z
ĠE ti
Ġdo es
Ġar riv
Ġus er
ven i
Ġrel ate
Ġclose d
Ġserv ant
mon th
Ġlink s
ĠJul ius
alent ine
ET TY
ĠSwit zerland
% .
F ive
or os
Ġt ension
ĠS DF
ĠB a
ĠW ell
ish on
Ġ6 6
Ġexpl ode
aj ide
ĠAg ain
Ġap ostle
Ġbless ing
ĠEqu atorial
Ġdiabet es
g ers
im obi
ĠB ern
ĠK eb
ine es
ĠGod sw
ĠTr ue
Ġland l
Ġfail ure
Ġeth nic
ĠRoh r
E l
s c
y al
Ġp orn
al ian
ĠS ix
Ġto ll
Ġdis aster
ĠH ope
ĠEl l
Ġprof ile
Ġappr oval
Ġarg ument
7 7
S am
j ure
Ġw icked
Ġc oc
ol era
ĠD ar
Ġr ail
Ġbe er
ĠE f
ri el
Ġex port
Ġyoung er
Ġdisc rim
ĠTen i
Ġ200 2
Ġstand ard
Ġhar vest
Ġcustom er
ĠAdv iser
Ġp op
ĠS a
Ġto wards
ĠT ax
ĠB ah
ĠP ict
ĠE gb
ĠC ost
all ah
Ġse vent
ĠMar vel
Ġconf lict
Ġgover n
End SARS
ĠRam adan
ĠPri ze
Ġeffort s
ĠFil istia
k u
m aker
Ġm oto
om ago
ĠM TN
Ġdem self
Ġk oko
ch ie
Ġgr ace
ĠSh aribu
ĠMon key
amb ique
Ġmother hood
Ken ya
c ed
u x
en i
ĠM end
ĠO tedola
ĠB ola
ĠV ill
ort ion
ul f
ĠSt at
Ġshow s
Ġad op
oh a
ĠEm eka
Ġadv antage
iam ond
9 6
N C
T op
r ey
Ġf al
Ġt if
Ġa id
Ġa im
Ġc art
es l
Ġr am
ĠB ry
ĠH an
ĠH eb
Ġ5 3
ug a
ĠIm manuel
ĠAr sene
ert ain
fer ence
Ġspe aker
ĠAy ew
'' .
ether lands
ĠStr eet
ĠWash ington
ĠN elson
ĠA gy
un o
is c
ĠG aga
end ers
ong o
Ġres ources
Ġus ing
ĠAd esina
ĠRep s
Ġdep loy
ĠGo al
ij ah
ĠIndepend ence
Ġlar ge
o is
Ġw isdom
Ġn urse
se ases
Ġbusiness man
Ġsc am
Ġopp on
Ġph ones
Ġkw es
ĠPri est
Ġdig ital
erm ain
ĠTal iban
ĠAfghan istan
G o
U T
at ic
Ġb um
ĠS ab
Ġh ack
ĠD ance
Ġst ick
Ġk ut
ĠJ oh
Ġre ward
Ġv ow
Ġman ufact
ĠNa ir
Ġworld wide
Ġprop ert
Ġartist es
ann els
Ġquick ly
ĠMark et
inn ick
Ġbrut ality
J u
Ġf oul
at u
st er
ia b
ĠT ai
Ġy es
ĠE r
Ġas ylum
Ġal arm
ist er
ĠL A
ens h
Ġfl oor
ĠMor gan
ih anna
Ġopt ions
ĠAdem ola
Ġs ale
id ents
ĠD ike
Ġsay ing
Ġev r
ĠAb e
Ġqu e
ĠShe k
Ġsm art
ĠBar rister
ĠEn vironment
ĠUN HCR
Ġconn ection
ĠPat rick
aly st
ĠAngel es
ĠComp any
ĠShi ite
ĠLim ited
Ġlim it
ĠMP s
ĠAnton io
Ġs oul
om ise
ĠM am
Ġl in
ĠF OR
is f
is ions
ĠP op
ĠG reen
os es
ant akyi
ĠCh im
Ġgu arant
ĠCor ps
Ġreact ions
ias ia
ĠMen zgold
ĠNas arawa
Ġmater ial
ĠTem ple
Ġfif th
ĠMuse veni
F ree
u iz
ĠS i
is u
ot al
ir o
os al
ag ers
ĠK ey
Ġrec all
az iz
Ġrest aur
Ġtweet s
ĠCr iminal
Ġimm igration
Ġconstitution al
ĠStud ents
led ge
Ġinfect ions
Ġcred it
Ġrit ual
g ar
an u
Ġb ird
Ġm umu
id u
ĠM D
ach el
ĠRe f
Ġprom ot
Ġtrib ute
m ing
ĠF M
Ġenter tainment
ĠTe x
Ġnom inees
Ġinflu ence
ĠChair mo
omit able
Ġf ain
ĠS on
ĠN ic
Ġof isas
ĠB il
ĠW here
od un
ĠG w
for cement
ab an
ors hu
Ġse ed
Ġte xt
ĠQ TMPY
ĠOs car
Ġdead ly
Ġneighbour s
ĠAud io
Ġbal ance
Ġrans om
R e
h ouse
ĠS mall
ĠN LC
ĠO h
ac o
ĠW INNER
op ra
Ġv enue
Ġv arious
Ġun its
Ġ5 9
Ġstart ing
ĠBab at
Pl enti
Ġlic ense
ĠCH AN
ziz a
rob eat
Ġperman ent
7 6
a ult
k orn
Ġc attle
Ġh um
ĠT our
ĠF ather
ĠP innick
Ġna h
ĠC amb
Ġ1 000
Ġup on
Ġkont inu
Ġsom et
Ġsuspend ed
ĠNy antakyi
Ġshould er
Ġorganis ers
ĠLawy er
ĠTex as
Y u
k n
k w
m ago
r ine
ar u
ic ations
ĠM as
Ġdis play
ch an
Ġtr ail
ap ter
Ġfight ing
ĠCor por
Ġpre vious
Ġap artment
ĠAj imobi
Ġtraffick ing
B y
Ġb asket
em p
Ġm ort
ĠP opular
ĠW ater
Ġme thod
end ar
bo ard
Ġhead ache
az ing
ĠInst ead
ĠAt letico
Ġtest s
ĠOm icron
ID S
Ġvacc ines
Ġcal c
che z
ĠOper ation
ĠNC DC
ĠEbony i
ĠUkrain ian
ĠClin ton
ĠGodsw ill
g s
m ore
Ġdi f
Ġdi seases
Ġh ammer
ĠM ot
ol es
ĠI D
Ġwe alth
Ġno se
Ġv igil
ĠPr ophet
Ġun less
Ġar m
ĠSt e
Ġ6 00
Ġact ually
.. ..
Ġmag omago
Ġprosec ution
ĠIfe anyi
ĠBu ild
ĠS ur
ĠS adio
ĠS iasia
ĠC onc
ort mund
Ġv an
ĠPr osec
Ġso ap
Ġrul ers
Ġtem per
ops y
Ġproduc ers
ĠWal es
ĠEmer gency
uls ory
ĠNair obi
Ġpropert ies
. )
i w
ĠB oss
is es
Ġch amber
ĠK idn
um ba
Ġlo yal
ĠMar ia
Ġ7 2
sh a
ann es
ĠJon es
ĠProg ram
Ġrequ irement
Ġemp ower
cow as
Ġdark ness
Ġprincip al
Ġpros per
D ia
O l
d at
i um
Ġs ize
Ġto ols
Ġh all
Ġh ire
ĠT iam
Ġin security
ĠL es
Ġ7 6
Ġ8 00
Ġmin ority
Ġgu est
Ġsw im
ĠCom oros
Ġheavy weight
Ġfigh ter
ĠZeal and
b in
y na
at to
st ar
ĠM ember
ind ele
Ġstud io
ĠFacebook De
Ġlong er
amo ah
ĠImm igration
' -
b ear
n n
ur un
Ġth irty
Ġbe ef
ĠG MT
Ġpr ish
Ġan t
Ġun ions
Ġattack ers
oo th
oth y
Ġinst agram
b illion
Ġd ancing
ow a
ĠT ak
ĠR och
ec ca
av our
ĠBr ig
46 9
ont ay
Ġthrough out
gr ade
Ġsw od
Ġprof et
Ġtear s
Ġnomin ations
Ġveh icles
ĠRet urn
ĠMoz ambique
ĠKeb bi
B ible
G u
v in
ĠM ir
ĠN etherlands
ĠV alentine
Ġcom fort
Ġ1 20
ist rate
Ġcl inic
Ġpresident s
Ġmeet ings
ĠSam son
Ġdeb t
53 11
Ġmod ern
Man chester
Ġdeleg ates
0 9
I nd
N D
S ex
c an
ĠD iamond
Ġl y
ĠI he
ĠL uk
ĠR eb
ĠIn f
ok i
ĠSh aria
Ġfree ze
In ter
ĠJe ff
ĠFun ke
ĠCyr il
ĠCust oms
D eh
W ith
c ars
t ag
Ġ ir
in ema
Ġp ose
un ion
ĠC am
ab iri
ĠR ap
Ġtr ick
ĠIn ec
Ġ6 1
Ġcond ol
ĠArt icle
ĠWar ri
ĠVictor ia
ĠEmer y
H S
L E
ĠM id
ĠD ortmund
ĠP ita
ĠJ azz
ĠH ome
ok a
ant ic
eb oy
Ġ6 2
ĠTr ad
Ġcomp ulsory
Ġair craft
aph a
ĠWill iam
ĠChuk w
ĠLead er
ĠMik el
Ġconstr uction
ĠLG BT
ĠPrim ary
Ġsett lement
B ur
J ohn
K O
l ol
o ody
or ia
it ude
ic ial
ĠD addy
ĠN EMA
ber s
ĠT HE
ĠF ah
Ġst ones
ut ies
Ġre ver
ĠK al
Ġme k
um i
eat h
Ġplay ing
Ġqu iet
Ġcomp ound
ĠInd omitable
Ġjud ges
ĠEx am
ĠAct ion
Ġgrow th
ĠSchool s
par ency
ĠRev olution
ĠAdes anya
ĠTechn ology
ĠTiam iyu
u o
Ġp orshu
Ġc ode
Ġh ill
ĠM em
im ir
ap her
ie ber
Ġgoment s
Ġun ity
ĠY ahoo
oy ele
ail and
ĠGrand e
Ġfal se
b ol
i ation
n t
Ġd ed
Ġc ows
Ġm ami
ĠS ylv
ĠI MA
ĠP ogba
ĠJ am
ĠG reat
Ġact ive
Ġtrav ellers
Ġinst r
ĠUN ICEF
ĠTrans port
At iku
ĠAp art
Afric an
ĠKwankw aso
M eet
M Buhari
Ġ igbo
Ġto sh
Ġh ook
ĠM ill
ĠI M
ĠT og
ĠF ilm
un te
ĠU AE
iz ed
ĠĠĠĠĠĠĠĠ Ġ
Ġ7 7
Ġ7 8
Ġbre ath
Ġhealth y
Ġrecord s
ĠEx per
Ġsub ject
Ġint elligence
ĠAny body
Ġtee th
Ġdif ren
i qu
Ġh ash
th a
ig ue
ĠJ amm
ĠL ives
Ġtr illion
ment s
ach ers
Ġuse d
ĠShe ik
sh arp
Ġcamp us
ĠBe th
Ġwon da
Ġeng agement
ĠDoct ors
ĠDiv ision
urun ziza
' m
O da
Ġb eri
Ġc at
el u
ĠM ath
ĠN AFDAC
ig ar
un ities
od ge
ab out
ĠTh ank
Ġperson nel
ĠNor way
ĠSec ret
Ġsouth west
umb le
Ġjoll of
oduc er
Ġacad emic
Ġchick en
C l
_ _
h n
Ġf em
Ġs ustain
Ġa er
and al
ĠI C
ĠT elevision
Ġdon key
ĠO il
ir ut
Ġpip eline
ĠR ihanna
if ts
Ġcall ed
ĠTr ust
Ġpo o
ousand s
Ġsav ants
Ġdiscuss ion
Ġscient ists
ĠJen ner
ĠOrt om
s he
w ar
il ation
ĠI DP
Ġk ids
ĠJ ama
ĠL ake
oc ked
Ġun em
Ġcar ds
Ġar ms
23 7
Ġop in
ĠTh ey
Ġoffic es
ĠAm ina
idd y
Ġvisit ors
Ġever itin
ĠMus k
oyin bo
hold ers
ĠAirl ines
d ie
t ies
Ġw estern
Ġst uff
ĠW ath
op l
Ġal lege
ain s
ĠK az
Ġher bal
ĠIm am
pr esident
Ġmonth ly
Ġkidn ey
Ġsol id
Ġgreat est
Ġspirit ual
Ġsch ol
Ġtre ason
ĠAdeb oye
ĠBaf ana
reed om
D o
or g
Ġt a
ĠS el
ĠA P
ĠF ir
ĠP A
Ġk il
Ġwit ch
ap ore
oun ce
Ġadd ict
az e
Ġmilit ant
ĠAnd y
Ġdef ensive
Ġfilm s
olog ical
Ġcoll abor
ĠTe aching
ĠNk urunziza
Ġsim ilar
Ġak ordin
Ġren ew
ĠIMA G
7 9
D onald
R I
l n
n al
er un
or a
Ġn arr
ĠN j
ĠB ul
amp ton
ĠOl u
Ġcap acity
ĠAmeric ans
ĠWed ding
Ġhuman itarian
ĠCommand er
Ġchair mo
Ġfif ty
ĠAkinw unmi
Ġarriv al
6 1
ĠS n
ep o
Ġon going
Ġkn ife
Ġprot et
Ġfin ance
Ġhigh light
Wh ile
Ġallow ed
ĠBab ajide
ĠReg ional
Ġfavour ite
ĠSil va
ĠBob risky
ĠBall on
Ġtyp es
f ather
s er
Ġf inger
em aya
it ive
Ġn ations
ĠT ank
ĠO F
as se
ĠE ze
ĠC ry
ag ed
Ġtake over
Ġent ire
ail a
ĠAustr alian
ĠOg oni
Ġappear ance
Ġmask s
Ġconv ict
Sen ator
Ġmount in
ĠRot imi
B ab
C ourt
b as
c er
s ome
om et
st ant
ur ies
Ġno ise
ach o
ĠHar v
Ġprov ince
Ġint eg
ĠMark le
Ġcitizens hip
Ar senal
ĠKh al
ĠSqu ad
Ġsubs id
P salms
b eat
f ire
en ing
ĠM ens
ig i
Ġna ija
ĠE C
ĠC atal
od ies
ĠK r
Ġun fortun
ob a
Ġstr en
idn ight
Ġcond om
Ġdep ression
Ġ199 8
Ġflood ing
ĠPol ic
ĠFrank lin
ĠHot el
ĠCommunic ations
Ġapprec iate
ĠExam ination
or ah
Ġe duc
ĠF it
ĠV lad
Ġk er
ip le
Ġde ir
ĠCh id
Ġexpl an
Ġcr ude
ĠSen ators
ĠOn ly
lop p
Ġsist a
Ġchurch es
Ġactiv ity
Ġneg ot
Ġsac rifice
Ġhydro xychloroquine
Z A
ou ples
Ġg ifts
Ġst ream
od ie
ĠG ates
ĠG amb
ĠH ou
Ġag riculture
Ġsp y
Ġent ry
ele chi
ĠGover nors
Ġfootball ers
por ary
Ġtax i
ĠIk oyi
Ġhom osexual
Ġlic ence
ĠSing apore
Ġexact ly
Ġevr iday
. #
E v
M ore
r ity
Ġf aint
ĠS ection
ĠP ak
ĠSt an
Ġconf ident
ĠBe irut
Ġbeh alf
Ġesc ort
ĠEast ern
Ġeast ern
Ġvers ion
Som etimes
ĠOx ford
ĠJamm eh
A ct
O fficial
f red
Ġs ir
ĠM ass
ĠA ven
ĠT am
ĠF el
pp er
Ġsh oe
Ġch at
ĠAk indele
Ġpar ent
eal ous
ĠMat ter
Ġfast ing
Ġbag s
Inst ead
E lect
Ġb ic
ĠM adu
ĠA M
ĠT re
ĠF ero
ĠB EST
Ġna ils
Ġde ar
ĠH az
ĠL aur
ĠTh ailand
ĠOb iano
ĠMon aco
Ġaccuse d
Ġmarket s
Ġprof ets
ordin ator
ĠIke ja
amad ol
D ay
a very
w oman
Ġp itch
Ġfor ms
Ġ20 01
et i
ber t
Ġl adies
ĠJ r
ĠR ema
Ġcon stituency
ĠDe ontay
ĠQ atar
ough t
ĠAm ae
Ġsign ing
Ġdes ert
ĠInd ex
igr ants
Ġ198 0
ĠEthiop ian
Ġach ievement
sy ch
ĠBabat unde
ĠAmae chi
8 8
G r
N ot
N ational
m ates
Ġw un
Ġh uge
Ġy ong
ĠH il
Ġpr em
ĠR abi
qu ake
Ġj e
Ġhapp iness
ĠĠĠĠĠĠĠĠ ĠĠĠĠĠĠĠ
Ġcomp ens
Ġpar ade
Wh at
Ġlong est
Ġten nis
ij ab
Ġscar city
ĠVot ers
Ġaspir ants
Ġjun ior
Ġvol unte
Ġsecession ist
ĠCamb ridge
e z
Ġ ess
em be
ar o
ic ago
ĠG ene
ist ic
all enge
ĠDe v
ĠĠĠĠĠĠĠĠ ĠĠĠĠĠ
Ġbeat ing
ĠMon ey
Ġit ems
obo am
Ġknock out
Ġsat isf
ĠNob el
ĠGom be
L aw
W omen
w an
Ġf ederation
Ġt el
Ġb om
Ġb ath
el i
ĠM O
ĠM ari
ĠM iddle
Ġl oud
ĠB ack
ĠB ieber
ĠC RM
ir ds
ĠJ ub
Ġtr ut
um ah
ak h
Ġlo g
Ġ7 4
ĠAr ts
ef o
ĠDen mark
Ġcontest ants
Ġsexual ly
Ġsurv iv
Ġfac ility
fu oma
ĠSym ptoms
C on
Z akzaky
r un
Ġp ound
ĠS emen
ĠT ask
Ġdis charge
ĠW ood
Ġde at
um s
ĠIn n
Ġfam ous
af emi
Ġchar ity
Ġever ibodi
Ġkeep er
stand ing
Ġrob ot
ĠSw ift
Ġveh icle
J er
L EA
R S
k h
m es
Ġm idnight
Ġn g
Ġn urs
Ġh orn
et ic
ol owo
ed ral
Ġst amp
ĠC N
Ġdis ability
ĠL ou
ob ey
Ġby e
ĠAd eg
Ġis olation
ĠAll iance
ĠInd igenous
Ġorgan iz
ĠOk on
cast le
Ġemploy ment
ĠTok yo
ban j
6 00
O m
R eal
e xt
ĠS adi
ic on
ĠM ajor
Ġr erun
il ing
ĠC orn
Ġk reate
Ġdis pl
Ġch apter
ĠCh ancellor
ĠCh icago
pl ain
Ġ7 1
ank a
Ġreal ise
ĠBar ca
AC E
ĠMos hood
Ġins pire
ĠPol ytechn
!! !
Ġkol lect
ĠMall am
ĠOpp osition
h h
p ower
ĠN EC
ig o
ĠT onto
ĠO gbonge
ĠV P
ĠH al
ari at
og bo
Ġte ch
Ġ7 3
ĠAir ways
No body
ĠCl ar
ĠMo ab
Ġcolle ague
ĠHen ry
ĠMust apha
G ermain
S ec
U C
l ings
r ice
s ial
Ġt aste
Ġp adi
Ġc inema
st al
ĠM aj
ĠN ap
ĠT y
ĠT ill
am anda
Ġk ovenant
Ġpr ince
re wa
ĠR og
iv ia
av el
ĠCh ima
Ġarrest ed
Ġis land
Ġfl ower
Ġco ast
Ġinf l
ĠBab y
ĠHead ies
Ġphoto gr
Ġdemon st
ĠChi oma
ĠWath oni
S er
Ġw osh
ey ond
20 20
Ġh ur
Ġdis s
Ġpr int
Ġsh ey
ĠU fuoma
ĠAn t
Ġaf ford
Ġsu it
Ġev ac
Ġmon t
og unle
ĠWh it
Ġmat h
Ġ6 8
Ġ8 6
ĠTe achers
ĠCar l
ĠAw olowo
Ġtre es
ĠAdeb ayo
Ġaut opsy
Ġpred iction
Ġloc ation
ĠNam ibia
ĠSah ara
J os
K E
r os
r ite
Ġp ieces
Ġp apers
Ġc ock
Ġdem ol
Ġfr e
ĠC amer
ĠW at
od ele
os is
ĠH assan
ĠR ah
qu er
ok ing
Ġle af
ĠBig gie
ont ri
ĠBl ess
Ġten ure
ĠCan ad
ĠAdek unle
ĠPhil ipp
Ġstake holders
ĠIMAG ES
F irst
l ers
m in
w on
Ġn id
ĠD abiri
im id
ent ral
ĠF eat
ĠB illion
ot ic
Ġim agine
Ġreg ime
ĠIs h
ĠCameroon ians
ĠAm idu
Ġelect ed
Ġactiv ists
Ġless on
Ġang els
olu wa
Ġorganis ations
Ġcoff in
ĠFlor ida
ĠDist rict
Ġinject ion
ĠProgram me
Ġaer opl
ĠHou ston
0 2
E gypt
T e
W A
c oin
l ma
r el
Ġw ons
Ġp iss
Ġb ench
Ġfor ty
ĠS ake
ig ba
Ġas ide
ĠK ash
ana an
Ġad ult
com ing
Ġour self
reat he
Ġnot in
ĠOl ub
Ġmark s
Ġinv itation
Ġcompl et
Ġins urance
ĠCon ference
MA A
Ġproced ure
o a
Ġw id
ĠA ge
ĠT s
as ph
ĠE cowas
ell es
ian g
Ġbuy ing
Ġbus y
ib u
gb os
ĠCol onel
cel and
Ġcrit ical
ĠWin ter
ĠShi ites
Ġdipl omatic
ĠCount ry
ĠRoch as
v y
w i
Ġf i
an acho
Ġc ann
es sed
ĠS ark
Ġl ap
ĠI h
ĠB oth
Ġre ce
iv ity
aw ay
Ġapp roach
Ġbr ide
ĠAr iana
ĠMan ager
Ġ15 0
Ġob ject
How ever
Ġ199 2
Ġnorth west
Ġspeak ing
esty le
Ġamb ul
ĠCorpor ation
ĠLuk aku
Ġhash tag
ĠBeth el
A uthorities
E mer
f all
l as
Ġd augh
Ġh ama
ĠD un
ĠD oll
ia dom
Ġl iver
ow ers
ĠP ost
ee z
Ġme chan
ak anda
Ġmin ing
res pect
ĠSer ie
uch ess
ĠOm oyele
Ġap ology
Ġfound ation
Ġrub b
Ġengine er
Ġdemonst ration
R ivers
o es
p ata
Ġc ouples
Ġg ap
Ġh ole
et ola
ur o
ĠF aith
am bo
ĠB ib
Ġon to
Ġag g
Ġres olve
Ġsp erm
ĠAd do
Ġrest ore
Ġopport unities
ĠGun ners
Ġcontrover sy
ĠVol ta
ĠSaf ety
B S
K ayode
u ah
Ġs ote
Ġc igar
ar ed
ĠO rd
ĠL ate
ĠU se
ĠK lopp
ric ane
ĠAf robeat
Ġbr oke
ek an
ĠAr ch
af ar
ĠSan chez
Ġide as
ĠNas ir
ĠFat oyinbo
ĠMer kel
Ġrever se
I v
N or
d y
Ġn in
id ane
ĠA U
ell er
ĠG irl
ĠG ala
ĠK p
Ġget ting
ĠR ash
ec ine
ĠPr od
Ġinter im
Ġ6 7
ĠFr ont
Ġevery tin
af a
Ġper fect
Ġprop osal
ĠGu ard
gi ene
ĠUz od
Ġocc up
ĠChild ren
ĠMens ah
I E
P ar
T oo
r ition
s pe
or f
Ġg id
ĠS oy
ĠD ut
ĠN ab
ĠI pob
ĠT acha
ĠB ot
Ġsh irt
ist le
Ġbo ast
ĠK alu
ĠR ay
Ġj et
ĠAb bo
Ġhealth care
Ġsl avery
Ġrepresent atives
ij et
AT E
Ġsil ver
Ġview s
ĠEar lier
ĠPolit ical
Ġqualif ier
ĠPro ject
ĠBuild ing
Ġnegot iate
R ep
S c
V F
W inner
u ly
Ġw ives
Ġb arr
ĠS ep
ed ia
ĠV AR
wit ness
ard o
Ġ6 3
ĠUn it
ĠFor ces
Ġfl u
Ġdist ance
Ġorgan ize
Ġteachers one
ON G
Ġkw ik
ĠPri v
Ġsch ed
ĠWin ner
ĠRom an
ĠPer form
ĠLew is
c ase
y ria
Ġa ff
ar us
ĠM ic
ĠM ins
ĠF reedom
ate ful
ĠC ub
Ġdis order
ak en
Ġpost s
." ""
ĠMar c
Ġwar r
ĠCor ruption
ĠOn ye
ĠOs cars
Ġins pir
Ġregister ed
Ġprost itute
Ġz oo
ĠHel en
ĠLawy ers
Ġcontrover sial
Ġopin ion
Ġexplan ation
Ġwun jure
Ġdaugh ters
G e
b ell
Ġd ust
Ġn ort
ĠD iddy
ĠC oun
und esl
ys is
pl os
ĠNew castle
keep ers
Ġcoach es
ĠFay emi
Ġemb arr
ĠStud ent
Ġdesign er
ĠGab riel
Ġver se
ĠAlexand er
ĠOch anya
ĠCost a
ĠVlad imir
G ETTY
a q
h ones
p ass
er ri
Ġb reathe
Ġl ol
ĠF est
Ġst ories
ag ina
ĠK elechi
if o
Ġhow ever
Ġkill ers
Ġ6 9
Ġreport ed
Ġvis ion
Ġph ase
ĠEk o
ĠAy odele
Ġpolic eman
ĠSc ient
Ġneg oti
Ġcult ural
ĠInt elligence
Ġash awo
Ġinaugur ation
Ġentreprene ur
undesl iga
l ock
v ing
er an
Ġp unch
Ġr aiz
Ġr ijet
ĠI celand
ĠV eg
ir med
rol l
ich i
ro id
ĠKen yan
Ġsix th
esh a
Ġtw elf
ĠSc ott
Ġspokes man
ĠMans ur
Ġep is
ĠIhe anacho
Ġsubsid y
0 7
P R
S ey
S abi
f ast
k ins
m ate
r an
an ib
Ġw ave
Ġt all
Ġp ump
Ġa uth
Ġc ertain
ĠS old
ĠM u
ĠM om
ĠD id
ĠN kr
ia c
os u
Ġch ances
ab eg
Ġcon vers
Ġburn t
Ġpain t
ĠBi odun
ĠBo ys
ĠPublic ity
Ġpetrol eum
Ġinstit ution
Ġbas ic
Ġband its
ĠSus an
Ġgar ri
H IS
s outh
Ġn igeria
Ġh ug
ĠO u
ĠG ad
os i
ver ts
ĠH ur
Ġan c
Ġmy sef
ĠMay or
ĠAb ram
Ġsp ark
Ġleg isl
ĠAll ah
Ġcent ury
ĠAcad emic
A bu
R es
y th
Ġt atto
Ġs am
Ġdi arr
it ution
id o
ĠA ja
im an
Ġbo ku
ab les
ĠK yl
Ġev a
Ġschool g
Ġpart ial
ĠAd ew
Ġqu ote
epar at
ĠPremi um
ĠOff a
Ar my
Ġextr ad
ĠArtist e
ĠBud get
B est
a o
or odu
ĠD ak
Ġl ower
ĠF eder
ĠJ ada
Ġher sef
ĠR un
ĠIn itiative
ib ition
ĠTh eat
ĠSh ar
ĠAss yria
Ch rist
ĠOy ed
Ġflood s
ho ea
Ġint imid
Ġtar iff
Ġserv ants
ĠMah m
Ġparliament ary
ĠOffic ials
Ġemot ional
ĠSylv ester
B en
M inister
U p
Ġc ould
es is
it tle
ar eness
st an
Ġl ung
il ee
ĠB ang
ĠV iol
Ġab us
Ġcomp ly
Ġprot oc
Ġann ual
Ġpast ors
Ġimp rison
ugu ese
Ġaud io
ĠProt est
inst ein
Ġdiscrim ination
8 6
f e
f eed
r s
r il
r iss
t wo
Ġb or
et able
ĠD uchess
Ġl agos
op yright
Ġad verts
ĠAl ade
ĠTh ings
Ġnot es
az u
Ġco alition
Ġpick ins
ĠMal aria
Ġconcern ing
Ġinj uries
Ġgl ass
Pl enty
Ġdemoc ratic
Ġgovern ance
ĠTai wo
kn own
Ġwarr ant
A ir
P F
h ost
Ġm ates
Ġn ature
ĠD av
ĠT alk
se ct
ĠW ay
Ġpr ovid
Ġwh istle
ab el
Ġ. ..
av o
ĠCh annels
Ġneed s
Ġplan ning
Th ank
Ġposit ions
Ġclass es
enophob ic
Ġrac ism
ĠWil son
Ġaccol ades
Ġunem ployment
Ġnarr ate
ĠRabi u
Ġrubb ish
f o
h app
Ġ ice
Ġt ired
Ġb ully
Ġg iant
Ġh op
ĠD NA
ĠN ato
Ġr iot
us on
ag n
ĠH om
ĠH us
Ġch olera
ard en
Ġsp ill
ĠAl iko
au wa
Ġpal is
ĠPort uguese
Th ey
ix y
ĠPh oto
Ġcong ress
ĠMich elle
Ġdream s
Ġadop t
ĠJoh annes
Ġschol ars
8 0
J N
Ġf ault
Ġc e
Ġm ic
Ġm use
ay omi
ĠM imi
Ġst ock
Ġst ead
ĠV inc
ĠL ater
ĠL AS
ĠL inda
und ering
Ġcl ient
are em
Ġ7 00
ich ie
ĠEdo chie
Ġadd iction
Ġpal m
Ġass urance
ph a
ĠJon as
ĠMag ic
Ġtrow ey
Her dsmen
ĠMend y
9 7
R ussia
s s
Ġt ings
in wa
Ġc ope
ur ers
Ġin it
ĠC ole
ĠJ um
ric s
ĠSt orm
ra f
ĠTh ousands
ĠRes p
Ġdirect ly
por a
Ġok ada
ĠOy etola
Ġgl ad
Ġresign ation
Ġplatform s
Ġimpeach ment
ĠChim amanda
asse h
ĠPak istan
ĠOyed epo
H ar
L ion
L iverpool
M B
P ort
U R
b ia
b ian
x i
Ġf olo
Ġt aking
it is
ĠS ound
ĠS lam
ĠA wa
ĠV alley
ĠC opy
ĠW ine
ĠH art
ĠH aj
Ġan alyst
ĠK id
ĠCh o
og a
pect ed
Ġdown load
Ġmen str
ustr ial
ert iary
ĠAct ress
Ġro of
ĠMin aj
ĠTim othy
ĠCap ital
Ġscor er
E ast
J ose
W IT
g en
j ud
Ġc ous
ĠS ag
ĠD a
ĠN ad
ig b
ĠT O
ĠF ab
ĠE ph
ĠC all
ĠW E
ce an
Ġpass ion
oc ation
Ġknow ledge
ja er
Ġbr oad
Ġop ress
ĠAr med
Ġstr etch
Ġconf usion
Ġperson s
Ġ9 5
ful ly
Ġfar mer
res p
US T
NG R
ĠNe o
Ġkol obi
ĠTra f
Ġgunsh ot
8 00
E rewa
P erson
c u
c ious
j ah
k er
u ate
u ise
in ue
ĠS ociety
im p
ing ham
ĠO oni
Ġy awa
ĠB at
Ġsh it
Ġv ent
app ers
Ġup grade
Ġfruit s
iver se
ous s
ĠOs aka
Ġter ritory
Th ree
Ġprop h
Ġinterest ed
Ġang ry
Ġfac ilities
Ġcreat ive
Ġwuru wuru
ĠEnter tainment
Ġtrail er
Ġinteg rity
Ġbic ycle
ĠNkr umah
c ell
Ġb odies
ow l
ĠO N
Ġsay s
ĠP RO
ĠE p
ĠC AN
Ġdis obey
Ġsh ange
end ing
ie ce
Ġev ict
Ġread ing
Ġus ual
ens es
ific ate
ĠBe z
ĠSal eh
Ġpres ence
Ġalong side
Ġrumour s
Ġearth quake
ĠLat est
Ġpur pose
Ġet c
ĠSte ve
ĠBib ixy
WIT TER
T S
c ott
h our
h all
i ences
v is
w are
on na
Ġn ative
ĠS k
ĠF R
ĠO das
ag raph
ass ing
ab u
Ġwom b
app ed
ĠZ idane
Ġ8 1
Ġenter tain
rik a
boy ega
Ġqual ification
Ch ief
Ġself ie
Ġrecover y
ĠApp iah
Ġchief s
Ġlink Read
lement ary
ĠShare View
Ġqualif iers
ĠConstitution al
ĠCandid ate
Ġbrief ing
Ġker ewa
ĠBless ing
D uring
M s
g ood
k g
in ated
Ġg ut
ĠM TV
Ġr ange
ĠC ass
Ġk ourt
ĠG ive
Ġch ill
ĠK anaan
ĠR ome
ony e
Ġstr uct
ĠAd en
Ġqu it
ĠSouth ampton
amb a
ĠOs ag
ĠBl ues
Ġins pect
ĠLaw an
Ġmot iv
ĠBo ok
Ġtw in
Ġsan ction
Is aya
Ġneighbour ing
ĠFA AN
Ġmass ive
ĠKy iv
Ġfund s
Ġcompet itions
Ġkwes ion
asph emy
Emer ick
ĠCub ana
4 00
E ar
J erem
n ight
Ġl af
Ġl oved
ĠT or
ĠF ashion
Ġin sect
le ad
ĠH op
Ġch annel
ĠR os
ĠSt am
af e
Ġhot els
ĠProf et
Ġrepresent ative
Ġseat s
gas m
Ġwild aness
ĠNap oli
ĠTheat re
ĠJohannes burg
R ev
i ya
in ations
Ġa uthor
ĠS A
ĠA AC
il and
ĠV en
ch elles
os o
ĠL ist
og b
Ġacc red
ang ida
Ġpar agraph
Ġtheir self
Ġbel ief
ĠAg riculture
Ġsom tin
Ġsid es
Ġstor ey
A A
I R
L ocal
r ac
in bo
Ġb eyond
Ġc ant
ĠN ation
Ġr ates
im ba
ĠT w
ĠJ oint
ĠH ann
Ġch ain
ik t
ĠSt ory
Ġqu ench
Ġold er
ĠHe zek
Ġass ets
Ġsal aries
Ġalbum s
Ġcal endar
Ġmil es
Ġgener ate
ĠKum asi
ĠVer de
Ġlandl ord
ĠTog oland
8 9
B rit
C o
Ġ ult
Ġw ard
it sha
ĠS her
Ġr om
ia k
se in
se qu
ĠB it
ĠB ass
ĠP ot
ist ry
Ġv anish
Ġdr own
ĠCh ange
wo y
ang el
ang ers
ank ing
ĠInvest igation
Ġstud ies
Ġret irement
ĠChrist op
ĠSer ge
EN D
Ġmot ion
Ġval id
ĠOd ion
Ġcop yright
Ġcommand er
ju ana
David o
Ġpen is
Ġpremi er
Ġguarant ee
ĠProsec utor
Ġaeropl ane
M on
f i
h eart
o fficial
p ikin
p apa
r ane
Ġw ata
Ġr ather
ĠC ir
ĠG y
ĠG ian
Ġab ortion
wit ch
ok p
Ġreg ard
Ġhe ads
ement s
az y
Ġinf o
ĠOm o
Ġdrink s
Ġmanag ers
Ġshock ing
bu ild
Ġpersonal ity
Am b
oper ate
ĠVeg as
R ufai
k s
w ear
w ise
Ġb id
Ġo d
ol f
ig be
ot as
Ġde ce
us u
ĠL et
ĠL amp
ĠU ber
ĠR uiz
ĠCh yna
Ġkill ed
ĠSt ation
eb e
Ġlead ing
Ġcomp lex
ne th
eg an
Ġrel ocate
ĠAcc ount
Ġallow ance
Ch elsea
Ġthrow ay
Ġscar ce
Ġluck y
New s
ĠFree ze
ĠSant os
Ġmort uary
Ġgid igba
8 4
C opyright
L O
P h
f ree
r og
Ġf ulf
Ġp ool
em oney
Ġm akers
Ġn ice
ĠM una
ĠD M
ĠD er
ĠD ick
im ent
ĠF ox
ĠO v
Ġth er
ĠB ong
ĠG ent
Ġch art
Ġtr ace
ap y
ans ion
Ġus ually
Ġcollect ion
Ġlet a
uch i
Ġadv iser
Ġpro ceed
Ġmag ic
Ġext ension
ĠOffic ial
Ġcheat ing
ĠPerform ance
ĠTraf ford
K aduna
O f
O ut
Z imbabwe
f ollow
em at
Ġo ath
ĠD oz
ide on
Ġl l
ĠF ake
ed u
ĠP il
ĠC ertificate
ĠG H
ĠG er
os ite
ov ing
ust in
Ġtrans l
Ġ7 9
ĠAd ichie
ĠMan asseh
per ly
Ġminister ial
Ġcommit ted
Ġwonder ful
Ġprosec utor
ĠCal abar
ĠDom inic
Ġmult iple
beat en
spe aking
Abu ja
ĠStam ford
E b
h uru
l ines
y i
y ard
Ġ ele
ĠN PP
Ġl ions
ĠO ge
ĠB ou
ĠC a
ĠG FA
ĠL ord
ear s
ĠR oll
Ġme h
Ġex it
ĠCh ile
Ġkn ee
Ġfir m
Ġad ults
ĠZ ion
ĠFor m
bo e
Ġover all
Ġwr iting
eng ui
uj i
Ġpriv acy
Ġint ention
Ġest ate
ĠAN C
ĠPS T
Ġadj ust
ĠRec ords
Ġpot ential
Ġfill ing
Ġcell s
Mad am
ĠMod ric
Ġol ive
Ġmand ate
ĠJazz y
anib aj
Ġstead y
Jerem aya
g al
l ets
Ġ q
on o
Ġm ash
al ysis
ic an
ĠD ele
ĠD SP
ĠI ll
ĠB undesliga
ĠE dom
Ġdis respect
Ġre h
ĠL ockdown
ri body
ĠY ellow
Ġwork s
Ġcl in
ĠUn ity
Ġ19 60
Ġsm ugg
Ġwr apper
Ġwar m
Ġinvest ors
ĠDr ogba
Ġupd ates
ĠEx plos
Ġsub stit
Ġlangu ages
ĠIr eland
Ġaw areness
Un ited
urr ency
Ġjoll i
ĠMain a
Ġapolog ize
Gover nor
ĠCN N
ĠCanad ian
ĠVinc ent
C omm
U g
c al
l ies
r ough
Ġb ike
ĠN eb
ed s
ĠJ a
end u
her it
Ġrep ublic
Ġ8 7
ĠShe eran
Ġsm ooth
Ġend ure
Ġass ess
Ġcampaign s
ĠLeg end
Ġpresent er
osh ima
urr ay
Sen egal
ashe ed
ĠRod r
ĠMcC ain
h on
v ieve
en o
Ġm ent
Ġh ell
ĠM ou
ĠD ram
ĠF avour
ĠP H
ĠP ay
ĠE aster
os ing
Ġv ac
um my
Ġapp s
ĠSt and
ĠAb ike
over bs
Ġstr ange
Ġtry ing
Ġsign al
Ġnational s
ĠBar ack
ĠPart ey
mal ik
Ġpolic ies
Ġexc use
Ġimm unity
ĠAN D
Ġprosec ute
ĠOw erri
Gover nment
ĠConf ederation
Ġgunsh ots
Jos hua
ĠUzod inma
Ġimprison ment
B issau
n on
n ashon
Ġf ert
Ġw akar
Ġb ump
ĠM MM
ĠN di
ĠT ake
am ed
Ġst rict
is ers
ter ling
ers hip
Ġdr ones
ta h
ĠY ar
ach ir
Ġnew ly
eh inde
ĠElect ric
Ġrel ated
Ġem ir
ĠSal isu
Ġnomin ee
ih ad
ĠGram mys
Ġinfect ed
ĠCamp bell
ĠAsh anti
ĠCap tain
ĠCond uct
ĠOz il
Ġrestaur ant
ĠPolytechn ic
lma o
9 5
c ond
z ie
Ġf ourt
Ġs ect
Ġp e
al ode
ic iary
ĠA da
ĠF ace
ĠP ent
ĠC as
Ġwe b
ĠH ill
ĠR ita
iv ed
ok ovic
ik on
Ġtalk ing
oon ey
ĠSh ogunle
Ġper mit
ĠAm azon
ĠBig gy
ani el
Ġconcern ed
Ġnorth east
ĠCon vention
ĠBurn ley
Ġcommun ication
ĠND LEA
BO OK
ĠAlh assan
Ġmob il
allow een
ĠDes pite
ĠHel p
Ġcomb at
ACE BOOK
ĠSark odie
ĠSoy inka
ĠResp onse
M or
W ill
f ish
Ġb ot
Ġc a
Ġc ame
it ical
ar ak
th ur
ĠD ana
ad ona
ĠE ve
ut ral
ĠH O
ĠH ear
up id
app e
uh an
ĠAb bas
Ġinter nal
Ġadd ition
ĠSen atorial
ern ot
ĠBen z
Ġcap s
Ġcamp s
ĠEl ba
ĠBab angida
AS UU
ĠNn aji
ĠFal ana
ĠYaound e
ĠIgb alode
ĠJeh o
Ġkor rect
FI FA
ĠPict ures
ĠOsag ie
c ee
g io
l ete
v id
Ġw ing
in ter
Ġn one
and o
ĠI VF
Ġpr et
Ġtr uly
Ġgr ab
Ġres ur
Ġsp ray
pr of
Ġ8 4
ile ad
ĠLe on
Ġsm uggle
Ġcol lege
Ġprison er
ĠEl ijah
Ġseason s
ĠPort o
ĠSe ed
Ġdist ribute
Ġinv ade
ĠAh ab
Ġ199 7
ĠOff set
Ġamb ush
ĠAbdul malik
ĠNe xt
ĠBox ing
Ġsote i
S al
c y
n ame
p oint
Ġ icon
er ed
Ġp ish
Ġb irds
em eter
ĠS U
ĠN gan
ber ry
Ġr oot
Ġdem selves
le ase
ĠR aw
Ġj azz
ĠIs s
ash a
Ġconf irmed
ĠMan cho
Ġcond oms
ĠPl ace
Ġass ign
Th em
Ġsl aves
ĠAct or
iy an
Ġprof it
Ġbab ies
Ġsurv ey
ĠSc ot
Ġinterest ing
ĠSol sk
Ġassist ance
Ġsil ence
ĠMary am
ĠCamp aign
ĠCC TV
ĠShek au
ĠCry stal
Ġcompens ation
Ġconvers ation
Rev olution
B E
B ay
I POB
J C
r ont
z ani
an j
ĠS AN
Ġto ler
ig awa
im ony
ĠI l
Ġgo ats
ing ers
ĠB ra
Ġab ility
Ġtr ump
Ġex pr
Ġso ot
ari ot
ĠLe vel
Ġback ground
ful i
ern ity
ĠĠĠĠĠĠĠĠĠĠĠĠĠĠĠĠ ĠĠĠ
ĠSe v
ĠTol anibaj
Ġref in
Ġref und
ĠOy ibo
ĠRed s
tern ative
sal m
ĠSey i
oduc ers
ĠEll en
Ġvigil ante
Ġinfl ation
Ġepis ode
J ob
u ja
w ife
Ġs ources
Ġb ound
ĠT ik
ac ked
ĠC ulture
Ġcom a
ĠW alk
Ġsh ape
AR D
ĠK areem
ĠR aj
Ġj ealous
Ġun beaten
ah a
ĠĠĠĠĠĠĠĠ ĠĠĠĠĠĠ
anc ed
Ġrec ession
ĠEm inem
ĠAm aju
ĠBl ue
ĠInd ones
rat s
Ġ25 0
Ġoper atives
Ġvill agers
Ġshar perly
fra im
Ġimm igrants
Ġhom es
ĠGun men
Ġgener ator
ĠSey chelles
Ġoy ibo
ĠSum mit
Ġreven ge
Ġlin ked
G en
M en
t ey
Ġd os
Ġp ad
it ary
id ing
ĠB ag
ĠW uhan
ĠG ernot
ag on
Ġpr ior
ĠU huru
re a
Ġun asef
ok ada
Ġcar pet
ub en
Ġboy cott
ĠZ el
Ġstr ateg
air o
ĠOb afemi
Ġdef in
Ġelect ronic
Ġla undering
ĠEng ine
ĠCent er
IV E
Ġkl oud
Ġconv oy
Ġjoll ificate
ĠSex ual
ĠDj okovic
WC ON
ĠHarv ey
ĠKash amu
ĠChristop her
9 3
D M
M i
Y our
h ar
l i
Ġd ancer
Ġdi et
ĠM atch
ĠF ern
ĠV irgin
ĠE ke
ĠG iadom
Ġre union
ĠH auwa
ĠK ay
Ġgr ateful
Ġacc idents
ĠMar riage
Ġtrans form
Ġinc ome
ĠEm ployment
ĠSer ies
Ġsal ute
Ġcons pir
rib le
Ġthank s
upp y
utin y
Ġlow est
Ġmel ecine
Ġphys ically
Ġreb els
ĠBol t
Ġsongwrit er
ĠKey amo
ĠTank o
Ġunfortun ate
Ġscholars hip
Ġdece ased
C E
S ah
_ )
Ġt ape
Ġs out
Ġp et
Ġp aid
Ġp sych
en ne
es y
Ġm others
om ing
ĠS terling
ĠM KO
ĠI ra
ĠT amb
ĠT otal
ad ia
ĠP u
ĠC JN
Ġk ause
ĠL angu
Ġv ois
ab ly
ĠK o
ĠK ond
Ġreg ain
Ġeffect ive
ga e
Ġlook ing
Ġold est
Ġthr oat
TA G
Ġappr oved
och ie
Ġobs er
ĠEar th
Ġrac ist
Ġsek ond
ĠReb ecca
ĠOnye ama
Ġbot tle
ĠSolsk jaer
3 00
I F
M ich
f ine
g ian
g ov
g uson
h and
o ire
v ant
er berg
Ġt aya
Ġs em
ĠS and
ĠS ala
ĠM A
ĠB uff
ĠV ee
ch at
ori an
Ġtr a
ĠSt on
inist ries
iz er
Ġ8 9
Ġgover ning
Ġhead er
ĠId ent
Ġrel atives
ĠOs in
Ġthough t
ĠEur o
Ġfail ed
ĠBank y
Ġtw ice
yl on
Ġsan itiz
ĠIsa ak
ĠTrans parency
ĠAp apa
Ġble aching
Ġmonkey pox
Ġteen ager
cor ruption
ĠAth let
ĠMonkey pox
ĠHus sein
ĠSeed orf
P S
W E
al es
ic ians
ĠM ut
ĠM illion
Ġan oint
Ġtr ag
qu are
Ġor gasm
ong ry
eb woy
Ġret ail
osp el
Ġear n
Ġhon est
ĠSe un
ĠMov ie
Americ a
ĠMagu fuli
Ġaccus ation
Ġcircum c
Ġbasket ball
Ġele ven
O ther
h el
l ar
Ġdi ziz
Ġp ig
ĠS id
th em
ĠM ub
ĠM ont
ac ar
Ġsh eet
Ġcon stant
Ġface book
ap em
ri ate
end um
ue ze
Ġdat ing
ĠAd et
ĠAk u
uk i
ĠAng ela
ĠIslam ist
ĠIk orodu
ĠBrazil ian
ĠDeb orah
iter rane
itch en
ĠNick i
Ġschoolg irls
iterrane an
D ey
D eb
J A
V E
g ate
r ufai
Ġb atch
Ġm ood
Ġto ld
ĠN BA
Ġr ural
ĠT utu
ĠB eat
od er
op eration
Ġsh iddon
Ġex h
ĠKan e
ĠAs a
Ġ9 9
Ġover take
les h
af ia
Ġthem e
Ġmain ly
Ġsl ay
Ġpain ting
Ġ199 5
ĠOm oz
ĠEd ward
ĠIg on
ith ole
ĠKore an
ĠDo oshima
Ġmigr ant
ĠMc G
ĠMb appe
Ġtour ism
urt ala
Ġoy inbo
Ġcart oon
Jer usalem
Ġcock roach
Ġdiarr hoea
ĠFeder er
ĠViol ence
ĠBez os
A IDS
J e
K w
W oman
n ar
r ape
r uction
t ell
w er
Ġm ari
ar the
ĠS ul
ic ian
ic ious
ĠD ifferent
ĠN s
is olate
ĠU k
Ġbo ot
Ġne utral
Ġab d
av en
ari see
Ġ8 2
Ġact s
Ġcourt s
Ġbig ger
Ġret weet
Ġleg it
Ġvex nashon
ĠEl on
Ġshar ing
ĠCon stituency
Ġmay or
Ġhy giene
Tr ue
Ġdeliver y
Ġfund ing
Ġcateg ories
ĠNet work
law ful
ĠCel ebr
Ġpremi ere
Ġrev olution
ĠBright on
Bur kina
Ġinit ial
Ġcous in
arthe id
? ""
M al
b urn
f ake
h in
Ġs ort
Ġs witch
ĠM urtala
ĠN u
ĠN om
im hen
ĠI le
ĠB ody
ĠC BT
ell ite
ĠW el
oc od
ĠR ose
ĠSt op
ĠAb ayomi
Ġen forcement
ult ural
iz z
oss ible
Ġcent er
Ġsal t
Ġadv ocate
ĠTolul ope
ung u
ny wood
Ġimpr ess
Ġaud it
edi oha
rop ol
Ġble ach
Ġdisappoint ed
Ġdev il
Ġscr atch
Ġamend ment
ĠSab at
ĠRog er
ĠOrd er
B aba
D I
m akers
p to
Ġf ib
en ga
em ask
Ġh ia
st ances
ĠM ade
ĠN ight
Ġr ope
ĠF ollow
ĠB ET
ad ow
ĠE L
ĠJ igawa
ĠG ilead
ĠH a
ĠH o
ĠH ip
ĠK end
ĠK ron
ok uta
mer ce
ĠKan nywood
ĠMar se
adu ate
emb ley
Ġsell ing
Ġbreak down
Ġsit es
Ġwait ing
sw ana
Ġviol ate
Ġfriends hip
ĠDir i
ĠPol oo
Ġadm inist
ĠWar ning
Ġshop ping
imb as
Ġlik es
ĠHapp y
ĠSupp ort
ĠAtl antic
Ġcra iy
Ġnurs es
ĠClar ence
ĠCoun ty
A g
E ng
R onaldo
m or
Ġ omo
Ġm imbas
Ġg an
and y
ĠM i
ĠM av
ĠN avy
ĠF all
ĠW embley
Ġ1 10
ag b
ĠK now
re z
ĠR yan
Ġtim etable
Ġlo go
he w
Ġbl asphemy
Ġrep orters
Ġ8 8
af oot
Ġrelease d
ĠIsland s
ĠOn itsha
Ġart work
Ġcontain er
IC E
You ng
bl ed
Ġrecogn ize
Ġdeleg ate
ĠCoach ella
Ġtraffick ers
ĠAgu ero
Ġhum ans
ĠDid ier
emeter y
ĠSton ebwoy
" -
6 6
B ikos
n ot
o ala
p esin
p oo
s u
em or
ĠS inger
st ein
ĠT ed
ĠT ob
ĠB reak
ĠL ittle
ian e
ĠR eh
ec afoot
Ġwor ried
ari b
Ġrout es
Ġtrans mission
amp son
ĠAr ena
ĠBl oom
Ġinst all
Ġseven th
raz y
Ġpage ant
Ġkomm it
Ġfun ction
Ġfac emask
ĠBor ussia
ĠOw usu
ĠNun oo
Ġcoff ee
ĠFer guson
Inter national
ĠWhit emoney
ĠIh edioha
ĠFest us
Ġmuse um
ĠIgon ikon
, '
8 5
R ob
V irus
d es
m erson
y emi
ay er
Ġh umble
ĠN av
Ġr oles
ĠB oub
Ġ1 05
ist ory
ĠL ong
ĠK ovenant
ĠR ape
um er
ĠPr omise
aw ei
Ġse en
ĠUn ai
ĠUn iverse
we ep
we ala
Ġdef ect
ĠAcc ess
Ġass et
ĠSe an
Ġdirect ive
ession al
ĠBo at
Ġris ing
ĠNd idi
Ġdiscip le
ĠKar ina
Ġcoun sel
ĠJournal ists
Ġath lete
ĠTechn ical
ĠPet ers
ĠCandid ates
Ġmast urb
ĠHous ing
ĠCarl os
Ġmari juana
b ye
m n
Ġd oti
Ġs well
Ġn ashon
ĠS P
Ġh ip
Ġh ijab
Ġh ongry
ĠM other
ĠD ias
ĠD eath
un u
ĠE g
AR A
Ġam ebo
oc ide
ik les
app ing
Ġmed als
eb i
Ġcl ick
ris es
ath on
pr et
Ġsuppose d
ze ch
Ġsk ill
Ġdeal s
Ġ199 6
Ġdrink ing
ĠAbd el
erman ent
ĠMed iterranean
ĠMag azine
Ġtem porary
Ġthreat s
Ġ198 6
Ġtotal ly
Ġrefer endum
ĠAdes ua
ĠLou is
ĠDick son
Ġq w
ĠScot land
ĠKron ikles
D ec
e ch
i u
Ġ id
Ġf ift
Ġw ire
ey i
Ġdi am
Ġdi agn
ar an
Ġn ick
ĠS eparat
id ou
ĠM aster
ĠN AS
ĠA K
ent er
ĠT iger
ĠO re
Ġin herit
ad ise
ĠP ink
ĠP erry
ĠE fraim
ĠC at
ĠG ay
ĠG ospel
ĠH alloween
ĠL ie
ĠK ontri
ost les
Ġj u
ors ement
ĠPr es
ĠY aba
Ġmean while
of t
Ġest imate
aly t
ĠTur k
Ġengine ers
ĠKum bo
Ġdog s
Ġfool ish
Ġque ue
ĠSev illa
b el
c les
f un
i ye
m el
p ur
Ġf o
Ġf el
Ġp m
es ar
Ġg host
ar ch
ĠS aid
Ġh aving
ĠT ek
ĠT unde
ĠF uture
ĠP en
ĠP salm
Ġpl ate
ab al
ĠK as
ĠR o
act ion
Ġso ja
Ġbr o
Ġcl ients
Ġsee ing
ĠTh ose
ĠEm mys
ĠAm mon
Ġco operate
Ġkorn a
Ġsen atorial
ĠOs imhen
Ġart icle
Ġsl ang
ĠEk w
ĠOg und
Ġsouth east
ĠMaur it
Ġ197 0
Ġaud ience
ĠCath edral
Ġmount ain
Ġbas is
Ġacad emy
Inst agram
Ġmosquito es
ĠSule iman
NC DC
ĠGene vieve
Ġfi xt
Ġoccup y
ĠIra q
R ec
k now
r ence
t rick
Ġ ing
Ġd uties
Ġb atter
Ġc ake
Ġm ine
ou da
it ely
Ġg al
ĠN ike
ĠN HIS
ia go
ĠT est
ĠB uck
ĠC os
ĠC ast
ĠC ome
our s
ĠK on
Ġtr it
iv en
ĠPr oducer
Ġdr one
ĠDe h
ens us
ĠOl ad
Ġfar ms
ĠKen neth
Ġob odo
Pr ince
Ġstand ards
Ġsal es
Ch ina
Ġblack mail
Ġdemand s
ĠNw achukwu
Ġamb ition
ĠSqu are
Ġrequirement s
ĠBul g
END SARS
B U
C L
F l
J ud
M C
V P
b ishop
i en
j an
on ing
Ġt ap
Ġdi ct
ĠD al
ĠD as
ĠI be
Ġin itiative
un ni
ĠB aw
ĠB obi
Ġbe ings
ĠV ogue
ĠP unch
ĠE azi
ĠC opa
Ġk itchen
ĠW ord
ut ation
ĠH ere
Ġan ger
re es
ĠR est
um o
act ions
ĠLagos ians
Ġkont rol
ath ers
ash es
ĠBr uno
Ġ9 1
Ġtest imony
ĠPl us
Ġsol o
ĠRep orter
Ġfaith ful
ĠCar ol
idi ot
ĠJo el
ĠUmar u
ĠAdey eye
Ġblog ger
Ġoppon ent
ĠNic olas
aban ako
opra iz
Ġtemper ature
Ġdemol ish
ĠPhilipp ines
ĠProd uct
emat ics
N n
O C
b et
k om
on n
Ġf owl
Ġp it
Ġp owers
Ġc as
ar aya
ĠN E
ĠO le
ĠP ermanent
le af
le wed
ip t
ĠG yan
ĠG boyega
ĠK i
ĠK ad
ĠK achukwu
ov ich
ĠR aila
Ġj ihad
Ġex ec
Na ira
Ġup load
ĠCh allenge
Ġcar go
ĠSt even
ĠAb oub
ĠAd ed
Ġpol io
ĠSh a
Ġwar ri
ual e
Ġeye witness
Ġyor sef
Ġprogram mes
Ch alla
Police NG
ij ing
ĠKe ita
ĠAgb or
Ġdeleg ation
ĠMuse um
Ġmir acle
Ġcomfort able
ĠFir eboy
ĠWat ford
yth on
ĠDak olo
ĠBong ben
Ġdiam ond
lewed im
8 3
A part
C r
T O
Y A
l ass
n est
Ġf lesh
Ġs weep
Ġg e
ĠM urray
ĠD ari
ĠA ston
ow u
ĠW y
ĠW age
ut ical
Ġam azing
for i
ĠK ir
ĠR uga
ost er
Ġj ack
ĠPr aise
ĠAn alyt
Ġup coming
ĠCh ika
ud o
Ġbut ch
Ġmon ies
ĠNa z
Ġatt itude
ĠAl m
Ġcr ush
ne um
Ġdec isions
Ġrele vant
elf are
rat ive
Ġpopular ly
Ġpain ful
ĠEx cell
Ġsist as
ĠBab achir
Ġhist or
Ġdet ect
Ġimm une
ĠUs ifo
Ġbed room
ĠPhil ip
ĠLeban ese
ĠDog ara
ĠLu is
Ġprepar ation
Ju dah
ĠMember s
Ġcondol ences
ĠFeat uring
ĠPriv ate
Ġexpr ession
( @
* *
6 5
A y
A FCON
S ocial
f ound
g ment
h y
h ou
Ġt ail
Ġs ample
Ġb aff
ĠS ime
and er
th row
ur di
ĠA ustin
ĠT oy
ĠF a
ut ors
ĠH ad
Ġbo o
Ġv ishon
Ġthe at
Ġun t
Ġle f
Ġwin s
ĠAl b
ivers al
Ġteach ing
ĠHe avy
If e
Ġexp o
ĠDir ect
ĠHead quarters
ĠKam aru
erv ative
ĠRepresent ative
Ġocc asion
Ġbranch es
ĠLam ido
ĠAgain st
Ġcoc aine
Ġstren jas
ĠTill erson
Ġcomplet ely
Ġmechan ic
N et
W ell
b aba
d ate
l isher
n assing
Ġs opraiz
Ġg iving
ĠS oph
ĠS ky
and ed
ĠN on
ĠA TM
ĠT uk
ĠT igr
ĠV AT
is ory
Ġna il
ĠC oc
Ġdis in
Ġfam e
ĠFor est
ĠAr em
omm od
ĠEm merson
Ġbel t
ĠBl ood
Ġcommit ment
Ġmov es
imal s
Ġtrib es
Ġcard iac
Ġmist akes
Ġwa ist
ĠOj ukwu
iab le
Ġsomet ime
ĠBot swana
Ġconspir acy
B razil
e va
s en
at ai
Ġm ighty
ĠS all
Ġdon ation
ĠP ete
ĠE rit
ĠW ole
ĠJ ide
ĠJ ong
ĠH ong
ĠK ola
um ia
ĠY ul
ool a
wo of
ĠSt all
ĠAb a
Ġ8 3
Ġadd itional
ĠMan aging
ens ic
Ġwr est
Ġend orse
ER S
ER AP
Ġhigh ly
Ġhigh way
ĠWe instein
ĠInd ustry
Ġevri wia
Ġmiss ile
ĠBe ijing
Ġph arm
iy efa
Ġhar sh
ĠMed icine
Ġsystem s
Ġdeb ut
Ġpoll s
Ġexc lusive
Ġprevent ion
ĠOsh oala
Ġpenal ties
ĠPat rice
urg en
Ġlit re
Os un
ĠUT ME
Ġscient ist
ĠOluw at
ĠCommunic ation
Ġsongwrit ers
ĠGree k
ĠGree ce
Ġcalc ulate
ĠDun can
Ġembarr ass
ĠScient ists
ĠAja x
Ġbump er
ĠRaw lings
ĠLangu age
6 7
? ?
R U
S ierra
m ama
et ti
ĠB ased
is at
Ġfr ustr
ĠC ID
out ube
ace utical
Ġv ia
Ġv agina
are th
ĠZ uck
ĠTr ain
Ġfollow ed
ens ions
ĠOn u
Ġopp ose
Ġinst ance
Ġoper ators
Ġlear ning
Ġref lect
iti us
ĠMag istrate
Ġkidnapp ings
ĠRam oni
Ġilleg ally
ĠNw osu
Ġemer ge
Ġapplic ants
ĠSy ria
par ent
Ġinflu enc
ĠDog boe
Bar celona
Ġkamp e
ĠKom la
ĠChid inma
ĠDoll ar
Ge orge
ĠMaurit ania
? '
C an
E M
M in
M ess
n igeria
o j
Ġw at
ey aw
Ġb acter
Ġfor g
ĠS egun
ĠM egan
ĠD et
ĠD ave
ĠO AU
as ing
ĠP R
ĠC zech
ĠG as
Ġme g
ri otic
ĠY amoah
Ġreg ul
og an
Ġcont ribution
ib a
Ġthink ing
Ġimport ation
Ġdist ribution
wh y
arr est
Ġel eph
reg or
AT ION
Ġgb os
CO VID
ĠMet ropol
Ġkount ries
ĠJapan ese
Ġparticular ly
sl ide
Ġbit ter
ĠPolic y
Ġlog istics
Ug anda
P N
S weet
W here
r ance
Ġf lex
Ġn ep
ĠM efo
ĠN lewedim
Ġr ig
im bled
Ġl amb
se i
ĠF light
ĠC itiz
ch endu
us a
ag le
ĠL az
Ġwh ats
ĠK em
ĠK el
re ensh
ov es
Ġj ew
Ġkont inue
Ġacc ommod
Ġsc andal
Ġcr uise
enc ia
Ġrem ix
ĠTo ke
Ġret ired
ĠSam aria
str ong
ĠSecond us
ĠSir ia
Ġairl ines
ĠKum ba
ĠTem s
lus ion
Ġspokes person
ĠBas ic
Ġaccol ade
Ġton ight
ĠFah im
Ġcollabor ation
Bab y
ĠIndones ia
ĠDias pora
Ġing red
imbled on
c ycle
Ġc able
Ġ20 50
ĠM es
ol y
ol id
ĠA MAA
Ġl ux
il ag
ĠF ol
Ġst upid
Ġ1 01
Ġpl ac
ĠR h
ĠR ound
ĠR uth
ans h
Ġkn eel
Ġpesin s
ĠAd ama
ĠLe v
Ġconf ront
Ġrele g
ĠRes ources
ins on
ĠEgypt ian
Ġhit s
Ġtem pt
Ġfast est
uw al
ĠStud y
ĠDes ign
Ek iti
Ġoppon ents
ĠAven gers
ĠHaz ard
ĠAdeg oke
Ġaccred itation
Ġsubstit ute
neum onia
6 3
A p
D es
k ay
w al
w ich
Ġd a
Ġs up
in ity
ou a
ar aki
el o
ur er
ĠD ip
ĠO fori
Ġy a
ĠE ug
ĠW imbledon
Ġ1 06
ter m
Ġam nesty
Ġpl ants
Ġun known
ok oro
Ġse al
oll of
ĠLe eds
man n
ĠAs aba
Ġrec onc
Ġshort age
ĠOl us
amb i
Ġtest ify
ĠInter ior
ĠEl i
ĠGov t
esh on
Ġcons ent
ĠWill ie
iam ila
Ġgen ocide
ĠMin ority
Ġprost itution
ĠCr ime
Ġ198 3
Ġswear ing
Ġcelebration s
ĠReport s
ĠBon ny
Sam uel
Ġpound s
Ġambul ance
ĠZel ens
ĠDas uki
C F
E do
N ig
O P
S ay
S tr
b or
e ing
g od
r ing
r ade
Ġb on
ĠD I
ĠB ir
Ġst ig
Ġk way
Ġdis ag
os er
est ine
Ġan alysis
Ġbu h
ĠSt one
Ġen force
abi b
ĠDis ney
res h
Ġopp osite
ĠDie zani
ĠPl at
ĠSe iyefa
ark o
Ġap ostles
Ġ198 9
ĠII I
Ġlim ited
Ġfoot age
Ġextr em
Ġsudden ly
Ġcra ze
achel or
ĠHur ricane
ĠHezek aya
ĠOge chi
ĠBoub acar
ĠZuck erberg
D on
F ederal
P eter
T R
b ul
c aster
h ad
on om
Ġf eet
Ġp all
Ġc emetery
ion a
ĠD C
ĠF ad
un i
Ġbe ans
ot ti
ĠC uppy
ir ect
ĠH ak
ĠH uss
Ġpr ec
ĠL ad
Ġban ned
Ġpl ot
iv eness
ob ile
pl ace
ĠWh itt
ĠAl bert
Ġinc ense
ĠTh en
ens on
Ġrun way
ĠOn ce
ĠOn ochie
ĠDie go
ĠAll en
ĠSer gio
Ġcur tain
Ġpopular ity
Ġexp and
Ġav iation
Ġsuper v
ĠBill board
Ġrecogn ition
ĠEzek iel
Br other
Sen ate
put ee
Ġtask force
Ġmus cle
zz ar
ĠDum or
ĠHu awei
Ġant ib
ĠInn ov
Ġlap top
xi ety
resp ond
ĠNu hu
ocod ile
ĠTurk ish
ĠAboub akar
ĠWhitt aker
B ad
O ffic
W it
b it
e ign
m un
w ord
Ġs aw
Ġfor ced
Ġm ud
Ġm ax
Ġg ent
ĠS kin
Ġh onga
id ays
ĠN A
ĠC S
od alo
ĠH alf
Ġpl s
ĠK er
ĠK ehinde
Ġpat a
Ġun lawful
Ġgr ind
Ġreg ulate
Ġeffect s
Ġrout e
Ġbl oody
ĠZ eb
Ġ9 3
opul ation
ait ious
Ġsw eat
Ġfarm ing
Ġrelationship s
Ġdri ving
Ġtrial s
ugu ay
ĠRed eem
Ġsuper hero
ĠEs au
Ġur ge
ĠJo ab
ĠJack ie
ĠMak inwa
ĠDom estic
ĠTak or
Ġinstr ument
Ġvolunte er
ĠOkon jo
ĠDut ch
ĠHann ah
Brit ish
ĠMub arak
ĠBoat eng
ĠTigr ay
7 3
A isha
C om
L A
L iber
N g
S ONG
r ian
or ima
Ġc ed
Ġm oral
ĠS in
st ance
ĠM uk
Ġl ed
Ġy am
ĠB issau
ad ne
ĠV an
ĠG ideon
ch es
Ġcon sequ
ana h
ue ke
Ġar ch
Ġshow case
Ġout come
ĠAr thur
ĠLe oc
Ġcor pers
Ġcomp ared
Ġdisc l
ĠMinister ial
Ġfl at
ĠGr ades
Ġlet ters
AN D
ounc ill
ĠAct iv
Ġadv ance
ĠSal v
ĠPar ents
Ġdefend ing
ĠCO ZA
ĠMah rez
cl one
Ġexpress way
ĠOke chukwu
ĠKings ley
Ġpartners hip
Ġlif estyle
ĠHous em
aziz i
ĠAP GA
Ġsurviv ors
Ġorganiz ers
Ġcann ot
6 9
K im
M iss
S udan
f ive
r ace
z ig
or un
Ġw una
Ġt ertiary
Ġs ight
Ġp ill
ĠS S
ĠD ear
ĠN ou
ĠN BC
ĠA udu
ĠA WCON
ĠT abanako
ate ver
ĠP ac
us ive
ag bo
ab iamila
ĠR oss
Ġor ph
Ġreg ulation
Ġinter vention
ek un
ĠInvest ig
Ġover throw
ĠEm my
emb a
ĠRes ult
Ġcontin u
ĠTen nis
Ġhon ey
Ġcoll ation
ene z
Ġunderstand ing
ĠCont in
Ġterm inal
Ġbreast feed
!! !!
ĠEv ans
Ġchampions hip
Bl og
Ab d
Ġequal ity
Ġpostp on
Ġtruck s
Ġpen arity
ĠLat in
ĠJama ica
ĠFel ix
Ġdispl aced
Ġbarr acks
Ġtransl ate
Ġpish ure
Ġreleg ation
adne zzar
8 7
H uman
N UST
T I
n r
p eople
Ġf are
in side
ey ard
es se
Ġg own
ĠD own
ĠN ini
ĠA DC
im ated
ĠT ell
un ty
ĠW ife
ĠG nassing
ly ing
Ġsh ots
ĠU yo
Ġv end
ĠY e
Ġor da
ĠSt ill
ug s
ĠZ ak
ash i
ĠOb io
Ġret ain
Ġ18 0
Af con
ĠCol omb
ĠJud icial
SC E
cl ip
Ġmeas les
ĠMak urdi
ĠSu icide
ĠWork s
Ġble ed
ĠAdey emi
Ġoverse er
iw orima
ĠSemen iworima
ĠSold iers
ĠSime on
Ġkway et
B ank
E d
J o
L a
Q ueen
S mall
j uju
Ġ |
er u
Ġt omat
Ġp ause
Ġfor ensic
ĠM ur
as ure
ĠP a
ir y
ĠJ ar
ĠH ud
ast ers
ust ration
Ġpat h
Ġatt ach
ĠMar sh
aj abiamila
be an
Ġbre ach
Ġsing les
ĠEl rufai
esh ion
ĠJer emaya
Ġinj ured
Ġtw ist
oz ie
iod un
cl usive
Ġsuper star
ĠMaur itius
Ġsym p
ĠLim an
ĠHon our
Ġmet res
ĠDrug s
ĠCy pr
ĠUr uguay
ĠStat istics
Ġhighlight s
ĠGamb ino
ĠElectric ity
Ġtoler ate
ĠKond engui
ĠLeoc adia
clip se
D R
L ater
U P
g rees
y or
Ġ om
Ġd y
Ġs ink
Ġfor b
Ġr ough
ĠF riend
ĠB le
ĠB ichi
ĠJ urgen
Ġsh ariot
Ġch ose
Ġv irt
Ġan xiety
ab as
Ġdo ors
ĠR ey
ĠR apper
Ġgr ades
ĠCh ampion
ĠSurv iv
Ġmat ure
ĠIs sa
ĠSh ia
vel ation
Ġco ordinator
ator anking
Ġreturn ing
Ġtrib utes
Ġnormal ly
ĠMel ania
Ġapplic ations
ĠAj ayi
Ġyab is
Ġbenef its
att ack
GO S
ĠRec ently
Ġlab or
ĠEar ly
Ġcos m
ĠCyr us
Ġmath s
ĠGuard ian
Ġanc est
ĠKyl ie
ĠBit coin
ĠDram a
ĠZelens ky
D SS
E thiop
F our
G un
R em
T Z
j oin
m b
w ill
Ġd odge
Ġw elfare
Ġb ounce
Ġm ap
ou f
Ġh ike
ĠM kh
ĠI CC
ĠF ecafoot
ĠO ti
ĠB ush
as y
ĠE gu
ip zig
ir ai
ĠJ ersey
ly n
Ġch aw
Ġwh eel
ĠK l
ĠK at
ĠK ong
Ġsome how
ĠHar una
Ġgradu ates
Ġgovernment s
bb le
Ġrel ief
Ġfeel ing
lop hones
Ġjud gment
ĠCl ose
Ġap artheid
ĠBo eing
Ġbill s
ĠKw ame
ĠChar l
Me Too
bl ack
Ġtre k
Ġver ify
Ġsat ellite
ĠPep e
Ġill ness
ĠEr nest
ĠMcG regor
arib bean
ĠPink ett
ĠTuk ur
ĠArem eyaw
C or
G ar
M D
P ol
b ar
b ow
d ays
f in
k ick
m il
s g
w ool
Ġd u
Ġa woof
Ġm ut
ĠT ch
ĠT oyin
ĠF arisee
un ice
ĠB oma
Ġst ability
ĠP ond
ĠE y
Ġim am
Ġpr ide
Ġsh el
Ġv en
qu in
ĠNa f
Ġbr ight
ang lement
ĠBr uce
ĠQu ar
ĠRe fer
ĠRe uben
ĠOs ogbo
ĠCo alition
erem adu
qual ity
ĠReg ist
Ġdiscip line
ĠKe ke
Ġequal ise
azz au
Ġenvironment al
ĠOke ke
Ġindividual s
Ġveget ables
ĠBa al
ĠMem orial
ĠSheik h
ĠAfrobeat s
Ġtatto o
Ġfulf il
ĠExplos ion
Ġpret end
Ġresur rect
B et
C ovid
J on
U L
U kr
V ER
W ar
Ġw ipe
Ġc ourage
ĠS E
Ġto y
ĠM ission
Ġr ip
se a
ĠC av
ut o
Ġpr actical
ĠL up
Ġpass ing
oc cer
ĠK n
ĠR ight
um or
up e
Ġlo vers
Ġdr um
Ġcall ing
ĠLe ipzig
ĠAs isat
Ġ9 8
Ġfind ings
az a
uk adnezzar
Ġmilit ia
any e
Ġpublic ly
ĠIb id
Ġinst ruct
Ġcoach ing
Ġdirect ion
ĠST ATE
ĠCl aud
Ġu pper
ĠBank s
Ġbill ions
reg ate
ĠCr own
ili ation
Ab out
ĠAhm adu
Gov nor
ĠSub stitution
Fr ance
Ġcircum stances
avo en
Ġvent il
angel ist
Ġbound ary
ĠBulg aria
ĠAnalyt ica
Ġlux ury
ĠEgu avoen
9 4
D B
E hn
G erman
K ab
K ING
T un
r em
r ain
v ille
w estern
Ġw ent
Ġdi l
Ġp in
Ġc od
Ġc aus
Ġm ansion
st ill
ĠM ang
ĠM ail
ĠM ait
ol t
Ġst ages
Ġst urb
ĠE ld
ĠG il
Ġsh oes
Ġch uk
ri que
ak in
Ġun ite
Ġun ited
ric tion
cc i
Ġbr oken
ign s
Ġtrans parent
ĠAr ound
ĠTr av
Ġstr oke
ĠAl ison
ich olas
ĠDis c
Ġevery time
Ġsign ific
ĠBl ac
rat ulations
ĠBar b
Al geria
ĠOr om
ĠGb ajabiamila
Ġcontest ant
Ġhost el
ĠBur atai
Ġdoz ens
Ġappr op
Ġ196 7
Ġbull ets
ĠCons ult
ĠSu we
ĠWork ers
ĠLam ar
Ġmult i
Ġsevent y
ĠLGBT Q
ĠIC T
Do ct
Ġdiss olve
ĠFR SC
Ġtrump et
ĠEug ene
) :
G B
S e
b eh
c ience
n ut
v or
Ġd m
an aya
Ġdi vers
Ġb end
ĠS allah
ĠB RT
Ġk ar
ĠW azizi
ir ates
ĠG a
ĠH ots
Ġv irgin
Na im
Ġle aving
Ġres erve
pl enty
Ġrep utation
ĠAd el
ĠBr om
Ġsur ge
Th ose
ĠEk ambi
ĠJud e
Ġfish ing
ĠMet uh
off rey
Ġdid n
ĠIgh odalo
yn th
CC G
ĠProt esters
Ġmem ory
Ġentr ance
Ġegg s
ĠKol ade
ĠResident s
Ġoverse as
ĠSn ap
ĠGent ile
Deb ate
Ġqw eshion
Ġbatter y
ĠBaw umia
B F
B ack
B urn
D aniel
E P
M oh
W izkid
h ave
r ates
z or
or ation
Ġf ian
es ity
Ġm um
ĠS ank
ĠS DP
st ate
id ers
ĠM C
ĠA v
ĠI A
ĠI z
ĠT urn
ĠF eb
un s
ot y
ĠC ov
ĠW ahala
ĠJ erry
ĠG okada
ch ew
ĠL td
ab ab
art oum
ik oro
pr o
Ġ7 37
Ġinc onc
ĠOb in
ower i
Ġsign ed
emb rance
ĠOl ogb
Ġchild hood
ĠRep orters
Ġhous ing
ĠGov nors
ĠCl imate
Ġposs ession
Ġkidnapp ed
iter ature
Ġaut omatic
erv ation
Ġooo o
Ġdemon str
Ġbott les
Ġdipl om
Ġrival s
Ġrecording s
ĠRap id
ĠTrad itional
ĠIM N
Ġfem inist
Iv oire
ĠMahm ood
Mess i
wool u
Ġinconc lusive
' ?
B am
E U
F ake
N ext
S ake
b us
f irst
l ook
r od
Ġf ence
Ġf uck
Ġt act
Ġb ele
Ġc ertific
et ime
ĠN ancy
ig ible
Ġl amp
Ġe ase
ĠF ils
ĠO sei
ac co
ĠP epper
Ġk ata
ĠW AS
od us
ĠG ibe
ĠH R
ĠH ab
ĠL ulu
ĠU d
Ġtr amadol
ĠAn field
ĠAf ro
iss ions
Ġoff side
ris ing
ĠAr m
Ġyu z
ĠHar are
ĠHar ris
ĠOl a
Ġstatement s
Ġvisit s
ĠMal ami
wh en
ĠPh arm
Ġfact ory
Ġty re
ĠAlex is
Ġrequ ire
Am nesty
ĠTer ritory
fr ont
Ġaspir ant
Ġreb el
Ġkwesh on
Ġke ke
ĠBry mo
kw ik
ĠCatal an
Ġhur ry
ĠKid jo
Revolution Now
ĠEL EC
ĠMarse ille
ĠTek no
Ġtheat re
Ġmax imum
ĠCypr us
G E
p ly
or ate
Ġw us
Ġp up
Ġc razy
it ect
ĠS C
Ġh ab
ĠM is
Ġfr ame
ĠC her
ĠW ind
os anya
ĠU l
ĠR ain
ie b
aw ale
Ġall iance
ĠAb sal
ĠJos h
ond o
Ġoff ences
ĠMar adona
Ġperson ally
Ġover come
of e
Ġsell ers
Ġass oci
Ġdep osit
io for
ĠOk owa
Ġbank ing
ĠTe ga
ĠIbrahim ovic
ĠIk pe
Mr s
Ġsuper mark
Ġsym bol
ĠIns urance
ĠKab ul
ĠSus sex
ĠProt ection
Ġmission ary
Mad ueke
ĠTony e
Ġveget able
ĠPict ure
Ind ia
Ġly rics
ĠStorm zy
reensh ot
ĠOlogb ond
ĠAbsal om
' re
. ,
D O
L ove
L AS
N DC
T ION
i ola
r ov
s ina
an je
Ġa da
Ġm old
st ers
el ek
il ola
ĠT el
ĠT os
ĠF oul
ep at
Ġy akata
ĠB asket
ad er
ĠC aribbean
ĠW ol
ĠK ate
ĠR ick
ĠR ooney
ĠCh amber
ĠCh opra
ĠCameroon s
ĠTr amadol
man y
ĠFr ed
Ġcount s
sh ow
ĠTo o
Ġvis as
ific ial
iel ds
Ġhard ship
ĠEx amin
He alth
Ġ198 2
Ġimm un
ĠKh artoum
Ġcook ing
Un iversity
ĠSaf e
Prof essor
Ġconstr uct
Ġentreprene urs
Ġspec ific
ĠKaz eem
Ġphotogr aph
Ġsam ples
NGR President
Ġreh ab
Ġcas ual
Ġbacter ia
ynth ia
C ardi
H on
H in
L Y
L et
U s
i os
m ad
m ember
p ed
r ary
Ġ era
Ġs oci
Ġp addy
st ay
ĠN ke
Ġr esid
ow en
ĠF ear
am as
ac ey
ĠB ell
ĠP ython
ĠE ach
ĠE lem
ĠW ars
ag ain
ĠL o
ĠL al
ĠR af
Ġj ab
Ġun c
Ġun ique
ĠAb iy
Ġcl er
ib aly
Ġtrans ition
ĠIs mail
Ġhappen ed
Ġdec ades
Ġhear ts
af o
ĠThe ir
Ġrem oval
au x
ĠOl isa
wu eme
ĠOk p
Ġprov ision
Ġinvestig ative
Ġdefend ers
Ġcry pto
ĠMat ric
Ġmod els
oul ibaly
ĠNd oki
att ara
Ġkom bi
Ġmast ers
Ġsolid arity
ĠArch bishop
Ġinspir ation
Ġstruct ure
okp og
ĠBuff on
ĠOsin achi
ĠMetropol itan
ĠContin ental
B enue
I weala
d ings
l ove
t ry
an mi
Ġw ig
Ġt l
Ġt ies
Ġc ath
it age
Ġg ave
Ġto ok
ĠN atural
Ġr ow
Ġe ur
ĠT it
ĠF ort
ĠE ff
ĠC ab
ĠW all
ĠJ as
os ho
Ġsh aking
Ġsh rine
ĠR as
Ġcon quer
um ers
ok er
ĠY omi
Ġneed ed
oy o
Ġwan na
are z
iz in
pr omise
ĠAl ready
Ġcor respond
of ment
ĠGover ning
af at
ĠAm ong
ĠAk ure
Ġgu ards
Ġmatter s
ĠOl ivia
ĠAt al
Ġstrong er
ara oh
Ġbreak ing
Ġind ustrial
Ġmarket ers
gr apher
ĠOm oni
Ġperform ances
ĠJon atan
ĠMor ata
Ġserv ing
Ġcommun ications
Ġgod father
ĠJul iet
Ġmel t
Ġtick ets
ĠGun nar
Ġcoun s
ĠSing le
Ġmosqu es
ĠHapp iness
Ġguest s
won wu
Ġbroad caster
Ġprior ity
ĠHots pur
ĠSnap chat
6 4
F ans
G ame
G irls
J en
S an
S im
V ict
b our
g over
h op
t ins
w or
Ġw ana
es ide
ay an
el et
ĠM oon
ĠA D
ĠA igbe
Ġr aitious
ake em
ĠB in
ĠC out
ĠC are
ĠW rit
ĠJ al
ĠL ook
ĠR iy
gh o
art ial
ĠCh loroquine
Ġso f
Ġres ist
pl ete
ĠAd d
Ġsm oking
Ġmin or
ĠOb id
ĠSh ey
Ġend orsement
Ġstat istics
pt oc
Ġclear ly
ĠBe auty
esh i
Ġ199 1
Ġround s
Ġmag istrate
ĠBur uji
Ġmotor cycle
Ġhair st
Ġsurprise d
Ġnomin ated
Ġcirc uit
PDP Nig
Ġclos est
ĠCC T
Ġnut rition
ĠHu gh
Ġsched ule
ĠLamp ard
Ġassess ment
Mor occo
ĠTik Tok
Ġtra uma
ĠOlus ola
epat itis
ĠExamin ations
7 00
C ON
G F
b ag
h im
k ape
l oe
r u
Ġd addy
er ves
Ġf isher
an ju
Ġa st
it ate
ĠS of
ĠM ack
ĠT a
ĠO ri
Ġy ansh
ad der
ĠV isa
ĠV iet
ĠE ight
Ġdis p
ĠJ or
Ġde grees
os ure
est in
ver end
Ġre build
Ġsh un
Ġv alley
ĠK amp
Ġgr oom
ose d
oun ge
ĠAb iodun
Ġyour e
ĠZ akzaky
ĠAl sina
Ġcr ack
ĠOb iang
enc ing
Ġarrest s
Ġend ing
az ette
Ġvis ual
Ġconc ede
Ġter rible
Ġmain land
Ġmain ten
Ġpain s
ĠEx change
Ġins ur
ĠOy egun
Ġexc ited
Ġimp ossible
urr ently
ĠAgb aje
ĠSir ika
ĠFat ima
Ġkp ai
ĠEst her
Ġchemical s
ĠMam man
ĠConc ern
ĠFah d
Official PDPNig
ĠAbram ovich
Ġgut ter
ĠNgan ang
ĠAku apem
ĠOgund ipe
ĠErit rea
ĠTakor adi
ĠOlogbond iyan
Ġmainten ance
6 01
H A
K e
K anye
M a
N O
O ver
l ade
Ġw l
in th
ey emi
Ġa ide
Ġm op
al ola
Ġg arden
ar es
ĠN ik
ig ital
im ani
Ġth ugs
ĠB ollywood
ter y
ĠH ung
ĠL amb
ĠL igue
if est
Ġpat tern
Ġor ders
Ġsome where
Ġar senal
ob ia
ĠZ azzau
Ġrep ent
Ġattack ing
ĠAs ian
Ġarr ow
Ġshort ly
air es
ĠRe verend
uk ola
Ġrel y
ĠAng lophones
ĠBay ero
ĠRepublic an
St ock
Ġgather ings
ĠRom ans
Ġsad ness
Ġgy m
Ġsport ing
ĠSey itan
iki we
ĠNot re
ĠIS IS
ĠPrison s
ĠPlan ning
ĠVill age
ĠAbe okuta
emp tion
Ġtreason able
Ġeduc ate
Ġevac uate
Ġtariff s
ĠNeb ukadnezzar
ĠSeparat ists
ĠEkw eremadu
ĠRedeem ed
ĠRefer ee
! ""
9 2
D ep
D ino
F inal
H app
M o
d am
g ender
n in
n ie
p ay
w eek
Ġd inner
Ġs upreme
Ġa se
em eka
om ach
ĠS ony
ĠD O
ĠT oko
ĠT weet
ĠB and
ad un
ad ays
ĠG areth
Ġno vel
ĠH aw
ĠL t
Ġv ocal
ĠK wa
ov iet
ĠR ena
ĠIn v
Ġun f
00 4
Ġinter pret
oot s
Ġ9 7
ĠEm ma
Ġsupport ing
Ġdisc ourage
az aya
Ġprison s
Ġpre acher
Ġdes ire
rat ed
Ġcompl ications
Ġcre ation
Ġcampaign er
Ġcons cience
wh o
ĠOg on
Ġviol ation
ĠJer emy
Ghana ians
Ġel das
On ce
Ġ198 7
Ġsum mon
ĠOsh odi
och a
Ġsecret ariat
Ġdom inate
ĠOshiom ole
ĠKill ing
Os inbajo
ĠLil o
Go ogle
Ġrece ived
ĠHaj j
ĠColomb ia
ĠPond ei
ieb ube
ĠMatric ulation
ĠObid iebube
F ootball
G l
I d
M imi
N ob
N umber
O d
P M
V N
b ecause
j uma
r age
an ie
Ġt ong
Ġc ave
Ġm ercy
om bo
ar ily
ĠS ri
ĠS IM
el ve
im o
Ġst omach
ĠC airo
ir an
ch ild
ass ad
ĠK in
ric h
ĠY oweri
ĠCh ron
Ġdress ing
Ġsupp lementary
Ġhouse hold
Ġbus es
ĠUn ilag
ĠTr o
ĠAl abi
ĠSh ag
Ġper f
Ġfl ash
sh ithole
ĠSp okes
work ing
ĠTe acher
Ġro oms
ĠPh ys
Ġappear ances
ĠGe org
Ġeas ily
ĠRam os
Ġcommun icate
ĠNg u
Ġneighb or
ĠKh afi
kill i
Ġed itor
win ning
Ġtour ist
Ġaut ism
Ġsuggest ion
ĠIy abo
ĠBak are
ĠJeh osh
ĠEj iofor
May be
Ġprem ature
Ġphotogr apher
Ġprotoc ols
ĠBenz ema
ered olu
ĠBloom berg
Ġfixt ures
ĠLup ita
Ġwus ai
7 4
A bi
C ont
E zek
F ore
S M
d ist
e very
f ica
v ang
on ne
et tin
ĠN ile
ĠN ji
ĠN icholas
ĠF oto
Ġth o
un n
ac ement
Ġst ik
ĠP on
Ġno is
ĠH ard
ĠH BO
Ġsh ave
ĠU dom
ori ous
ab ol
qu es
aw u
ik wu
iss a
iss ance
ib ar
Ġoff enders
ĠUn iversal
oh o
ĠTh ai
Ġhold ers
Ġdep art
Ġspecial ist
ĠGu eye
Ġdirect ors
ĠEk p
Ġwill ing
lam ic
ĠCol umb
ĠMag n
ĠIk p
ĠĠĠĠĠĠĠĠĠĠĠĠĠĠĠĠĠĠĠĠĠĠĠĠĠĠĠĠĠĠĠĠ ĠĠĠĠĠĠĠĠĠĠĠĠĠĠĠĠ
Sh abab
mon ey
ĠDan juma
uter res
ĠMart ins
Ġhom eless
ĠKar l
Ġhang ing
VC A
Ġmet al
Ġscor ing
Ġbow l
Ġmix ed
ĠFlor ence
ĠWil fred
Ob asanjo
ĠRem ember
sl ow
ĠBry ant
ĠCatal onia
ĠJub ril
Ġagg regate
Ġobser vers
Rob bery
Ġju ice
ĠHousem ates
ĠKamp ala
Ġase pt
C ar
C ol
F ACEBOOK
I B
t own
u gh
Ġp iece
ar en
ĠS ang
ĠS oul
ĠS oviet
ĠM ind
ig an
ĠA st
ĠT H
ĠF T
ĠB ale
ĠB eck
le ft
Ġim ages
ĠG ana
ĠL anka
ĠU pper
Ġv eter
ab l
ĠR B
ĠR E
ĠR ul
ome z
Ġun ve
Ġun like
ĠCh ike
eb s
Ġshow ing
ra ud
ĠMar s
ek araya
ĠQ ue
ĠAs her
ĠSh el
ĠSh op
Ġrun ner
ĠRe x
oo o
ons aiz
ĠBar u
ĠOr ji
Ġrest riction
ĠEx press
ma ad
yl er
Ġansw ers
ĠNews p
ĠIg we
Ġmotor b
ĠWar is
ĠCar ter
ĠIgbo ho
ĠAre wa
Ġemploy ers
ĠComp uter
Ġbas in
ĠChild ish
Ok ay
ĠBroadcast ing
ĠHan ifa
Ġcondol ence
Ġprem ises
ĠDev ils
Ġsatisf ied
ĠOlub adan
Ġnegoti ation
ĠOu attara
Ġca ution
Sah aran
7 2
E agles
F G
c ol
c ent
h usband
r ome
Ġ ]
Ġd aw
Ġt aken
Ġs ore
Ġb iko
Ġb unk
Ġm as
Ġn d
th ah
et o
ĠM U
ĠM erc
ol is
ig gs
Ġl i
ad ou
Ġst e
ĠP oll
ĠP atoranking
Ġ1 19
ch est
Ġsh eda
Ġsh isha
Ġban g
ak or
Ġun n
Ġtalk s
eb u
Ġbr ake
Ġcl ap
Ġoff end
Ġacc om
ount ry
anc ers
Ġqu ot
af t
Ġpol e
Ġunder ground
Ġhead lines
Ġco ordin
Ġresp ir
new s
Ġleg acy
ef in
Ġ23 7
Ġqual ified
iy etti
Ġheart break
ĠNy ong
ĠSw iss
eph thah
Ġaud ition
Ġattempt ed
ĠAtt ack
Ġtroph ies
ĠSport ing
ĠKab ila
ĠCH R
ĠMans a
ĠColl ins
ĠColl apse
Ġpropose d
Ġmor ale
Ġreform s
Ib adan
Ġsoft ware
Ġpromot ion
ĠSecret ariat
Ġess ential
Ġwid ow
ĠKp okpog
ĠNad al
cond uct
Ġdisin fect
Ġada pt
Ġsof ri
A lex
B el
C BN
C AF
K uti
M oses
P astor
R uss
T ime
g irl
w ater
Ġ +
er ia
in ye
Ġb ars
Ġg ear
Ġg iven
ic i
ĠM utiny
ĠN ar
ĠA W
im elek
Ġl V
Ġl iber
il t
ed ict
ĠP erc
ĠE unice
ĠW an
ĠJ em
ĠG omez
ĠH istory
ĠK NUST
Ġtr apped
Ġpat ron
ĠCh oice
ub o
ind er
ĠFG M
Ġse w
Ġbr os
ra ign
ĠAs amoah
Ġrec eption
ĠFr u
ĠBr ian
Ġover night
Ġcol or
ĠSh oot
Ġcount ing
ĠAk ere
Ġplan et
Ġfl op
Ġdest ruction
ĠId riss
Ġbel ie
Ġ14 0
Ġground s
ĠEn wonwu
ĠOk o
ma el
Ġtit he
ĠBab ylon
Ġcut lass
ĠFI T
Ġval ues
ĠKam ara
Ġmis conduct
Br ing
Ġocc ur
ĠOny ema
ĠBright o
ĠJim oh
Ġkwesh ion
Ġmir ak
Ġrail way
ĠDike h
Ġrestaur ants
Ġlung s
Mich ael
hel p
Net flix
Ukr aine
ĠOrom oni
ĠElem e
vang irai
B ill
C onc
E K
G U
G ood
I tal
S TV
b uk
t ic
on u
in ec
Ġb ones
Ġa uction
Ġg or
th ree
ic ated
ĠD G
Ġl es
Ġl ines
ĠT ips
se er
am ing
Ġst able
ĠP ick
ĠW BC
op ause
ver a
ĠH abib
ice f
Ġal right
Ġbo ats
Ġv omit
ĠK ag
ov ak
ul pt
ĠR CCG
Ġgr azing
ĠCh ap
Ġman ner
ĠDe an
ĠDe ji
Ġcl ar
ord inary
Ġinter rog
ĠZ en
az ar
Ġdef ense
Ġkidn apper
rit orial
Ġdist ract
Ġob esity
Ġes kape
ĠMal ays
Ġshar es
ĠPh D
Ġqualify ing
Ġel igible
Ġstrik es
Ġbless ings
omb as
ĠEv ritin
Ġur gent
ĠSir leaf
Ah maad
ĠWork ing
ĠOpp ong
ĠRef ugees
Ġempower ment
ĠTre vor
Ġtel ec
Ġproph ec
Ġfift een
Liber ia
Ġresid ence
ĠCout inho
E B
K ill
T ake
f our
h unt
l iest
m ot
n edy
s an
on so
Ġw inger
Ġb ond
em iah
Ġn umba
ĠS ource
ĠS ERAP
Ġto ys
ĠM ana
ĠM ult
ol abi
ol ese
ĠD im
ig ress
ia st
Ġl unch
ĠF am
Ġ3 000
Ġ3 50
ed ek
ĠB ant
ĠV IP
od es
ĠG ir
ĠH Q
Ġal ternative
ĠL uka
Ġcome back
oc olate
ĠR oy
ri et
aw ee
Ġbl ocked
Ġte a
Ġtrans itional
ĠFr esh
ĠSh rine
ĠAk eredolu
Ġrun s
Ġbody gu
ER C
ĠĠĠĠĠĠĠĠĠĠĠĠĠĠĠĠ ĠĠĠĠĠĠ
uf u
ĠSp urs
Ġfeel ings
ĠRuss ians
ro oms
ĠBar row
ĠKen nedy
tr ack
Ġsl aughter
ĠCo ff
ĠCl ass
Ġsick le
59 8
cl ing
Ġest imated
ĠSom etimes
Ġengine ering
Ġkom plain
writ er
Ġdisappoint ment
Ġgar ment
Ġimplement ation
Super Eagles
Ġdoes n
Ġhack ers
ĠLA GOS
ĠLes bian
ĠKhal id
Ġbom bers
ĠNEC O
ĠAge ge
ĠKo jo
ĠKend rick
Ġnick name
Ġsignific ant
Ġyuz les
3 21
9 1
D an
G MA
I AN
L at
U nder
c all
f at
j eck
l ay
m are
n am
p ipo
r asheed
t ower
Ġd ull
Ġp neumonia
Ġm igration
Ġh orm
st op
ĠN ame
ĠA ri
ĠT WITTER
ĠF ight
ep hone
ĠO gbon
ĠB ach
ĠB irth
ĠB ongo
is se
ĠP opulation
Ġ1 28
ĠJ ess
ĠH ay
Ġsh ade
ĠL ac
ĠL ot
ĠL ight
ĠK it
ĠK ach
ul um
ĠR ab
und ay
ust ice
ak wa
Ġj ur
ĠY outube
ĠCh annel
ĠSt ock
Ġreg ulations
Ġstr anded
Ġinc idents
Ġsc ale
Ġ9 4
eg u
Ġpol ytechn
Ġrem and
ĠAk on
ren ch
Ġunder go
sh ake
oko ja
ĠBen fica
pe ace
ĠAnd erson
Ġsing ers
Im age
Ġdes per
Ġob tain
Pr overbs
Ġstand ing
ĠEn och
por ters
Ġspend ing
ĠJer oboam
Ġvacc inated
ĠPh araoh
Ġtax es
Ġevent ually
ĠBel arus
ĠSw an
ĠPat ience
ĠGl oria
br ing
Ġ197 9
ĠGen ital
Ġsever e
Ġmount ins
ĠWatch tower
Ġflag s
ĠPerson al
ĠSus pected
lad esh
Ġcomb ine
Bashir Ahmaad
ĠCy ber
ĠCP DM
ĠHeb rew
ĠCamer oun
happ y
Ġfert il
ĠFern and
ĠMut ilation
Ġconsequ ences
enez uel
Ġsturb on
Ġtact ics
ĠHung ary
ĠRena issance
assad ors
ĠGeorg ia
' ll
5 000
B oth
I k
N orth
O G
d ifferent
l ast
l ik
l ockdown
Ġ =
Ġ ug
Ġt iger
Ġc ouncill
Ġm ol
Ġo v
Ġo ya
Ġh unt
ĠM VP
ĠN ev
ĠA IDS
im at
Ġl odge
ent ation
ĠF an
ĠB ail
ĠP L
ĠP el
ĠP CR
ĠC ynthia
ĠG ate
Ġan them
Ġwh atever
oc o
ĠR ober
art ey
ric ia
land o
Ġdec ade
ĠOb an
ĠEm il
Ġis olate
Ġexplos ions
ĠTo chi
Ġjud iciary
Ġsol ar
Ġdel iber
Ġdefend ant
Ġext ent
Ġconfirm ation
str uction
aji ya
ĠSim one
ĠEs say
Tr ans
ows ki
ĠDou ye
Ġtaim s
Ġconduct or
ĠPer u
ĠLuc as
ĠNC AA
ĠYah ya
ĠHy dro
ĠEti enne
Ġmanufact urers
ĠExper t
igue z
ĠSadi q
ĠHop kins
ĠWalk er
ĠTamb uwal
Ġfel ony
Ġeleph ant
ĠHonour able
ĠIbid unni
Ġeur os
F ire
M ali
P ipol
S U
S ol
S ars
S uale
T OR
k lean
y y
or r
an es
Ġp ak
Ġh urt
st one
ĠM orning
ĠM ighty
ĠN wo
im bi
Ġl iv
Ġl ord
ent e
ĠC ow
ĠW eda
ĠJ ollof
Ġde af
ĠG uterres
ĠH akeem
ist e
ĠL i
ab is
ĠK iki
ul ed
um oro
ĠIn c
ĠAn to
ĠY aw
ĠY emen
Ġar raign
og u
ĠAugust ine
Ġ19 75
Ġcor p
Ġour selves
ven e
Ġhear d
ĠAm r
ĠAm or
Ġwr it
Ġsi xt
Ġart ificial
Th en
Ġimport ance
Pr oducers
oke d
Ġwear ing
Ġform al
Ġsuccessful ly
Ġtrad ing
Ġinj ustice
ror ism
Ġfly ing
ugg ed
Ġinterest s
ĠArt eta
Ġsum m
ĠAj ib
Ġsurr og
Ġbomb ing
ĠEver itin
Ġgof it
ĠPass ova
ĠEt omi
ĠKa isha
ĠVal encia
Ġep id
ĠProv ince
ĠJim my
ĠAtl anta
ĠĠĠĠĠĠĠĠĠĠĠĠĠĠĠĠĠĠĠĠĠĠĠĠĠĠĠĠĠĠĠĠĠĠĠĠĠĠĠĠĠĠĠĠĠĠĠĠĠĠĠĠĠĠĠĠĠĠĠĠĠĠĠĠ Ġ
ĠĠĠĠĠĠĠĠĠĠĠĠĠĠĠĠĠĠĠĠĠĠĠĠĠĠĠĠĠĠĠĠĠĠĠĠĠĠĠĠĠĠĠĠĠĠĠĠĠĠĠĠĠĠĠĠĠĠĠĠĠĠĠĠ ĠĠĠĠĠĠĠĠĠ
emp ah
ĠChukw ueze
Ġvolunte ers
Ġsatisf y
Rep ort
Ġintimid ation
Ġsmugg ling
Ġsect ors
Ġcircumc ision
Ġbutch er
ĠToy ota
Ġwhats app
Ġaccommod ation
ĠIkpe azu
ĠShag ari
A re
L ockdown
O per
O gbonge
S port
T ins
g ans
r ar
r and
u u
Ġd ye
Ġf ant
Ġf ade
Ġw anda
Ġp as
Ġp ul
Ġb ul
Ġm eter
Ġm imba
ay ose
Ġo cean
Ġh a
ĠM AR
Ġl ies
ĠO thers
ac ing
ac re
ĠP ast
ĠE ner
ĠC ash
ĠH ans
ĠH ich
ĠL ok
Ġbo ther
all o
ĠK os
re h
ov et
ec in
ec ologist
Ġpat ience
Ġlo ver
Ġ4 19
Ġreg gae
pl us
Ġdance hall
ebr on
ĠIm p
Ġsc ulpt
oh en
ĠHigh er
ĠSh aw
Ġplan es
Ġdef ection
ĠAt tah
ĠEl k
Ġmembers hip
Ġnear by
ĠEn forcement
Ġremain s
ĠSar ri
gr aduate
Ġthere fore
ĠCom fort
Ġsub stance
ĠFI RS
Ġcomplain t
ĠSol udo
ĠIr ish
bl ock
ĠEv ribody
aly se
ĠTrans fer
Ġdig n
Ġparticip ation
ĠLead ers
itt en
ined ine
ĠPere z
Ġke e
bear ers
iqu or
ĠRay mond
Ġassign ment
Ġorph an
Ġforb id
ĠSank ara
ĠELEC AM
gover nment
ptoc urrency
Russ ian
inec nigeria
C af
E h
L ib
O sa
P apa
R EA
S AN
T F
l inary
r ep
t ra
Ġ %
Ġd ota
Ġd otas
er ate
Ġf il
in ness
Ġb ash
ĠS aga
Ġo j
ĠM iyetti
ĠD ol
ĠT ina
ĠT oni
ĠT yler
ĠF re
ĠB isi
ad el
ĠV oice
ĠP ut
ĠP ul
ĠE PL
Ġk uku
ĠJ O
ĠG or
ver eign
ĠH it
ĠH ag
ĠH ait
ĠU go
ĠMeet ing
ĠK ur
um z
ri est
Ġany wia
ok ri
Ġso vereign
Ġtell ing
25 0
Ġhe ight
Ġact ual
Ġgov t
ĠQu est
Ġrel ative
ĠMon ica
ĠBl oody
Ġset ting
ts chew
Ġremain in
ĠOk ada
ĠAy uba
rib ed
ĠCom edy
Ġposs ibility
Ġgather ing
Ġpub lisher
Ġclos ely
Ġconv ince
Ġprofession als
Ġmourn ing
Ġpil gr
unic ip
Ġcritic ize
ĠAdey anju
ĠOluw ase
Ġregular ly
Ġteen age
Donald Trump
Ġhomosexual ity
Ġtel ephone
Ġaff air
Ġchart s
Can ada
Ġstig ma
Ġfian c
ĠIA AF
Ġtong ue
ĠHich il
' ve
6 2
7 1
F L
L M
L eg
M oney
N U
P art
W akanda
Z ulu
f am
h ome
k an
o thing
p hone
r esident
r ish
v oy
x e
y les
Ġf ada
at ak
Ġp ers
Ġp ant
Ġm o
ou di
ĠS od
ĠS hua
et own
ĠM ai
ĠD akar
ĠN at
ĠN eh
Ġl ip
Ġin qu
ĠB ash
ĠP e
ĠP it
us es
ĠH undred
Ġv ess
ĠK iss
ĠK aj
ĠK unle
ri e
ĠY ek
ans a
ĠCh ime
ish ops
ĠDe al
Ġread ers
ĠAl a
Ġser ial
Ġinc om
Ġcor ps
ĠPidgin Blog
ail ed
ĠBr ing
to o
any ana
ĠEmir ate
ĠAt anga
Ġsur face
Ġmiss iles
ĠGb enga
Ch eck
Ġsaf ely
Ġenjoy ment
ĠOgun yemi
anz ibar
Ar t
BBC Nigeria
Ġemb ark
Ġmis under
Ġmis beh
br ella
ĠAw osanya
ĠDef enders
Ġintrod uction
ruct uring
Ġ196 6
Ġwithdraw al
Ġworship pers
Ġinvestment s
Ġextr eme
Ġsek onsaiz
ĠUp on
Ġproced ures
Ġreven ue
ĠĠĠĠĠĠĠĠĠĠĠĠĠĠĠĠĠĠĠĠĠĠĠĠĠĠĠĠĠĠĠĠĠĠĠĠĠĠĠĠĠĠĠĠĠĠĠĠĠĠĠĠĠĠĠĠĠĠĠĠĠĠĠĠ ĠĠĠĠĠ
Ġkwes ions
Ġded icate
ĠDivision al
Act ing
Sec urity
ĠTs vangirai
Res earch
Ġextrad ition
Ġclin ical
Ġcaps ize
ĠReh oboam
CF TA
Burn a
ĠĠĠĠĠĠĠĠĠĠĠĠĠĠĠĠĠĠĠĠĠĠĠĠĠĠĠĠĠĠĠĠĠĠĠĠĠĠĠĠĠĠĠĠĠĠĠĠ ĠĠĠĠĠĠĠĠĠĠĠĠĠ
A kin
F i
S D
T here
l im
r ot
Ġ ut
Ġd read
Ġdi as
es ai
Ġm ock
Ġm ush
al ek
Ġn iger
ĠS ister
Ġo der
ĠD h
ĠN Y
ĠN ah
ĠA id
Ġr are
Ġe clipse
ow e
ep s
ed ge
Ġy ard
ĠB om
ĠB empah
ĠC arn
ĠC ohen
ve x
ĠW eather
ĠW az
ĠJ ephthah
Ġre in
Ġsh ocked
Ġsh adow
ĠL in
ĠL ine
ĠU w
Ġthe ory
ĠR ans
ec ost
aw al
Ġaf t
alk ida
Ġway a
ari be
ug o
Ġres olution
Ġcl ause
Ġus eless
ĠUn icef
Ġsc an
Ġrec ip
Ġqu ery
Ġ9 2
ĠAir ports
Ġcol ony
ĠSh ay
Ġlook s
ĠOn ana
Ġph il
Ġhard working
ung le
St ill
ĠOffic ers
Ġrequ ired
ĠPat riotic
east ern
ĠAngel ique
ĠComp etition
lor in
int end
gu y
ĠCust om
ĠAirl ine
ĠBer lin
Ġsens ation
Ġtab oo
Ġlin en
bear er
ĠGreat er
ĠLaur etta
jud ge
ĠSher iff
ĠRiy ad
ĠHichil ema
E hen
F al
H ead
L ife
M I
N ollywood
N NPC
O g
S chool
T E
b ite
k omm
r ound
Ġ um
Ġf ate
Ġdi ed
Ġp ages
20 17
en y
Ġc erv
Ġg el
Ġ20 26
id erman
et ary
ĠM ile
ĠD anny
ĠN I
ĠN U
ĠN athan
Ġof ten
ĠT I
ep a
ĠB C
ĠB out
ĠV ex
ĠP age
ĠE xt
ĠC ovenant
ip tion
ir ts
ĠG ani
ĠH adi
Ġpr on
Ġpr esid
ĠL iving
ass ie
Ġv it
ap olis
he al
ĠDe ut
Ġen able
Ġsupp orter
Ġoff ense
Ġtrans mit
Ġstart ed
Ġbi have
ĠAl an
ĠAl fred
Ġbet ray
ĠAd dis
Ġmar gin
Ġser ver
Ġask ing
Ġold en
ps on
Ġbad ly
27 6
ef l
Pr oducer
Ġform ation
ĠEk wueme
Ġel im
ĠEd en
ĠMich ele
On ly
ĠNw ank
ĠSpecial ist
Ġgb edu
Ġgb adun
ĠAbdul rasheed
Ġhy pe
ĠPlay ers
ĠBet ter
ĠSu arez
ĠPerson s
Ġmem es
ĠVot er
cr ime
ĠGal ilee
Ġscr ap
ĠEz ra
Ġlandl ords
Ġbath room
ĠJub ilee
ĠAdew ale
ikt ory
Amb azonia
ĠStand ard
ĠPent ecost
Ġexh ibition
ĠSoph ie
Ġsuperv ise
ĠGnassing b
Ġcosm etic
Ethiop ia
Ġdiplom ats
Ezek iel
chest ra
Ġrespir atory
ici aries
ĠSwan sea
A ustr
B ey
D ame
J AMB
K idn
M ark
O pp
P at
S top
S pecial
T anzania
b ank
d ad
j ide
m ine
m oni
t reat
t ouch
an imals
Ġdi ary
20 16
Ġb old
ay or
ar b
ar real
Ġo xy
et z
et aker
ĠM ord
ĠD ream
ĠA G
Ġl azy
ĠB io
ĠB irm
ot un
ĠE w
ĠG ass
ĠL is
ĠU do
Ġam mun
Ġv in
Ġv ul
Ġpass ports
ĠK uk
ov i
ul ere
aw at
ĠY esterday
ĠHow eva
ug ar
port ant
ĠAb aribe
Ġsqu are
Ġwatch ing
Ġen rol
Ġoff isa
ĠIs aya
ĠEm pire
ĠHe ads
Ġannoun ced
Ġart s
ĠNor we
ĠSer bia
Ġind efin
Ġsusp ic
ĠSar o
Ch ampions
Ġins urg
Ġinvestig ators
ple ase
ĠSenegal ese
Ġjournal ism
igr ant
ament al
ali h
car riage
ĠJe hu
ĠAre gb
Ġ197 3
Ġflog ging
Ġview ers
Ġx enophobic
real DonaldTrump
ĠKeny ans
ĠPark er
Ġabs ent
ĠMath s
Ġess ay
ĠMom odu
Ġprotoc ol
ĠSag amu
ouss am
Ġunt old
Ġnep hew
Ġtomat o
Ġpup ils
ĠViet nam
ĠMagn us
E rica
J ames
M efo
N aw
P idgin
R ed
T WITTER
U chendu
b ed
d ict
f ear
m ust
p any
w all
Ġ ori
Ġf aces
em ia
Ġm all
ĠM ach
ĠD in
Ġl aff
ĠF ame
ĠO cean
ĠB apt
Ġst ain
ĠV ocal
ĠC hu
ĠC ON
ell ed
ĠL ungu
ess ions
da i
Ġ- -
ri ez
act ers
ĠAn u
Ġdr unk
ik us
ĠY ari
Ġgr ape
ĠAb id
ĠAb aba
bo th
ĠBr ook
Ġ9 6
Ġdec ree
ven ue
Ġfl oat
Ġgu ess
ĠId ibia
Ġconc ent
ĠSp ace
ĠAll ied
Ġind ex
Ġsy nd
ĠMal ik
Ġsuffer ing
Ġsk ull
Ġmess en
ĠOm ot
ĠDemoc rats
ĠST R
ĠTe ch
Ġdecide d
Ġgrow ing
Ghana ian
Ġcontr acts
ĠGe offrey
reg n
ĠEd die
Ġsn atch
ĠUg andan
ĠSudan ese
Ġ198 5
ĠX enophobic
ĠChar lie
ĠFin land
Ġagreement s
St ate
Ar ound
ĠDou g
ĠArgent ine
omat ically
Every body
ĠEst ate
Ok ada
Ġinaugur ate
Ġaccus ations
Ġprepar ed
Ġmaster ing
Ġtab ol
ĠBern ard
Ġevac uation
ĠJa afar
ĠRodr iguez
Ġstrateg ic
Ġjihad ist
Ġforg iveness
Ġpall bearers
bour ne
Mimi Mefo
ĠNwank wo
! "
C entral
D apchi
E ver
F R
F emi
N d
R AM
W O
Y ahoo
p al
r oc
an in
an re
Ġdi es
Ġb a
en ed
ĠS urr
ĠA le
ĠA ry
Ġr i
ĠT es
ĠT obi
ĠO mer
am an
ĠC oup
Ġcom es
ĠW BO
ir es
ĠJ in
ĠJ et
ĠG on
ĠG ofment
ch op
ĠDur ban
oc iate
ĠK asala
ĠR a
Ġyear ly
ĠY as
Ġshe kel
ĠCh ik
iz a
ĠZ edek
ĠZ inedine
ĠBBC Copyright
Ġnot ing
ĠAk ande
ĠAnd r
ĠOl ak
Ġsing ing
ĠJohn ny
ĠAcc ord
Ġconc lusion
aine es
ĠLaw ro
ĠLaw rence
Ġrespect ively
ĠLib rary
Ġ198 4
AT O
Ġz ones
Ġmis lead
Ġcrit ics
ĠGar lic
Ġinfect ious
ĠPre vention
ĠCons olid
Ġdeterm ined
ĠVot ing
Ġmoon s
Ġadvert ise
Ġvers us
Ġconsult ant
ĠSm oll
Ġkor okoro
Ġabs ence
Free MimiMefo
Elect ion
ĠBang ladesh
Ġce asef
Ġrom ance
ĠPil ate
Ġmasturb ation
ĠExcell ency
ĠStall ion
Ġvirt ual
Ġinsur gency
Ġunve il
Ġwrit ers
ĠBirm ingham
B illion
C N
E s
F ayose
I g
I sa
c ut
k ar
u ations
Ġd oses
an th
Ġs allah
Ġb at
Ġa unty
es ola
Ġm ight
it ors
ĠS ad
ĠM ilit
ĠM amb
ĠM ba
ĠA ut
ĠA ina
Ġr od
ĠT B
ĠF arm
ĠB achelor
Ġfr own
le h
our a
ch ang
ut ed
us k
ĠH or
ĠH em
Ġsh aku
ĠU b
ort ure
use d
ĠR en
ĠR emi
ust ries
end e
Ġj ungle
Ġsupp lies
Ġcl othing
pl ant
Ġhand bag
Ġout standing
Ġacc ord
ek w
ĠZ anzibar
ĠTr avel
ang o
aria h
Ġstrong ly
Ġsol utions
Pr ot
ĠMal ian
ron omi
ĠGu inness
Ġrest ructuring
Ġvill a
ĠSam bo
ĠMos que
Ġprotect ive
Ġadv oc
Ġtrad er
ott e
Ġwed dings
lu igi
Ġ198 8
Ġclass room
Ġz ero
Ġfound ing
Ġemb race
Ġmis sed
ĠGl ory
ĠKe ep
Ġclos er
Ġ196 1
Ġver ified
Ġpeaceful ly
Ġcred ible
ĠInt eg
Ġsac ked
IL AG
Ġsek ret
Ġbrut al
ĠEz en
Ġdeploy ment
Ġswim ming
ĠJam ie
Ġdemonstration s
ĠRash ford
Ġintimid ate
Lion el
ĠBass ey
ĠDM L
ĠIdent ification
Ġadminist r
Ġdiagn ose
ĠCast le
onn ema
Lat est
ĠOban ikoro
ĠAnto ine
ĠHait i
ĠOluwase un
Ġsuspic ion
B o
K h
L L
N PP
P lease
R oyal
S how
T igress
W INNER
l ong
m eet
Ġd ancers
or el
Ġt al
in ent
Ġp a
Ġc ement
Ġm inistries
Ġn ude
ĠS H
ĠS it
ĠS pr
ĠS aka
el es
ĠM p
ĠD igital
ber n
il u
ĠF le
ĠB atch
Ġst ew
ĠE rik
ĠW ik
ĠW iwa
ir am
od d
ag ba
ĠH eart
ĠH ajiya
ĠL adi
Ġv ine
ĠR ice
ĠR io
Ġex ecut
Ġdr ain
ĠY an
Ġman hunt
Ġsp are
ĠZ one
ĠLe o
Ġwhen ever
Ġpol y
ull ah
Ġunder wear
ĠOl embe
Ġchar acters
ĠCor inth
Wh ite
aim an
res sed
Ġhold er
ĠNor mal
idd en
Ġburn ing
Ġcons ole
ĠCo ordinator
Ġcorrect ion
Ġdefend ants
Ġdet ainees
aper ly
ĠJud ges
ĠStr ong
otos ho
Ġwound s
Ġemploy ees
Ġbenef iciaries
Ġhom etown
Ġsim ply
Ġwash ing
Ġaut omatically
Ġattempt s
Ġponish ment
DA Y
Ġconnect ed
ĠOgb anje
itt u
Ġoriginal ly
ĠPolit ics
ĠNGO s
atic an
ĠWood berry
ĠCorn er
Ġcigar ette
Par is
Ġsched uled
ĠMarc us
Ġabus es
ĠLAS EMA
raf at
Ġmobil ise
Ġdefin itely
Ġpet itions
Ġexec ution
Ġfrustr ate
ĠBasket ball
Ġperf ume
Ġmotorb ike
ĠFernand es
enezuel a
ĠEner gy
ovet kin
Ġdread lock
G ive
M S
O sh
U D
d in
h alf
m ir
r r
Ġt i
ĠS emi
ĠS ina
st able
ĠM ud
Ġr an
Ġin e
ĠB ats
ĠE cc
od cast
ĠG DP
ĠU P
ĠU zo
ass ment
oc racy
ĠK obe
ĠR on
if ty
um m
ak ara
Ġany more
Ġkon f
he ther
ĠCh em
Ġcl ip
Ġout rage
Ġtrans f
iz es
ĠZ ekaraya
Ġ19 50
Ġcor ona
con t
Ġi Stock
ĠSh ort
sh op
Ġrel ation
Ġ0 7
oth o
Ġtrav elling
Ġfood s
ĠEn y
ĠOr chestra
US A
ĠEd u
ĠEd itor
Ġrain s
ĠNy ako
ĠChar ly
Ġspirit s
Ġident ification
ĠKim ono
bl ow
Ġlaws uit
kon gho
ĠIsa iah
urr ent
ĠMet ele
ĠIke chukwu
ĠBus ola
Ġrock et
ĠAz ikiwe
ĠUm ahi
Ġmem orial
ĠOper ations
Ġguidel ine
ĠOny inye
Ġjun ction
ĠSm art
Ġsens itive
ĠGoal keepers
Ġinstr uction
stan bul
Rec ently
ĠLaz arus
ĠMes ut
Ġdisag ree
ĠInnov ators
Rem ember
ĠQuar ter
Ġdil iver
ĠMait ama
Ġcertific ates
Ġsupermark et
Ġcorrespond ent
Ġunf air
ĠShop rite
ĠAW ARD
ĠMalays ia
Lib ya
Ġammun ition
ĠAregb esola
riez mann
Ġceasef ire
F rench
J eh
L ev
N LC
O p
W S
c entral
n ah
w ing
y er
z u
Ġw ow
Ġp im
Ġc rises
th rough
ion g
ĠM asters
ur i
ĠN t
ĠN ut
Ġr ider
Ġl ounge
Ġe agles
ĠI ron
ĠI BF
ĠF ine
Ġth read
ed al
ĠB ayo
ĠB ull
ad is
ad ab
ĠV is
ĠV atican
is ola
ĠE th
ĠW ish
ĠW aka
ĠJ aguda
ĠH ampson
eet own
Ġan k
ain i
ĠR ub
Ġcon stitu
Ġj a
Ġbut ter
Ġman ip
ĠSt ark
Ġinter vene
Ġad ul
ib ok
Ġyour sef
ĠMar cel
Ġtrans gender
ek ai
ĠZ ulu
Ġstr ip
Ġstr anger
Ġsc are
Ġtoo th
ĠTh om
enc ed
Ġdisc ount
Ġgradu ation
Ġland ing
emi er
Ġplan ned
az o
az or
adi er
ĠOl awale
ĠAss urance
As s
ĠFinal ly
Ġnight mare
FA AN
olog ists
Ġsit down
AN U
Ġhuman ity
Ġcons ist
ĠTe igen
epend ence
Ġhar am
ĠSan ta
IG H
het to
ouch e
ĠCr ocodile
Ġ198 1
Ġexc ell
ĠMel bourne
ipol ar
St ud
ĠIv orian
ĠAbdul sal
ĠLa olu
Ġdam ages
aly m
Ġeat ing
ĠStud ies
Ġwitness es
ĠSil as
Ġmach ines
Ġtrack s
Ġdepend ing
ĠWhats app
ĠPrim aries
ĠAlexand re
uy ne
ĠLew and
ĠBala am
Ġpension ers
ĠSur ulere
Ġsustain able
Ġlegisl ative
Ġfourt een
Ġsanitiz er
Ġabd uct
ĠDip l
ĠJar uma
ĠBarb ara
ĠLac azette
Ġdesper ate
efl ika
6 14
E conom
F ox
H ouse
J ay
M aur
b ing
b ro
d ef
l on
w un
Ġd in
Ġf ingers
Ġp ending
Ġb ust
en k
ou e
Ġg ates
ĠS O
ĠS ow
ĠM inisters
ĠD ri
ĠD ah
im ma
ĠT yr
un ny
ĠB VN
ĠV iv
Ġfr y
ĠP ed
ĠP ain
ĠP ovetkin
ĠW ande
ut ory
out i
ĠH E
ĠH and
Ġpr incess
Ġsh ep
Ġsh ayo
Ġsh aperly
Ġv ib
Ġan s
ain a
ĠK u
Ġher bs
ĠR umu
ri ation
Ġun rest
ik es
he im
ant ed
Ġor gans
Ġso ak
Ġbl essed
15 0
oh ibition
ne apolis
ĠOb ser
ĠSh ield
ĠAm o
Ġwr itten
Ġland s
Ġund erc
Ġweek ly
EC O
gb im
Ġmind s
ĠOl ay
ĠĠĠĠĠĠĠĠĠĠĠĠĠĠĠĠ ĠĠĠĠĠĠĠ
ush on
ĠBar r
Ġdeal ers
Ġcheck point
ask a
ĠAy ade
ĠCl ark
Ġhost s
Ġcry ptocurrency
Ġsn akes
ĠMin neapolis
ĠRam on
ĠOgun w
Ġfeat ures
Ġgb ese
Ġneighbour hood
ĠRom elu
ĠBal d
ĠAtt empt
Ġbull ion
ĠDes mond
ĠUz oho
ĠSch eme
Ġrac ial
Ġscor es
IL L
Ob aseki
Ġash es
ĠEle azar
ĠCard iff
ĠIj aw
Ib rahim
Ġstrength en
Ġmand atory
gar et
ĠRef ugee
ĠTour e
ĠLes otho
ĠCamer on
Ġreported ly
Ġbully ing
Ġstretch er
Ġneutral ity
Eng land
agb are
Nn amdi
Ġantib iot
Ġancest ors
Cor ruption
Kab ir
ĠPerc eption
ĠBout eflika
Ġoxy gen
C ap
F ulani
G ab
G irl
H m
P ope
R ight
X enophobia
b one
c ock
f ar
n ally
r ad
r one
s pecial
v al
on ly
Ġt ier
Ġp urch
en ough
Ġm aj
ar ians
ĠS oci
Ġh epatitis
et ies
ĠN ina
ĠN ever
Ġr ats
Ġin h
ĠP ers
ĠC ra
ĠW u
Ġ1 18
ĠJ esse
ĠG iant
ĠH ebron
Ġsh ook
ĠL O
ĠL op
ĠK ou
ĠK oulibaly
ĠR oom
Ġj ub
Ġany way
ric ultural
ik ul
ĠY ang
Ġkon dem
ĠAb onnema
Ġsp l
ib ly
Ġ19 58
Ġprot ein
Ġevery ting
ĠSh ad
oad a
aka i
ont ris
ĠId owu
Ġother wise
Ġsix ty
ĠEn ough
ĠEn tr
ather ine
Ġsk it
Al h
Ġprotect ed
acc ept
iest a
ĠSc iences
Ġcommission ers
ES CO
ĠX i
ertific ation
ĠMah am
ĠEconom ics
br other
Ġrank ings
ĠSy stem
ĠNe ighb
ĠAdv isory
ĠBre ast
field ers
ĠUp date
Ġtalent ed
ĠResearch ers
ĠExper ts
Ġmath ematics
Ġambul ances
Ġmenstr ual
ĠCa esar
ĠJeho ia
Ġtrag edy
Ġingred ients
ĠMack y
ĠIkp oyi
ĠNewsp aper
iquor ose
REA KING
Ġum brella
Ġinsurg ents
Ġkondem n
% ,
0 01
8 1
A j
C os
S ir
g ars
m at
n ag
o ir
x ic
y anka
Ġf ields
Ġw if
em es
it z
ĠS ek
Ġto w
st ream
el im
ĠM og
ĠM ush
ĠM esh
ur ement
ĠD oc
ĠN ass
ĠA rafat
ent a
ĠI SS
ĠI lorin
ĠI stanbul
ĠF em
ĠF aw
ĠF air
am ah
ĠV it
as por
ĠP as
ĠC old
Ġk id
ov o
ov ement
Ġme ga
ĠDi allo
Ġ. .
ĠHow ard
ĠDe ad
pl aced
ĠZ ech
Ġjust ify
ĠAl pha
ĠQ ur
Ġinc red
Ġsc en
Ġcor on
ĠFr eetown
omm unic
Ġmeet in
ĠBr others
Ġmin eral
ĠAm putee
ĠRe igns
per or
ilit ation
Ġpar adise
ĠOl an
Ġprison as
ĠInter im
Ġass ass
Ġjud icial
She hu
ĠCo ok
Ġsw ag
ĠOg ar
Ġchall enger
Ġrespect ed
ĠBoy ega
Ġesc ept
Ġkl ose
ĠPat ricia
Ġpract ise
Ġtre as
Ġboard ing
ĠSom ali
Ġdeep ly
ĠDam ilola
Em manuel
part y
Ġcomb ination
ĠBaf oussam
ĠDiv ine
ĠNob le
Ġstor es
Ġrecommend ation
ĠTax ify
Ġstren ja
ĠStan ley
quer ade
Ġprovid ers
ĠJum bo
ĠCelebr ities
ĠSurviv or
Ġapprop riate
Back Our
Ġfisher men
ĠYek ini
8 2
A ge
A MAA
K emi
O h
S even
Z E
c am
c os
c ult
d est
k os
l ov
l ah
l ims
m et
o ji
Ġ igb
er ies
er to
on da
or in
Ġc ir
Ġm esi
al and
it utes
ar ing
ĠM ab
ĠD u
ĠD ame
Ġr ipe
Ġl ake
ent ic
ep ong
is ore
ĠC reat
Ġk m
Ġk ase
le vel
Ġ1 23
Ġ1 16
ĠG reg
Ġsh ield
ist ol
ĠL iz
ĠL okoja
ĠU ch
ori z
ĠK ro
ul atory
ĠR u
da fi
Ġtr ips
ff ick
act or
Ġun klean
aw ays
Ġat m
Ġres ort
Ġsp ear
ond ers
ib outi
oin s
bo x
ĠBr uyne
ĠDis aster
"" "
ĠAk por
amm adu
Ġsign ature
ĠOl iver
ĠMon itor
ĠĠĠĠĠĠĠĠĠĠĠĠĠĠĠĠ ĠĠĠĠĠ
ĠJohn s
na ija
Ġred uction
Ġfilm maker
gr aph
ĠOm otosho
uck y
Ġmov ing
Ġexp el
ĠCl ement
ets k
Ġmag n
ĠHer od
Ġmod elling
Ġlect ures
ĠLiber ian
ĠOd un
ĠAbdul aziz
ĠRom ania
Ġdemsef s
Ġfund amental
Ġorig in
Ġgang s
ĠRock y
ĠKab iru
Ġmental ity
Ġdivide d
ĠiP hones
Ġuniform s
Ak ufo
Ġloc ked
ĠRob bery
pol itical
Ġton nes
ĠMax well
ensh aw
iw aju
ĠKr em
Ġbor da
Ear ly
ĠHill ary
ĠAthlet ics
ĠActiv ist
sg iving
Ġcod ed
ĠTurn er
ĠObin na
ĠWAS SCE
ettin o
Ġcorp se
Opp osition
ĠNorwe gian
ĠAbid jan
B oy
F ood
H el
H ushpuppi
N FF
O y
P en
R obert
S n
S owore
] .
c ern
h ard
l ig
m other
Ġ 00
Ġw ww
Ġs a
in ism
Ġb eside
Ġc and
em porary
ĠS hu
ĠS eb
st or
ĠM ale
ig ger
Ġr and
Ġl ips
ĠT i
ĠT ir
ĠT here
ĠF lying
ĠO FF
Ġy all
ĠB eg
as ite
ĠP och
ĠP lease
Ġna i
ĠC iss
ĠC irc
op hone
Ġwe igh
ch ief
out s
Ġpl edge
ĠK ah
ĠR is
Ġany ting
Ġtok s
ĠY en
ĠY ong
Ġbu ck
ant an
ĠCh an
ĠAf rika
ari o
og on
Ġen of
pl enti
Ġhand work
ĠMar ie
pr ah
ikin i
eral d
ere es
ĠBr id
lic an
ĠAm en
ĠAm end
Ġpar ole
Ġdest ination
Ġexplos ives
amm ar
Ġred uc
Ġpublic ity
ĠIsrael i
Ġclear ance
Ġcons umers
Ch airman
Ġro ast
Ġsurv ival
ĠCO P
Ġcover age
str ing
Ġmist aken
ĠChar ge
Ġsan itary
ĠBam ise
ĠOd um
Ġwel kom
Ġmass age
ĠGar c
Ġbar ri
Ġconv iction
ĠRec ord
Ġdid nt
Ġinflu ential
ĠCel tic
Ġkp ata
inst agram
ĠAch ebe
Ġcounter part
Ġemot ions
ĠAgy epong
ĠMid fielders
ĠMill er
Ġkil omet
ĠNj ie
Iv ory
ĠCir yl
Ġfib roid
Ġdict ator
Ġwat ers
ĠPac ific
Ġsymp ath
Ġshel ter
Ġrip air
Ġinstruct ions
Happ y
ĠJehosh afat
Ġbunk ering
Ġcoordin ate
ĠCHR DA
ĠKpokpog ri
Ital y
ĠJess ica
Ġepid emic
ĠCarn ival
ĠZedek aya
ĠOgunw usi
" :
F und
L aur
M ed
N YSC
U TH
s es
w omen
or ed
Ġt ur
Ġt un
Ġm ile
Ġm ail
ĠS ector
th y
th en
et an
et ed
ĠD amb
ĠD PO
Ġl ament
Ġl uz
ĠT ension
ĠT imi
Ġth ick
un ar
ĠB anyana
ad ik
Ġbe ast
ĠP enn
Ġna k
ĠC ote
ĠJ ah
ĠG at
ĠH M
ass ou
Ġch ocolate
Ġv iktory
re ase
und u
end s
ĠAn ita
ric ts
he a
ĠAf eez
Ġ5 000
Ġmon arch
Ġuse ful
Ġinter act
Ġ16 0
ĠAl k
Ġrec on
ĠTh ee
ope z
sh ine
ĠCup s
ĠĠĠĠĠĠĠĠĠĠĠĠĠĠĠĠ ĠĠĠĠ
Ġsex y
Ġpublic ation
Ġincre asing
ĠSer ia
ĠMad onna
ĠDen is
Al i
ĠBe ach
ĠAh oada
Ġgun man
ĠLaw makers
ĠPar alym
ĠAF RICA
Ġhol idays
cel otti
ĠMag aji
Ġfact ors
Ġpresent ation
Ġdri bble
Ġlect ure
Ġquar ters
ĠJud ea
Ġcup s
Ġfeat uring
ĠMusic ian
Ġcrit eria
ĠDat ti
Ġsil ent
Am ong
ĠAw ka
Ġ197 6
Ġ197 8
Ġmidf ield
ĠCons ervative
Ġband it
Ġflag bearer
ĠDj ibouti
IM C
Ġx enophobia
Ġloc ations
Ġdev ices
Ġft n
ĠYOU R
Ġabs ol
wed ding
ĠEf e
Ġstamp ede
ĠMom pha
riss y
Ġkourt yard
ĠRos em
ĠVen ita
Eb ola
ĠTrain ing
Ġinstrument al
Ġbleed ing
ĠCav ani
German y
ĠOgon iland
ĠPoch ettino
1 05
1 30
B iya
F BI
I I
L y
O mo
P al
P opular
S E
T w
W ork
g ow
n umz
z am
er z
or is
Ġt ip
ĠS ave
ĠS EC
Ġ20 30
Ġh or
ig dem
Ġr ot
ĠT at
ĠT reat
ĠF otos
ĠB E
ot ing
Ġk ili
ip ple
ĠW ak
Ġ1 30
ĠG RA
ĠG ETTY
ĠH ER
Ġch rist
Ġv o
Ġan oder
ĠR ic
ĠR ule
iv ier
Ġex ile
aw aso
ĠMay be
Ġup side
ub i
ish i
ish ing
eb y
iss ue
ĠMar garet
Ġtrans actions
ĠZ h
ĠZ ab
ĠAl ice
Ġ10 3
ĠTh ough
uss ie
Ġmen opause
Ġprom ises
Ġvisit or
Ġhusband s
Ġtravel s
Th ink
Ġdep rec
AN OTHER
IN A
EN T
Ġinternational ly
ĠOm ashola
Ġac qu
Ch ris
Ġbeg gars
In vest
Ġprof esai
Ġpres erve
ĠPh ill
Ġtw elve
ruit ment
Ġkw orel
Ġcost ume
Ġresearch er
Ġcloth e
Ġexc ess
ĠFal con
ĠVict ims
Ġmis carriage
ĠEconom ist
kill er
Ġwet tin
Ġgener ashon
ĠMagu ire
Any body
ĠTra ffic
Ġwalk ing
ĠRob inson
ĠOt un
Ġcheap est
ĠAch ievement
Ġmer ecin
Ġmanufact ure
Ġritual s
ĠCam ara
Ġbreath ing
ĠAP DA
Ġje j
Ġanc ient
Ġult imate
ĠGian luigi
ĠHO H
Ġrefin ery
ĠVirgin ia
Ġsanitiz ers
ĠCarol ina
Ġhistor ic
Ġcaus es
ĠCov ington
pro of
ĠKwa Zulu
Ġveter an
ĠPharaoh s
Ġsixt een
atak pata
Ġdreadlock s
ECO WAS
ĠKrem lin
igdem ont
B iafra
D ef
F ear
G et
L ead
N e
S m
S ix
c ept
c uff
f al
g n
l ord
p it
u ella
v ia
w et
z aya
Ġw er
Ġs ib
in y
em on
Ġm enses
ĠS amb
st airs
ig we
Ġr aw
Ġr anch
Ġr umor
im age
Ġgo all
ĠF DA
Ġy ist
ĠB order
ĠC ur
ĠC op
Ġk akar
ell ery
ve ill
ĠG riezmann
Ġas ked
ĠH ash
ĠH af
ĠL iquorose
ĠU nd
ĠU TAG
ill as
Ġch annels
gh alu
ant es
Ġknow ing
ob es
Ġbr ows
Ġbl adder
Ġinc r
Ġqu ant
Ġhappen ing
Ġover turn
ĠOb ia
ĠSh ittu
ĠAm p
au f
my r
Ġhead line
be ing
sh oot
ern er
ĠOl uf
Ġchar ged
ĠCor rect
ĠEl vis
ĠBar n
Pr esido
ĠMal am
ĠUN ILAG
Ġrest art
ĠSam ar
Ġform ally
ĠLeg al
red it
No thing
Ġref erees
Ġdraw ing
ann i
ĠBay ana
ĠCom rade
Ġblock s
iam i
ĠEd gar
anz ee
cl ock
Ġkommand ment
ĠMo ore
ĠHuman itarian
ips ey
Ġwiked ness
Ġhy per
ĠAp ostle
Ġorganise d
Ġprosec utors
ĠMa ik
Ġgener ations
ĠBet ween
Ġtish as
ĠCel ebs
rim ent
Ġrap ist
Big Brother
ĠDist ribution
ĠIy ke
ĠUwa vera
Ġsubject s
ĠIDP s
ĠHarv ard
Ġunfortun ately
ĠMari o
Ġdemol ition
min ute
ibu ild
Ġnin th
Ġdust bin
ĠGad dafi
ĠWay ne
otas ide
ĠFa ure
ĠPlat numz
Ġdiscl ose
Ġlabor atory
Ġsurge on
Ġdemonstr ate
ĠWol ves
ĠAtal anta
ĠTro ost
Fore ver
Ġdepart ure
ĠBeck ham
Bring BackOur
Ġclar ify
ĠGir oud
Ġoj oro
Ġmisbeh ave
ĠMord ekai
ĠLis bon
ĠLewand owski
veill ance
% )
' d
6 05
6 06
B J
J akob
M Z
M ik
M ugabe
N E
P ublic
P ierre
T ell
T alk
T iwa
W AEC
Z uma
g ame
m od
t n
w ahala
Ġt ens
at iku
Ġfor um
Ġh es
Ġh ills
id al
ĠM I
ĠM ecca
ĠM inistries
ĠM iami
ĠN ag
ĠN embe
ĠA IG
ĠA IT
im ah
il ish
se ction
ĠF ast
ĠB h
ĠP C
ĠP am
ip ort
ip line
Ġcom ic
est e
Ġre velation
ĠH usband
Ġsh ell
AR I
ĠL iterature
ĠU bah
Ġbo om
ain ting
Ġme ant
rol ler
ap ong
ĠPr et
Ġapp le
ok pe
Ġgr id
Ġle vy
ĠCh olera
med iately
Ġman ifest
ind ependence
ard in
ĠPresident s
Ġout fit
Ġbusiness men
ek ah
Ġbi o
Ġmar athon
Ġinterview s
Ġthat s
ĠSh an
Ġwr ap
adi jah
ĠOl al
ĠOl ur
ĠAss oci
ĠOs ib
atur es
ĠAt aga
Ġsur ely
Ġ11 2
ĠRuss ell
14 5
ĠIb ani
ĠCong ratulations
Ġdist ricts
aba o
Pr ay
ĠMal abu
ĠOr lando
ĠOk agbare
AN O
Ġcheck s
ĠOm isore
Ch ar
Ġheav ily
In f
ĠAy awaso
oph y
ĠDel hi
Ġcry ing
Ġgen u
Ġrain fall
ĠIk oku
ĠMany u
ĠWike d
ĠArt ists
Ġless ons
Sh ey
cl ub
Ġang le
Ġdiscuss ions
ago a
Ġmass acre
ĠTim aya
Ab eg
Ġwish es
ĠLy dia
ĠJo eboy
ĠWild life
Ġnewsp apers
ĠAL L
Ġwa ec
cr iption
ĠSl ovak
ĠSum mer
ĠWeek nd
ibr u
Ġbum bum
ĠMid ian
Ġanalyst s
ĠSk ye
Ġinsect icide
Ġrom antic
Ġregard ing
Bay elsa
Ġtrag ic
ĠSaid u
Ġjack et
Ap ostle
Ġarch itect
fin ish
ĠPharm aceutical
Ġquot es
ĠKag ame
ĠAmr ouche
Oper ation
komm and
ĠGass ama
Ġvul ner
Age ge
ĠHM Os
Ġgoall ess
BigBrother Naija
E ur
H igh
J oy
M usic
M ajor
O lym
T ottenham
Y ear
c omm
d ac
l if
u ed
w orth
on ies
on ica
Ġt umoro
Ġs eshon
in ces
Ġm ace
om ie
it ime
ĠS ai
th at
ĠM E
ĠN AN
ĠN IGER
ĠN PF
ĠA T
il ate
am ation
Ġfr idge
ĠP ele
ĠE agle
ĠC atherine
le igh
ĠW rest
ir oma
Ġ1 17
ch ant
Ġre un
ĠL ind
Ġban ga
Ġpl pol
Ġfit ness
ĠK urt
ul ty
ĠIn security
ap ort
ĠAn ikul
Ġun com
av it
Ġall ocation
ĠCh art
ĠSt oke
ĠDe w
Ġbr a
Ġinnov ation
Ġhand cuff
ĠJu ve
ĠIs ah
Ġstr ent
ict us
Ġ19 57
Ġsc ream
ĠBr enda
ink afi
Ġfight s
ĠAm os
ĠAk an
Ġreal ize
ĠOl orun
Ġcontain ing
Ġshoot ings
Al ready
... '
Ġheav ens
ĠBab ag
ĠCl ick
ĠJer iko
Ġexam inations
Ġgeneral ly
ajo el
ellow ship
ĠFrench man
Ġsurp rising
ĠChukwu emeka
ĠOsh oko
ĠBam ako
ĠChin edu
Is lamic
ĠJe z
ĠEv angelist
Pl ay
ĠKar im
Ġtour ists
Br uce
ĠDia w
Ġclash es
ĠBad jeck
Ġfeed ing
Ġdeterm ination
Ġchem istry
ĠSteph anie
Ġkp atakpata
Le vel
Ġboost er
ĠSant iago
ĠVill arreal
ĠAgy apong
ĠConc ert
ĠKidn appers
ĠBrig adier
Ġrenew al
Ġeduc ational
Ġstream ing
Ser ena
ĠRah eem
uah ia
Har court
Bay ern
ĠSid on
ĠBreak ing
ĠPeters burg
Ġced ar
Ġbele ful
ĠNke chi
Jen esis
Vict or
call ed
ĠRans ome
intend ent
Ġri ots
ĠOmer uo
leh em
adis hu
Ġkakar aka
ĠPret oria
okpe a
ĠAnikul apo
A K
B ased
D Y
G old
H IE
M AN
N engi
P ikin
R un
W i
W AP
b elle
b irth
d an
j in
k en
p oc
r ina
s av
w aka
y m
Ġd yn
on ge
on iyi
or u
Ġf old
an an
Ġw are
Ġs add
em o
Ġm ode
ĠS elf
ĠS ON
el d
ĠM ort
ĠN ur
ber e
Ġr ibuild
ent anglement
ĠO L
ĠO do
Ġin ches
ĠV enezuela
ĠP ow
ĠE P
ĠW akanda
ĠJ imi
ag wu
ĠH oll
ĠL abor
ĠL eta
Ġthe ft
ab ba
ĠK yr
ov an
ul un
ĠR ico
if ren
ie ves
Ġlo gin
ĠAn celotti
Ġun p
ĠY et
Ġso il
ĠAb o
Ġread er
Ġcont acts
Ġatt orney
ĠZ ur
ree k
ĠFor wards
Ġopen er
Ġdec amp
af uka
ĠSh ak
ĠSh inkafi
ole imani
uk o
ĠId iot
ĠOn line
ĠNor wich
Ġhon bol
Ġind irect
Ad ha
Ġform ula
Ch ad
Ġbeg ging
ĠAg reement
ĠTe ju
acc ine
ĠProf essional
Ġpres ently
Ġcontr ary
ĠIk wun
ĠMo esha
Ġdiscip linary
Ġbar ber
ĠAkp an
ĠMart ial
umb ent
Ġsteal ing
Ġ196 3
ĠAde ola
ĠUm uahia
ĠDam ask
ĠJacob s
Ġathlet ics
Ġsuc k
Ġdipl omat
Ġlegend ary
Ġbrand s
CH ub
Ġmus ical
Ġsecession ists
ĠEti had
ĠMir acle
ĠTransport ation
rel ated
ĠGala xy
Ġtatto os
Jose ph
Ear lier
rac ist
ĠOv ie
Ġsmugg lers
ĠIdent ity
ĠOmoz okpea
ĠRegist ration
Ġhairst yle
ĠChap el
ĠCoff ee
ugged man
ĠKaj uru
Ġvin eyard
ĠCra ig
ajoel ina
ĠIkwun ado
A H
B al
B ukola
G and
M el
M uh
M ourinho
P V
U PP
Y O
b at
l ain
p an
p olice
t oday
Ġd ys
Ġd abar
Ġf est
en if
Ġfor th
ar in
ĠS at
ĠS wa
ĠD owen
ĠN IGERIA
Ġr ivers
Ġr ites
im m
ĠT omm
ĠF ingers
ĠO ng
ĠV ers
ĠE ilish
Ġ1 22
ĠJ ason
ch t
ĠH un
Ġsh ief
ĠL C
ĠL iam
ĠL aban
ast a
ill ing
ill iant
Ġcon sec
ĠIn i
igh th
igh ters
Ġj apa
ĠAn alyst
ĠDi k
01 2
he alth
Ġ4 000
Ġall awee
ĠAf CFTA
Ġor al
Ġev rit
og og
Ġbr ag
Ġbr ought
do or
Ġcont rib
iz za
ĠĠĠĠĠĠĠĠ ĠĠ
ĠAl o
ĠShe ff
ĠBr o
ank u
Ġwant s
of o
eg ui
af ter
"" ."
Ġprom inent
ĠPl astic
ĠPl ane
Ġreturn ees
Ġshoot er
Ġsit uations
Ġ26 2
co al
Ġexper iment
chi at
ĠChief s
Ġnom ba
ĠCom merce
Ġel ements
Ġpoor est
Ġint ens
Ġcomplain ts
ĠDirector ate
ĠX I
Ġchief tain
Ġimm oral
ĠEs si
ĠRec ording
Ġpublish ers
Ġlit res
Ġhang over
ĠJew s
ĠHel icopter
akob a
ĠIgb os
ĠDom in
Ġcongrat ulations
Ġdeclar ed
ĠVol ody
ĠEt ebo
ĠSupp orters
ĠSupp lementary
ĠStar boy
ĠSah el
Ġnut s
Ġcoc oa
Ju ventus
ND DC
ĠTrad ers
ĠThank sgiving
ĠSel assie
ĠAven ue
Ġje je
ĠMO BO
aq r
Ġnegoti ations
ĠKyl ian
ĠPu igdemont
Ġimpress ive
ĠBuck nor
Doct ors
Gl obal
Ġbodygu ard
Ġcouncill ors
Ġdign ity
ĠSmoll ett
ĠCorinth ians
ĠSina i
Ġine quality
ĠNut rition
Ġunderc over
Ġpurch ase
ĠWu ogon
Alh aji
elim inary
Ġcir cle
Ġdabar u
ĠEssi en
C ity
D oz
D ifferent
M us
R Y
T er
V ice
f are
m us
s m
s in
s un
s us
t em
Ġ ip
Ġw onders
Ġb ell
en u
Ġfor t
em outh
ar is
ar aba
Ġn u
ĠS up
ĠS ik
Ġh ub
et egui
ĠM ig
ĠD A
ĠD ays
ĠD ouble
ĠN ERC
ĠA rik
Ġl ov
Ġl osing
Ġe g
ĠI an
ĠI ta
ĠO K
ĠO wn
Ġth ieves
un y
ed ule
ĠB eh
ĠV ID
is d
Ġfr ustration
ĠP om
ĠC u
ĠC ee
Ġk it
ĠW isdom
ĠW eti
ĠG ib
ag en
ag og
ĠH old
ĠL ille
ĠL anre
ori se
Ġab ort
Ġher ders
ĠR ut
ĠR aph
ial ogue
ĠPr oducers
ĠAn ne
ik ate
fore ver
Ġag riment
ĠSurv ey
Ġse qu
Ġen k
Ġlaw ful
Ġhand over
ĠMar ine
Ġtrans parency
Ġ7 000
ĠAr in
Ġattack er
Ġcomm a
Ġ10 4
ĠTh ess
ĠBr ad
ĠMan uel
ourn emouth
Ġdef ine
ĠAng lican
ĠDr unk
Ġsur veillance
ĠSp acey
ĠPl aces
Ġbreak fast
ĠInd ustrial
Ġsl im
Ġph r
ĠCo al
net t
End Sars
ĠMess iah
AP T
ev ritin
ĠDon etsk
Ġproper ly
urb an
ĠLion ess
ĠLion heart
ĠPri yanka
att an
erv ing
Ġlaugh ing
Ġdeadi body
ĠOke zie
ĠLim be
Ġexpose d
Ġdeport ation
Ġbow el
Ġdisqual ification
Le icester
Ġowners hip
Ġer ror
Sp ain
ibr ary
ĠPop oola
ĠGw ag
Ġprosper ity
ĠReturn ing
ĠExper ience
ros oft
ĠIsh mael
ĠPhoto grapher
Ġult imat
Ġadjust ment
Ġpig s
ĠAdet un
ĠOmoz uwa
wer re
ĠDari ye
Ġinfluenc er
ĠCitiz en
Ġjew ellery
Ġbon us
ĠTch iroma
Ġcath edral
ĠJem ima
unicip al
Wakanda Forever
ĠBapt ist
accept able
nag ogue
ĠMog adishu
ĠSeria ke
ĠSlovak ia
ĠVID EO
H om
J ac
M W
M ercy
M edia
S audi
W atch
W estern
Y outh
b ele
h rs
v et
x ican
an im
Ġs ail
Ġp odcast
en ary
Ġc age
Ġn ar
ĠS et
ĠS ask
ĠS oleimani
Ġto b
id jo
ĠM ap
ĠN HS
ĠN kongho
ĠA er
Ġr iders
Ġl oving
ĠT ah
ĠT ayo
ĠT ema
ĠF ew
ĠF iona
Ġin mates
ĠB ole
ĠB enson
ad am
as c
ĠJ ed
ch urch
ag ry
ĠH as
ĠH ail
AR Y
ĠL ing
ĠL opez
Ġban ner
Ġch ef
Ġan alyse
ian ts
ĠK oh
ĠR ud
ĠR ib
gh ai
up ol
ak w
Ġwor ri
ĠAn ger
ĠY em
ĠY inka
Ġcar bon
Ġen h
ĠJun ction
Ġcl one
Ġinter sex
ĠMar tha
ĠAr rest
ĠAl leg
Ġ19 56
ĠAs iwaju
ank s
ĠEm man
Ġadd ed
Ġnot ify
ĠHe f
ĠCor p
ĠAll i
Ġdes k
Th ings
Ġrecord ed
ĠSe ver
Ġob vious
wh at
wh ite
ĠOm okri
red i
sw er
Ġaccount able
Ġproc ession
ĠCol on
ino is
Ġpriv ile
58 8
Ġprost ate
raz z
ĠBurn ing
Ġclass rooms
arm ament
Ġindepend ently
Ġenc our
Ġmarch ing
Ġresident ial
ĠWin ners
Ġchair men
ders field
ĠOgb uja
Ġcour ses
Ġdisqual ified
ĠEvery body
ĠBol ivia
ĠPass engers
ĠBak ary
Ġloot ing
ĠKor int
Ġteen agers
han ire
ĠGreen land
ĠTour ism
ĠKidn ap
Ev ri
Ġorganiz ations
Ġther apy
ĠRodr igo
ĠRo ads
ĠOluwat oyin
Des pite
Ġbuh ari
Ġventil ators
Ġsoci o
ĠColumb ia
Ġprophec y
awat ts
ĠDoug las
anth rop
Ġadvoc acy
ĠEcc l
ĠObser ver
ĠLop etegui
Ġigb ese
stor ey
Ġenk ourage
G ambia
I ran
L assa
T otal
U se
W N
Z amfara
d iv
f ly
f amily
g IT
k omot
m ind
n s
n ik
n old
s ah
t w
u an
w ase
y k
Ġt issue
Ġb ible
Ġb ipolar
Ġc ert
ou h
it ikus
Ġg ala
ĠS ampson
and ans
Ġto h
Ġh ood
id ele
ĠM w
ĠD y
ĠD aw
ĠN wa
ig ail
il o
ĠT ij
Ġdon ations
ing o
ĠF i
ĠF ac
Ġy ards
ĠV GMA
ĠP ub
ĠP ath
ĠP ara
ĠC DC
ĠC uba
Ġk its
ell ion
ĠW ad
ĠW ise
ĠW AT
ĠJ oin
ĠJ afar
Ġwe ave
ĠL aura
Ġbo ko
Ġch imp
Ġv andal
ab ilities
ĠR ai
ec essary
um in
other apy
Ġdr aft
her dsmen
Ġkon cern
Ġbut t
ose a
ĠAb imelek
Ġen voy
Ġsp ots
amp er
ĠTr ip
Ġstr ugg
Ġcomm end
Ġexpl o
Ġmin ors
ĠSh aron
ĠAm alek
Ġsmall est
Ġbring ing
Ġ15 7
Ġcho ke
gy z
Ġ0 8
Ġfear s
ĠEl oz
Ġind ustries
ĠGu y
ĠAh idjo
ĠEx co
Ġref resh
Ġeconom ies
ĠSal z
Ġdead ibodi
Ġgoals cor
ĠReal ity
ĠMich el
Ġint ensive
ev ri
Ġdoll s
Ġcan al
Ġsan itation
ĠJud as
ĠKh an
ĠMil ey
Ġmonitor ing
cons cious
ĠAgb akoba
ĠChib u
Ġphys ics
Ġbear er
Ġkom plete
bah u
Ġmet ers
Ġwind ows
Ġcrow ds
Ġflow ers
Ġtoil ets
Ġscient ific
Ġchalleng ed
Mad agascar
ĠTra ore
Ġsubs c
ĠVal ue
Ġloot ers
Ġque ues
ĠMadu agwu
Ġsurviv or
Ġhorn s
ĠTy re
afa ar
Ġfert ility
ĠCitiz ens
Ġreconc iliation
Ġpostpon ement
Ġvend ors
mil ayo
Ġven om
ĠClaud e
ĠGibe ah
Ġhab it
Ġast h
child ren
ĠMU RIC
Ġaccom pl
Conc ert
Ġgor illa
Ġinterrog ation
ĠOgbon na
ĠRober to
Ġori entation
ĠBald win
Ġwif es
ĠAmend ment
Ġjej ely
ĠSamb isa
Gand uje
ĠVolody myr
A I
D S
J apan
K I
M P
M ac
N y
N atal
T ogo
W ike
Y or
d al
g eneral
h aba
l angu
m u
m atch
n ect
s ur
t v
u ber
Ġ 05
Ġd ese
on ut
or able
or gan
Ġf le
Ġt v
Ġm akes
Ġg ig
Ġg um
Ġg iants
ĠS aw
ĠS anda
id ance
id eration
ct uary
Ġl orry
Ġgo es
ĠF e
ĠF ACEBOOK
ep sy
ĠO G
un da
ed ly
ĠB O
ĠB REAKING
ĠP enal
ip h
Ġ1 13
Ġ1 11
ĠJ oker
ĠG ary
Ġpass word
ĠK oto
ĠK orn
ĠR ank
Ġtr igger
ĠPr ay
Ġpost ers
Ġ( ""
Ġun con
ĠY v
ĠY un
ug by
ĠAb ner
Ġres erves
ob il
Ġsp ent
are al
Ġtrans plant
ĠAl fa
Ġfe ada
con clusive
Ġcomp ass
Ġfind ing
ress ive
af ta
ĠNo thing
Ġco operation
ern al
ĠOl ivier
ĠInd imi
Th ird
ĠEng r
tal ion
ĠGu ild
AN A
ph y
Ġinf act
Ġdraw s
ĠJer emiah
angu ard
ĠJon ah
Ġdevelop ing
ĠSan woolu
ĠJud gement
ĠBel gian
ĠCar abao
UN D
UN ICEF
enn es
ĠAre tha
trod ushon
Ġmigr ate
Ġcop ies
sy chiat
Ġ197 2
ĠFrancis co
ĠPre cious
Ġver ification
ĠIgh o
Ġdisturb ing
Ġmiddle weight
Ġarrangement s
ĠAz eez
ellig ent
fr ey
thod ox
Fr ank
ĠAndre a
ĠShek em
ĠMadu ka
Ġachievement s
Gr oup
ĠDa Baby
ĠCass es
Ġwarri or
Ġtail or
Offic ials
Ġgent le
ĠZak ari
ĠMkh ize
ĠLal ong
ĠSpokes person
unn u
ĠBirth day
Ġug ly
Sol omon
ĠHundred s
Ġran ked
ĠOlay inka
ĠZech ariah
ffick ing
enif ere
Ġultimat um
razz av
H Q
H R
O das
S upreme
T U
T ra
U FC
a ija
a eda
b ur
b ie
g reat
m ain
s ars
Ġd ur
er ebr
Ġf um
Ġw al
Ġp p
Ġp ap
Ġp anc
em ark
Ġm ah
Ġm eme
al if
Ġg hetto
ar court
Ġn aso
ĠS ak
Ġto ol
st ick
ĠM uss
ĠM MA
Ġl ai
ĠT able
ĠF oster
am ola
Ġth under
un ction
Ġ2 56
ĠV ir
ot ton
as u
ĠP o
ĠE se
ĠJ afaar
ĠG P
Ġwe ed
ter weight
ĠH l
ĠH ass
ĠL ak
22 2
ĠR achel
da vid
ri ot
ak ye
ĠPr ohibition
ach u
00 27
ans i
Ġup hold
ĠAf DB
ĠAf enifere
ffect s
Ġcar etaker
ĠAb igail
Ġsp ell
Ġcl oud
ock s
Ġ6 000
iz ing
ĠZ anu
ĠUn til
anc a
ĠAl ong
ĠAd er
Ġfe ast
ĠNov ak
Ġ9 00
Ġsend ing
Ġown ed
Ġrem atch
Ġhin t
ĠRe venue
gb a
per ial
Ġwar ming
Ġconfam ed
Ġblast s
ĠOn top
keep ing
Ġass ociate
ĠIb n
Ġlocal ly
ef i
Ġcent ers
Ġ25 4
Ġprop ag
Ġfall ing
ĠMal ach
ĠMal aye
Ġsl ide
Ġamong st
Ġorgan iser
bab y
ĠBe er
Ġhonour able
Ġsusp icious
Ġcons ume
ĠOm ah
Ch ibok
ene zer
Ġexp osure
AS E
Ġdead liest
no body
joy a
Acc ra
Ġrob ots
Ġfact or
Del ta
Ġcover ed
PO ST
Sh atta
ĠDE Y
Ġrefer ence
ĠGl obes
ĠOp oku
ĠWin nie
rew aju
Ġ197 1
ĠPal mer
OU F
ĠAnn ie
CR C
Ah med
Ġcult ists
Ġmem ories
Ġnetwork s
ĠRel ig
ĠEst ha
Le ah
ĠGO AL
uy i
ĠPs quare
Ġstab il
ĠPrison ers
Ġton da
Ġbit coin
ĠChampionship s
oooo oooo
Ġpromot er
Ġsomet aim
Ġchamber s
ĠKidn apping
ĠJama ican
Ġwitch craft
ĠDev il
ĠCorn wall
Ġwid ely
Sc ient
ĠEp stein
Ġinspect ion
iak im
ĠIll inois
Ġinitial ly
Ġadminist rative
found er
Brazil ian
Ġwrest ling
ĠCrime a
Abd ul
Tun isia
ĠHR W
Nob odi
ĠMana ouda
Ġinqu iry
Bey once
Ġsynd rome
ĠQur an
Ġmistaken ly
Ġbrows er
Ġvulner able
ĠKyr gyz
Ġtob acco
ĠSalz burg
razzav ille
erebr al
3 50
C y
C el
H mm
K am
M art
M ama
O do
O GO
S araki
T im
c ul
d ress
h oly
l s
r ari
r ele
t ill
t iff
Ġ ive
Ġf etch
Ġw otaside
Ġs kip
Ġs orrow
in imbi
Ġc ane
es co
om ba
Ġg on
Ġn anny
ĠS end
ĠS ob
ĠS kill
Ġh am
et ics
ĠM obile
ĠD ood
ĠD STV
Ġr ad
ĠI wu
ĠT on
ĠT ab
ĠT ower
se ven
ĠB es
is an
as ai
ĠP ab
ĠC iti
ĠW I
ĠW BA
od ak
Ġ1 21
Ġ1 25
ĠJ ak
ĠG ot
ĠL ar
ĠL ab
ĠL isa
ill es
Ġch ai
ĠK izz
ĠR O
ĠR angers
ĠR ajoelina
Ġme hn
ec ent
Ġpost er
Ġlo ans
ĠY ouss
ĠCh ang
Ġmed ium
Ġbut ton
Ġag b
election s
oun ter
ug ust
ĠAb el
ĠDe gree
Ġsp aces
Ġshow er
Ġinter ior
iz io
ĠZ er
ĠUn like
ĠTr inity
Ġstr ain
oup o
Ġcomp oser
Ġlast ing
ĠOb aze
ĠAm ber
ĠAm adi
ĠAk a
Ġ12 6
Ġann oy
rik er
ĠAnd roid
ĠAng u
ĠRes cue
ĠSp ot
Ġ24 5
Ġ17 0
rah man
Ġmess enger
augh t
ĠSar r
Ch urch
ĠTol ani
Ġsw ord
ĠBab cock
ĠAbd oul
ĠAmb azon
Ġeight een
Ġsin agog
te en
Ġcust oms
ĠGe or
Ġgen ital
ploy ed
On line
Ġgold en
Me xico
Ġsharp ly
ĠArab ic
Ġfound ashon
Ġkl imb
ĠKh loe
ĠBill ie
ĠGl as
ĠSim ple
ĠMb ah
Ġclos ing
ĠTun ji
ĠAdv anced
ĠBos nia
Ġbapt ism
Ġabandon ed
cr iminal
Ġbri bery
Ġreb ellion
ĠRem o
Ġexist ing
Ek ong
Ġprepar ations
Ġharm ful
ĠBah oken
ĠEgb a
ĠMot ion
Ġarm our
ĠBrig gs
ĠIM F
RI MA
Ġbom bs
ĠMari upol
Ġmenstr uate
ĠSAN OGO
Dec ides
ĠNAS A
ĠCos by
ĠDari us
ĠPR ES
Ġmeg awatts
ĠCS KA
War ri
Moh ammed
ĠRaf ael
ĠPel osi
ĠAry a
Ġexecut ives
Ġspl it
ĠISS OUF
Ġsib lings
Ġincr ement
Ġquant ity
A tt
C ountry
F M
F it
F ollow
H U
H ad
H ope
K ogi
L ive
M SME
M ens
R w
R ock
S w
S ound
S ani
b etta
c opy
d ifren
g t
k wo
l ow
m aster
p adi
p olic
r oot
s ign
w y
Ġf ab
Ġw ings
Ġt ensions
in ing
in ance
at eral
Ġc ensus
em ics
Ġm ugu
ou k
om y
ĠS ack
ĠS now
ĠS occer
Ġh aw
ĠM ata
ĠM ummy
ĠN i
ĠN ice
ĠN WC
Ġr appers
Ġl ane
ent ials
il ah
ĠI CRC
ĠT UC
ĠF ul
ĠF irm
ĠB I
ĠV ar
ĠE hanire
ĠC R
ĠC isse
ir ector
ir teen
ĠJ amb
ĠJ JC
us ual
ag ic
ĠH unt
ĠH enshaw
ass i
ass ies
ian ca
Ġwh ale
Ġab uja
ĠR ann
Ġj aw
ĠPr ice
ĠPr act
ĠPr incip
ah u
ant al
Ġcar n
ĠAb udu
Ġfir ear
Ġbr own
Ġhand shake
ous sa
ek o
ebr adik
ĠUn ions
ĠUn iport
ĠAl ber
ĠAl aska
Ġinc umbent
Ġ10 8
Ġsc reenshot
nor mal
Ġconf ession
Ġcr ay
Ġcr ase
Ġover d
ĠQu iz
Ġrem ark
Ġrem ote
Ġper sec
Ġper pet
ĠAm a
ĠRe form
75 0
uk oya
sh asa
Ġdef amation
ĠDr ag
ĠDr aw
ĠGr ow
Ġass ists
ef ele
IN E
ĠUN ESCO
ĠMe xican
Ad ua
Ġcons ervative
Ġcons ideration
Ġsw ine
Ġperform ing
Ġtrad emark
ĠAS P
ĠOy ekan
Ġgl oves
ĠCom ed
Ġsub mission
ĠFl ag
58 4
Ġsn ub
Ġadm in
Ġkomm unity
anz a
ĠJud iciary
bu y
ĠMac ar
Ġed it
ĠAny tin
ĠEs s
TH E
uw an
Pl an
ĠHam an
Ġpract ices
ĠPal estin
Ġextra ordinary
Ġver dict
ĠBet a
Ġcritic ism
ĠLead ership
Ak por
ĠPolit icians
king dom
ĠNO T
Ġkwesh un
orth arcourt
Ġlif etime
PL F
ibr il
ĠSa if
__ __
Ġfem inism
ser ious
Ġng ata
Ġcann abis
ĠBat ibo
ĠBass ogog
Ġvac ant
Ġhistor ical
ĠKem ebradik
Ġreconc ile
Ġattach ed
ĠMarsh al
oty pe
ĠTit us
Dep uty
ĠSod om
ĠBash an
Ġrecip ient
Ġconstitu encies
Ġadul tery
ĠThom pson
ĠDah iru
ĠYen agoa
ĠSheff ield
ĠHef ner
ĠKemebradik umo
1 25
H N
H is
H arry
H BO
M ov
N AN
O TY
R eg
S i
S pe
b ee
b est
b ai
e ze
g l
m oon
p in
p age
p riest
r odi
v isa
y d
Ġf et
an oon
an mar
Ġs el
Ġb ake
en eg
Ġc am
Ġc ats
Ġg amb
Ġn it
ĠS alkida
Ġh iding
el ight
ĠM igration
ol ayan
ĠN IN
ĠN joya
ĠA B
Ġr ut
im me
il ekan
Ġdem ons
ĠT ertiary
ĠF ool
ĠF east
ĠB oot
ĠB ert
ĠP f
ĠP olly
ĠC urrently
ĠG arden
ut en
ĠH ugo
ess a
Ġbo oth
Ġch ronic
Ġpass age
oc ese
Ġtr emor
ĠIn iesta
igh ter
end arm
Ġj ets
Ġun acceptable
ue z
Ġgr ade
ĠSt art
ind y
Ġsqu eeze
Ġsp it
Ġent it
iss on
Ġoff ender
ĠJu an
ount ain
Ġser mon
Ġqu anta
ĠTh ese
ĠBr and
eg ba
Ġrun ners
Ġ12 4
Ġmen erz
osp here
Ġ14 7
ĠAt ta
Ġprob ably
ĠEl la
vent ions
ĠBar ak
tal i
ĠEn itan
ĠOr ig
ĠOk unnu
AN C
AN K
ĠAh ly
ĠEx odus
Ġhope fully
ĠEk ong
ĠEurope ans
Ġeconom ist
ĠSal i
Ġtrad itions
ĠFI BA
Ġtw er
ĠMag odo
ĠEd win
Ġcost s
Ġpreach ers
Ġrain y
oud ou
str ual
ĠIk werre
ĠIr u
ĠOrgan isers
Ġemb assies
ĠChurch ill
ĠPan ama
ĠAkin t
ĠEv ri
ĠAdeb ayor
ĠIke ji
Ġcolour s
Mar ch
Ġscr ipt
ĠCount ries
ĠLu x
ĠRem embrance
ĠSm ile
ĠCy clone
ĠEle cam
ĠIj esha
ĠSym ph
Ġcoc onut
Ġir ia
ĠMath ematics
ĠSel ena
ĠSemen ya
Sec ond
ĠMaj ek
ĠSold ier
happ en
ĠHom eland
Ġproph esy
ĠEngine er
Ġcircumc ise
VE MENT
Ag ain
Ġpharm aceutical
ĠBle aching
Ġdaw g
ĠKach ikwu
Ġorphan age
Ġpresid ing
Ġtransf ers
Ġscen es
ĠOlan rewaju
Ġasth ma
ĠOyekan mi
endarm es
, ''
1 20
5 21
C ristiano
F P
F amily
G N
J a
M ary
O z
T om
b eck
e qu
f ere
f athers
f ailed
h igh
l ana
s or
s ell
t est
Ġ ib
or us
an ian
at us
Ġb out
Ġm erc
al d
ĠS ick
Ġ20 25
Ġto ast
Ġh av
id an
et ry
ĠM ol
ĠM ase
ĠN iyi
ĠN ATO
ĠA ta
ĠA rd
ĠA DP
ĠA head
il ia
il ade
ĠT aps
se ason
se bs
ĠF as
ĠO prah
ĠB A
ĠB ase
ĠP ad
ĠP ip
ĠP overty
ĠE FL
ĠC AS
Ġk ub
Ġk lear
Ġdis band
ĠW ard
ĠW abba
od ore
ĠG re
ĠG up
us rat
est ock
Ġpr in
ĠK ain
ĠK ari
ĠK ante
Ġher ds
Ġher itage
ak s
iv o
Ġj ury
av ia
ah ili
Ġup stairs
Ġbec oming
ub or
ub born
eb an
pl ane
ĠMar athon
ĠZ im
ĠIs ha
ĠTr ent
Ġ19 17
Ġcarry ing
ĠAir bus
les i
Ġpol es
ĠSh un
ĠSh ime
.. .""
"" )
ĠAm osun
ĠAm adou
ĠAm artey
ĠBig brother
ĠAk w
sh in
amm ad
Ġstrong est
ĠInter vention
Ġlet s
Im o
Ġimport ed
Ġsal v
Ġsal on
Ġprov isions
ĠMus bahu
Ch amber
sw at
no op
arr ow
ĠBo az
ĠItal ia
yr s
ĠNw ak
ĠReg gae
Ġimpr ovement
St and
cl ass
Ar gent
ĠNg am
ĠAny time
ĠEv ry
ude au
Pl ateau
ĠJul ie
Ġbar b
Ab raham
Ġsym b
apt ure
anch ise
sec ond
Ġcolon ies
ĠUz or
Any time
writ ing
ĠFil ip
ĠEvery thing
ĠVer onica
ĠConf am
Ġamend ed
fortun ately
ĠVill areal
ĠBil ly
ĠInf lu
omet ri
ĠAM VCA
ĠTre as
akh stan
Ġfre qu
ĠPriv acy
ĠAdew ole
Ġentertain er
ĠBag udu
Ġdefin ition
ĠEngine ering
ĠMav in
ĠTed dy
ĠHud dersfield
Gun men
ĠTos yn
Ġrehab ilitation
ĠHydro xychloroquine
Ġmisunder standing
Ġcerv ical
Ġmargin al
Ġantibiot ics
Ġrand om
ĠBabag ana
Ġgoalscor er
ĠTaps oba
sebs i
6 13
C ong
E X
F ind
G b
L as
P H
Y e
Y emi
j at
k l
l sh
m ay
m ass
n as
p our
s ong
Ġd ad
Ġs ne
Ġs ars
Ġp ills
Ġa pr
Ġfor ge
Ġm artial
Ġm tschew
Ġn od
ĠS ign
ĠS earch
ĠS HS
Ġo w
Ġto xic
ic io
ĠM ako
ol or
ol ie
ĠD apo
ĠN im
ĠN ipsey
ĠA ur
Ġl ocate
Ġl ength
Ġl iqu
il ome
ĠT ari
ĠF on
un til
Ġy e
ac ulate
ĠB ournemouth
ad ok
as er
ĠP OL
ĠC ed
ĠC ases
Ġk aya
ve h
ĠW ait
ĠW aje
ĠW erner
ĠG ender
ĠG iwa
ut ing
ĠH ijab
Ġsh ain
ĠL ip
ul in
ĠR uggedman
ec onom
um ere
Ġpat ernity
ri z
ĠY o
ant ify
ĠCh antal
eb a
Ġbl ank
Ġoff ensive
Ġport ray
pr ost
ĠTr udeau
ĠAl v
Ġ19 0
ang le
ank o
Ġcr ipple
ĠEm peror
ĠSh em
ĠSouth east
wa i
Ġpay ing
ĠWorld wide
ĠAk h
Ġfl ush
gb e
per ance
sh ock
ger ian
ale ke
ĠOs u
ete en
Ġallow ances
Ġear s
ĠCourt ois
Ġever iday
Ġsl ip
ĠOr ange
Ġsleep ing
ĠOk rika
Ġfore x
Ch ild
ON E
ĠGo je
Ġadv isory
ĠAy efele
ĠMy anmar
ĠSal man
ĠBo akai
ĠCol lect
Ġfact ion
Ġdeb ates
ĠUg wu
ĠChar ter
St ory
Sh i
ĠMaur izio
ĠDeb y
Ġplant ain
ĠTer m
Ġ196 2
sp ace
ĠSil ver
you ng
ĠWith out
ĠIgb oland
aa aa
olas araki
Ġhero es
Every thing
Bar rister
ĠAth letico
Ġmethod s
ĠTak am
ĠKal idou
ĠOlu wo
ĠKhal ifa
Ġcompens ate
akh ilome
Ġobject ive
Ġextrad ite
Ġprovid er
ĠSerge i
Ġment or
itary an
Ġsheet s
ĠNav al
Fl ood
ĠKel vin
wal ada
ĠHuss le
ĠTrav is
ĠBin ta
ĠPon le
ĠQue ens
Ġmirak les
Ġles bian
Ġmol est
Ġpilgr image
Ġaft anoon
ĠYas uke
ĠSit uation
Ġatm osphere
ĠCirc uit
ĠZh ang
Eur ope
APT IP
Ġcarn ival
uten ant
Argent ina
A sh
B us
C S
D J
D U
F at
F ifa
H en
L S
Q u
Q aeda
R esident
c as
c ard
c urrency
d d
d og
k ata
m ah
o en
r l
s ave
v ement
w alk
Ġd are
on am
Ġw ool
in um
at as
Ġp uff
20 00
Ġg ardin
ar ma
Ġn ets
Ġn amed
ĠS eme
st ars
ic ing
ĠM ental
ĠM oussa
ĠD ag
ĠD ark
ĠA gr
il epsy
ĠT anz
ĠF ada
ĠO AP
un ike
Ġ2 22
ot on
ĠE h
od le
ĠJ AY
ĠG ermain
ver ly
ĠH ost
Ġsh all
ĠU de
Ġpl enary
Ġv ibr
ĠK aty
ĠR im
ĠR ural
ĠR asheed
Ġtr oll
up s
qu ah
Ġtim eline
Ġun usual
aw ole
Ġdr ought
ue jide
ik at
ik unle
Ġ4 50
ĠCh idi
ĠCh oupo
ud een
Ġsome bodi
Ġag ed
uel egba
Ġgive away
ĠSt or
Ġbuy ers
ard on
Ġbr ush
Ġbr illiant
Ġif yu
Ġnow adays
Ġhim sef
ĠZ onal
pr ot
Ġ16 7
Ġhel pl
Ġ19 22
Ġ19 18
Ġ10 9
ĠTh ink
Ġcor rid
ich ai
Ġcomp uters
Ġcr uc
ĠEm zor
ĠSh arp
Ġgradu ating
ĠHe aven
ĠBen nett
ĠId i
ons ider
ĠOl at
Ġ0 4
ert ility
Ġ13 6
ode ji
ĠGr ay
Ġass ume
Ġimport s
Ġprogram s
ĠDen nis
Ġsk elet
ĠGu cci
ph oid
ĠAh az
Ġ28 9
ĠPap ers
Ġins pector
ĠAy an
ĠBab alola
Ġpres ide
lam ide
Ġtrib al
huk u
ĠHer o
Ġeng aged
Ġprocess es
ĠDon key
ĠIk ubor
ĠNy ame
Ġrisk y
Ġinvol vement
ĠOgun s
ĠReg ulatory
anger ous
cl osed
ĠLiber ation
ĠLiber ty
Ġstadium s
UN A
Ġshame ful
Ġlegal ize
Ġpercent age
ĠJul en
apt ip
ĠTer anga
Dr ink
ĠIt unu
Ġpil a
Ġcult ures
hold er
Ġocc as
RE SS
Ġak uiz
char ged
ĠAC HIE
Ġdev ast
Ġfavor ite
ĠFer rari
Ġmir ror
Ġsens it
iab ility
Ġsomet ing
bin ism
ĠReturn ee
Bur undi
akh tar
Ġfre ely
Ġfre estyle
Ġinspir ed
Ġce iling
ĠFab ian
resp ons
Ġproceed ings
Comm ission
cal m
Ġment ally
ĠTamb awal
ĠPu erto
Ġpostpon ed
Ġvend or
ĠMur phy
ĠMarsh all
Us man
ĠExpress way
Ġbelie ved
ĠIrish man
ĠShua ibu
Research ers
Ġelim inate
ĠSpace X
ĠFle aqr
Ġans as
ĠDoc ument
Pen arity
Ġkilomet res
Ġgenu ine
ĠDamask us
anim ous
ĠEmman uella
Ġfet ish
ĠPf izer
ometri osis
5 38
C ross
J une
L uke
M ember
M ilitary
N S
N AS
N EMA
O w
R IP
S old
U efa
c m
e ke
f ind
f ood
k or
m outh
o ise
r as
t imate
u er
z ah
er ved
Ġf iles
an ne
Ġw owo
Ġp aste
Ġp irates
en za
Ġfor gery
Ġg ad
Ġg endar
Ġg endarmes
ar ika
ĠS ot
id ad
ic y
ic it
ĠM omo
ĠD ion
ĠD ub
ĠD banj
im bo
im pe
Ġl ashes
ĠI BB
ĠF DI
ed onia
Ġy ama
ĠB oun
Ġst ubborn
Ġbe es
ĠC re
ĠC ob
ĠC BS
ĠW WE
ĠJ ib
ĠJ nr
ĠJ ussie
ĠG U
ĠG yna
ag i
ĠH ub
ĠH ush
ĠH ibru
Ġpr izes
ĠL I
ĠL ic
ĠL ud
Ġch ains
Ġwh eat
ĠR um
ĠR oots
um es
up a
ĠPr op
ĠPr oc
ok un
ok ers
ah am
ach ael
Ġgr av
Ġle agues
ĠCh acha
ud i
ĠSt ef
uit ar
ĠJos aya
Ġhe els
Ġres cu
og ram
Ġinn er
Ġinter state
amp s
bo ys
Ġsc atta
Ġcor per
con tin
ĠBr onze
ĠDis armament
Ġi OS
Ġadd ing
sh ot
amm a
lud ing
ĠOl ug
ĠCor porate
uf rates
Ġset s
Ġbreak away
Ġinst ant
Ġind icate
Ġind igenous
ĠSe idou
Ġmarket ing
ĠGov ment
Ġsk irt
Ġmiss ions
ph as
Ġdirect ed
Ġcons umption
iy ah
Ġaccount ability
ench e
Ġsub stitution
ĠDep p
ĠGe a
59 4
Ġeas ier
58 9
stitution al
oz a
ev ac
Ġgrand papa
Ġwebs ites
Ġple a
Ġgb im
zi em
ĠEs sebsi
ĠJul ian
ĠTim oti
Ġconsider ed
aron ke
imb ola
off s
ĠAgb eles
ĠSom al
ĠBet lehem
rop hone
ĠOlam ilekan
ĠOny eka
ĠSwed ish
ĠSl im
ĠMod ern
Ġcompet itive
CH AN
ĠGom es
Ġemot ion
Ġadop tion
ĠTai wan
ĠBrig ade
Ġded ikate
ĠGene va
Ġhur ricane
ĠRash el
Ġauth entic
Ġvent ure
ĠCass ie
Ġmotiv ated
Mon key
Ġclin ics
ĠRaj evac
Ġmasturb ate
Ġexec ute
ĠCharl otte
ĠEld ers
ĠTrav ellers
Ġimmun isation
ĠKin shasa
news pidgin
buk olasaraki
ĠAjib ade
Ġphil anthrop
Ġconcent rate
ĠMilit ants
ĠSeb ast
Ġbandit ry
ĠRosem ond
ĠShan ghai
ĠOlal ekan
Ġreun ite
ĠBro os
isd iction
ĠRaph ael
ĠChibu ike
ĠRank ings
ĠPab lo
Mov ie
ĠACHIE VEMENT
A c
B an
E AR
G uy
H ere
I O
K idd
L eban
R om
S atan
Y esterday
b anjo
c ape
f ootball
j s
k we
m r
p ot
r ard
w izkid
y es
y ang
Ġ 01
er le
on ial
or and
en er
en heim
Ġm oh
ou ma
al on
it end
Ġg onna
ĠS ara
ĠS ED
and als
id avit
ĠM uth
ĠM BA
ĠD ata
ĠD aughter
ĠN urs
ĠA R
ĠA Y
Ġr up
Ġr ings
Ġe ve
Ġe agle
ĠI T
ow ale
ĠT af
ĠT iti
ĠO S
ed es
ĠB ia
ĠB ec
ĠB read
ĠV s
ĠV ery
ĠP U
ĠP oint
Ġk olo
ist ula
ĠL akers
ass im
Ġch elsea
Ġv et
ĠK ig
ĠR EC
ĠR onald
ĠR eno
um elu
ap ist
ri etta
oto ye
art e
ĠPr oper
ĠPr ayer
Ġex emption
ĠDi ary
eop ard
he ba
app rop
Ġshe k
Ġle aves
Ġknow s
An n
Ġsocial ite
og en
ob ori
Ġwin ter
oon er
ĠZ oo
ĠZ amb
pr esido
Ġstr angers
Ġhel d
ĠLe ave
Ġput ting
Ġover see
ink o
ink en
ĠOb ad
ĠEm efi
Ġ(@ _
ĠSh idren
Ġgradu ally
gb u
Ġpar abol
pt roller
bbc newspidgin
ĠOl aronke
Ġchar coal
Ġdef raud
boy e
Ġ14 5
Ġfire wood
ĠAcc ident
Ġsur plus
Ġ13 1
ĠBl u
ule v
ĠGr ound
Ġit self
AC K
OR E
Ġupd ated
Ġshoot out
Ad am
Ġpolitical ly
ffic ient
ĠTol u
sw orth
ĠST EFA
Ġspread ing
Ġblack out
Ġcurr encies
Ġdet ail
Ġlight ening
Ġfront line
Ġsin nas
Ġten ant
Ġrepresent ation
ĠEven ing
Ġel ite
Ġappoint ed
ĠBur ial
Ġfact ories
ĠEd e
ĠMin na
ĠNn eka
ĠCr ude
Ġgreat er
ĠChristian o
rin t
60 8
Ġz oning
Ġcontract or
ĠStr ategy
CO P
ĠUs ain
bl og
ĠAbdul k
ĠEconom y
Ġlegal ise
ĠStud ios
Ġ197 4
Ġfestival s
ĠGh ost
Ġeveri wia
ĠIran ian
ĠAnn iversary
Ġsnake bite
ĠFound er
ett lement
ĠBob by
ĠAC PN
Ġrap id
ĠGal ad
ĠBak ana
Ġer ect
ĠSub stit
ĠMax im
ĠOrt iz
ĠDum ebi
isc uit
Ġaddict s
Ġbom ber
ĠMic rosoft
Ġhop es
rac ism
Ġpe ak
Ġmobil ize
Sal ah
fun ction
Ġplac ard
ĠBir nin
ĠFriend s
ĠNaf dac
Ke ep
Ġjur isdiction
Ġdias pora
ĠNI POST
ĠExt ra
ĠPentecost al
Ġdies el
ĠSurr og
ĠOlak unle
Billion Concert
ĠMp ape
ĠAlk ali
ĠMaik anti
ĠDew ji
Ġip hone
ĠGwag walada
ĠYun usa
ĠGlas gow
Ġcray fish
ĠEmefi ele
ĠSTEFA N
B u
B ST
D angote
E id
F N
F il
I ER
J oe
K ay
K ofi
M at
M im
M ah
O bi
S u
T ill
W eda
c ribed
d u
f acebook
g oment
h ail
l ace
o ja
s ak
s ix
s upp
t orture
an oda
Ġw aves
Ġt ons
Ġp y
Ġp ow
Ġp ardon
20 15
Ġb iscuit
en na
Ġc ens
Ġc ater
ou ard
Ġg ele
ĠS noop
Ġh ij
st age
el ines
ĠM oral
ol ics
ĠD ong
ĠD IS
ĠN AF
ĠN usrat
ĠA ld
ĠA ya
ĠA ids
im ately
Ġl iter
il ton
ĠT ry
ĠT agbo
ing ual
ĠF ord
ĠF eel
ĠO man
am y
am ilitary
ĠB ee
ĠP ear
ĠP uff
ĠP regn
ĠP ortharcourt
ĠE D
ĠE ufrates
ĠC V
Ġk o
ip edia
Ġ1 15
ĠJ eb
ĠJ orge
ĠG it
ĠG us
ĠG aya
ĠG inimbi
Ġas pect
ĠH MO
ĠH ours
Ġal redi
ĠL ow
ĠL ed
ĠL ola
ĠL afia
ĠL ucky
ear ly
Ġan im
ĠK adijah
ive a
ĠR at
ĠR ew
ĠR ail
Ġtr ied
ap es
ak pe
Ġj okes
ĠAn ele
Ġun animous
av in
ĠY ola
app oint
Ġgr en
Ġall ies
ĠCh rissy
ouse f
ĠSt ade
ĠSt riker
Ġkn ew
Ġwork shop
ators hip
ard y
over s
Ġinter fere
Ġdat s
iz ard
Ġsec s
ris k
ĠIm portant
ĠZ ah
amp o
ĠAl most
ĠAl ternative
Ġopen ly
ĠAd ol
Ġ19 52
Ġcourt esy
ĠBr oad
uc us
af in
.. ."
Ġmi xt
Ġdiffer ences
oo fficial
ale u
Ġcap able
Ġchar ter
Ġem ails
Ġ11 4
new i
ner by
12 9
ĠSer ious
Ġinv igil
Ġdep uties
Ġcelebr ated
ĠSuper intendent
ĠOk ocha
ĠSome thing
ĠPaul o
ĠOm oku
Ġexp ansion
Ġexpect ations
ĠOy akhilome
Ġgl ve
Ġcontr ac
ĠCom ptroller
Ġblock ing
Ġcarri er
ĠYear s
ĠMat hew
Ġbab es
Ġgen etic
mar ried
Ġattend ance
President ial
Ġesc al
illeg al
Sh ell
ĠSw ahili
Ġamb assadors
Ġbreast s
amf e
Ġtrend ing
UN IS
ĠIv y
aut i
de ep
ĠDef ense
ĠMiss ing
Ġlisten ing
Ġfoot b
Ġscor ed
Ġmem o
Ġcamer as
ĠCond e
Ġchang ing
Ġjun ta
Prof Osinbajo
Ġprincip le
Ġconsult ation
ĠEle ka
ĠCard inal
ĠIj ebu
aness a
Ġprevious ly
Ġcalc ulation
ĠFir da
ĠTam ar
ĠIsh aku
ĠDav is
Ġevict ed
Out side
ĠMou mi
Will iams
vid al
Ġsem in
PS G
ĠMav rodi
Dec ember
ĠWy dad
ĠOnu achu
ĠZeb ulun
Gar ba
ĠNaf tali
Ġresurrect ion
Ġcouns elling
Ġwl th
abl anca
Ġmas querade
Ġunn ecessary
Ġdisinfect ant
ĠShoot ing
Ġhorm one
ĠNwo ye
reh ensive
ĠElk ana
Ġtal ents
bern atorial
Ġdrain age
Maur ice
ĠHE UNIS
Ġshep ad
ĠPers ia
ĠSamar itan
ĠOlorun wa
ĠNutrition ist
Ġphr ase
Jac ob
ĠMalach ie
Ġagb ada
Ġhaw k
ĠGrow th
ĠMacar oni
ĠNgam aleu
orand um
obori owo
1 000
6 15
B re
C ancer
E at
I pob
J ew
K now
M eh
N AFDAC
O ff
R oma
S is
S oot
T her
b ender
c ry
d ep
d eh
d ale
f ol
h ide
h ear
k ili
m ous
r ink
s huku
x x
z at
or on
Ġs antify
Ġdi vert
ou ya
ĠS ustain
Ġo lu
th ey
ĠM uy
ĠM RC
ĠM amfe
ĠN BS
ig un
ig ga
ke e
Ġl ibrary
il oh
Ġe Naira
ĠI ce
ĠT MZ
ing a
ĠF t
ĠF ib
ĠF idel
ĠO ce
Ġth in
Ġy rs
ĠB ed
Ġst ir
Ġbe ard
ĠV accine
is olation
ĠP sych
Ġna b
ĠC AR
ĠC inem
Ġdis h
le ast
ĠW is
ĠW use
ĠW alla
op ical
ĠG all
ĠG ulf
ĠG arko
Ġwe e
ch air
ut ely
os ophy
ag ger
ĠH PV
Ġsh es
ĠL ect
ĠU ba
ĠU CL
Ġch a
ori e
ĠK esh
ul ated
ec ia
ĠIn uwa
ust er
ap iti
ri y
ak im
iv a
ĠAn j
ĠY ousef
Ġgr oss
Ġturn ed
ari se
Ġfir ew
An ambra
over b
Ġbr aid
Ġsp ect
ĠZ adok
ĠTr uth
ump h
ĠAd j
ĠFr eder
eg bu
ĠSh en
ĠSh ine
ĠSh aka
ĠAm in
ĠAm eh
Ġwr ist
ĠRe union
Ġwhere about
Ġgoal keepers
Ġcho ir
ĠAng o
ĠIf yu
Ġreason able
Ġhold ing
ete or
Ġopp ress
The ir
ĠBl inken
ĠSp art
Ġbreak up
rit ories
ĠCong olese
ĠBar ry
ĠCommission ers
Ġnear est
Ġinv ited
Ġkind ness
Ġoper ational
Ġnight s
Ġnight club
29 6
ĠMal ta
ĠEn iola
Ġsl ogan
Ġkeep ing
ĠOk ay
ĠOk ere
Ġcons cious
ĠOm id
ĠCent ury
ĠEk un
Ġbank er
ĠAy odeji
Ġexp enses
De ut
ĠEb enezer
Ġactiv ate
Ġrepresent ing
Ġappoint ees
IA L
Ġrecruit s
ĠMin nes
Ġsav ings
Sh ine
Ġmis man
Ġed ge
Ġmass a
ĠPan el
Ġsecret ly
ĠAw ara
ĠAw oniyi
Ġbar ely
Ġaw uf
Un til
ju wa
ĠGh isl
Ġ196 4
Ġ196 9
Ġpil ots
ede ji
Ġkingdom s
AL E
Ġgy na
ĠSu ccess
ĠSch ol
ĠOgb e
ĠAdm issions
ING ER
bad os
ĠChair person
EST AC
ĠOt to
ĠMod el
Ġbore hole
ĠBud gIT
Ib om
Ġmer chant
ĠBah rain
ĠStat ement
ĠHan an
UT ION
ĠChid ozie
Te am
ĠNab y
ĠMahm oud
Ġabus ive
Ġmic rophone
ĠJum ia
ĠAwa ziem
Jose f
ĠTw enty
ĠHear d
ĠHo H
BU JA
Ġingred ient
Ġcontinu ous
ĠHud son
ĠMkh itaryan
ĠMail afia
Bam enda
ĠPit akwa
ĠDh abi
ĠJin ping
Ġincred ible
antan amo
ĠOtun ba
mod el
Ġevrit ime
ĠKorint ians
ĠDood le
apiti ya
ĠMinnes ota
6 10
: "
A aron
A ugust
C P
E r
E ducation
F un
H ER
L ong
N ombas
O gun
P op
R K
S eparat
Y OU
b le
f light
h as
h tar
m arry
m ilitary
p on
r ose
s burg
t ension
v o
z iland
Ġw ards
Ġt elev
Ġc afe
es c
Ġm ans
om ide
om be
al n
al t
Ġg ene
Ġg olf
Ġn iece
ĠS ia
ĠS uit
Ġo ct
th ief
ĠM old
ĠM ix
ĠM onye
ol itical
ĠN G
ĠN JC
ig u
Ġe ighth
ĠI dai
ĠT ame
ĠT alent
ĠF ai
ĠO R
ĠO ghen
am weight
ĠB art
ĠB ye
ĠB uju
ĠB OP
ĠB ianca
ĠV anguard
as em
ĠP P
ĠP iss
ĠC able
ĠC ann
Ġk g
ĠJ ab
ĠJ olie
Ġim porters
ĠG ers
ĠG he
our se
ch oice
ĠDur otoye
Ġsh y
ĠL ov
ĠL arry
ab ot
ĠK ris
ĠK iri
ĠK arm
ak we
Ġ4 30
Ġag es
cc up
Ġkn ot
ish ed
Ġeffect ively
Ġcont amin
Ġcont enders
ib i
Ġbusiness woman
ĠMar ina
ĠZ ag
pr op
pr act
ĠAl onso
ĠAd igun
ĠBr on
Ġsm s
Ġcr ooner
Ġdec orate
ĠHar assment
ens itive
.. ...
ĠElect ronic
Ġcanc elled
read i
ĠHe al
Ġteam mates
ilit ate
adi jat
amm ie
bb y
Ġrel ay
ĠMon rov
The Country
ĠEl umelu
ĠIb ori
ĠIb ikunle
Im agine
Th ousands
Ġprop riet
ye ong
Pr emier
ĠDen nerby
ĠOr omo
Ġdeal er
Ad eb
Ġexper iences
ix TheCountry
ĠGo als
Ġins ulin
ĠPar agu
Ġbillion aires
US IVE
HO T
59 9
IG P
ĠHer itage
ĠEd wards
ĠSc ar
ĠLib yan
Ġadm ire
Ġtear gas
oul try
St eph
BBC Gov
Ġple asure
Ġassist ed
Ġloss es
Ġtrend s
Ġsuper vis
ĠNd ong
Ġemploy er
ĠEv iction
br os
ĠTer ritorial
ĠMb oma
PP IS
unt ary
Ġcolon el
oyin oluwa
ĠHon da
Ġpayment s
Ġcomb ined
ĠBaf ut
Ġcreat ures
Ġren ov
Ġsurround ing
ĠJen esis
ĠConf usion
Ġconfuse d
Ġheal ing
Ġspec ies
ĠBern ardo
Ġsevent een
ĠSab on
ĠMas vidal
ĠMir iam
Ġcollabor ate
ĠWE Y
ĠGer ard
Ġicon ic
Ġexh ib
ĠSul aiman
ĠPres by
CL USIVE
Ġwrest ler
Ġinfluenc ers
Min imum
Ġrig ging
Ġextrem ely
ĠWind sor
ĠInv ictus
Id ris
ĠBant on
Ġsurrog ate
Ġincom pet
Austr alia
ĠMach ine
ĠSTR INGER
Ġconsist ent
Ġtur key
Ġdeprec iation
Inf act
ĠDrunk ards
ĠYv onne
Ġpropag anda
Mart in
Fit r
ĠFirm ino
Ġkub olor
ĠGup ta
Deut ronomi
ĠMonrov ia
BBCGov Debate
A yo
D E
D j
D irector
E ll
F O
F estival
M and
M other
W ey
Z ainab
c reate
d ec
f ellowship
g ay
j k
p oor
s end
t ie
w atch
w ash
Ġd ar
er ic
on ic
Ġf ol
Ġf athers
Ġt ender
Ġs occer
Ġp pl
Ġb ay
Ġb ast
Ġb und
Ġa x
Ġc ul
Ġm ild
Ġg one
ĠS ame
ĠS ull
ĠM ey
ĠM outh
ĠM iz
ĠM igrants
ol an
ol en
ĠD ee
ĠD ankw
ĠN ep
ĠN newi
ĠA RT
Ġr azor
Ġof r
Ġe z
ĠT an
ĠT isha
se k
ing le
ĠF ell
ĠF ainting
Ġin tr
ad ir
is ations
ot am
ĠP alih
ĠC row
ĠW onder
ĠW olf
ĠW ander
ĠJ ake
ĠG ra
ĠG ang
ut ter
ut ive
os in
Ġpr overb
ist rates
Ġam putee
ĠK ud
re b
ul i
ĠR ow
ec a
ial em
Ġpost ing
ĠAn an
Ġun ex
ĠĠĠĠ Ċ
oy es
Ġkn w
ug ge
uit ion
Ġnew born
over y
Ġ36 0
abi yi
so jas
ra id
Ġmat ernity
Ġport s
Ġnow here
iz zy
ĠDem bele
ĠIs abel
ĠAr kw
Ġ8 50
ĠAd s
bo a
man e
19 0
Ġinc lusive
Ġ10 7
ĠTh iago
Ġexpl ore
Ġmin i
Ġour sef
Ġover do
ĠOb ey
ĠHar rison
ĠQu alif
ĠSh in
Ġland slide
Ġpar amilitary
sh irt
ork un
Ġchar m
ĠCor ona
atur ally
Ġfriend lies
Ġsur eties
Ġnews men
Ġleg ally
lem an
Ġpoison ing
Ġkind s
Ġdep ressed
Ġpeace keepers
ific ations
ĠBe verly
ĠSal ami
Ġexpect ancy
ĠOy eyemi
Ġdiv ine
iff e
Ġactress es
ĠMag dal
inc ial
ĠEd ition
oil er
Ġint elligent
ĠRepublic ans
ev ribody
ĠSol ar
ĠUg andans
Ġcan oe
Ġeh en
Ġrisk s
Ġgrand mama
Ġcriminal ity
St ay
Ġparliament arians
ĠOff take
cl iffe
ĠStr ip
ĠMo ghalu
ĠNd am
Ġcomed ians
Ġgain s
ĠMen strual
ĠNk et
Ġ197 7
ĠParliament ary
Ġgrant ed
Ġcoun ty
oven ia
Ġarrang ee
ĠAde j
Ġweak ness
Ġparticip ants
AL L
ĠAdv ocate
ĠKab or
Ġpark s
ĠDam my
ĠOver seer
Any thing
ĠEqu ere
Ġdetain ed
ĠFun ny
ĠPass enger
ĠCC B
ĠBas el
arant eed
ĠUkrain ians
Ġmer it
Ġdiscrim inate
ĠMend es
ĠMot or
ND LEA
ĠTask force
ĠPolytechn ics
Nor mal
Ġauth ors
ĠCas ablanca
ĠLeon ard
Ġroot s
TAG RAM
ĠAthlet ic
Ġhonest ly
ĠSul em
ĠKnow les
ĠTed ros
ĠOre ofe
Ġassoci ated
Ġphotograph y
again st
dist roy
Ġpolytechn ics
Ġpas sed
ĠPast ors
ĠNY IF
moni um
ĠTes la
Econom ic
Ġware house
Ġdys function
ĠDik ko
ĠLioness es
ĠSever al
cul osis
Rw anda
Ġnit rate
ĠShime i
Ġoccas ions
ĠPalih apitiya
ĠOreofe oluwa
! ,
A gb
B ud
E st
F T
F emale
G h
O t
O by
R am
R est
S ON
S unday
S TAGRAM
T ension
Y E
b il
d el
d ear
f ull
h ous
j em
j ay
l ive
n ou
o ove
p il
t able
Ġ 06
Ġ ik
Ġd ow
Ġd avid
er g
on gh
Ġt one
Ġt ied
Ġt akes
Ġdi ce
Ġb ia
Ġb ik
Ġb att
Ġb ureau
Ġm om
om na
it ob
ar ay
Ġn uns
ĠS ud
ĠS ugar
et am
ĠM Y
ĠD iana
ĠD iane
ĠD otun
ĠN ature
Ġr ose
Ġr adi
ĠI OM
ĠT ub
ĠF if
ĠF unt
ĠF isher
ĠO wo
Ġ2 75
ĠB ind
ĠB ela
ĠV C
is o
is closed
ĠP HE
ĠP ulev
ĠE X
ĠE pe
ĠE ffects
ĠC ell
Ġk ween
Ġcom promise
Ġ1 200
ĠJ ag
ĠJ av
ĠG i
ĠG aut
ĠG MD
ter ror
Ġsh akara
Ġal binism
ast y
ass ure
ĠK af
ĠR ace
ĠR ole
ĠR ats
Ġtr ash
um ing
ĠIn fect
ial a
esid es
ĠPr overbs
Ġun conscious
ok we
ĠY aya
ant ino
Ġag ber
Ġhapp i
ug be
ĠAb use
ĠAb aga
ick s
ob ally
ond ere
do z
Ġad equ
ib ilities
ĠMar l
ĠMar co
ĠDem o
ĠZ aki
Ġrep at
ĠAs ante
Ġrec ycle
ĠTh i
Ġcor por
ime fo
Ġmin ers
Ġcr op
38 0
air a
Ġjoin ing
ĠSh akhtar
Ġenter ing
ĠSouth gate
ĠComm ons
Ġnot orious
Ġreport ing
Ġunder graduate
Ġwhere ver
ĠOl ori
Ġprom ising
Ġ0 3
Ġcontain ers
ĠDor a
ria ges
Ġnational ity
ĠBar kin
Th ough
Th ese
Ġind ecent
ĠGu antanamo
EN G
EN S
Ġcons umer
Ġac id
Ġac know
ĠAct ors
ĠCo ordin
IC K
ĠPar adise
Ġinj unction
ĠAF RIMA
arr ange
reg ard
ĠIg ala
Ġprocess ing
NG SuperEagles
Ġsav ed
Ġoutbreak s
IV ERS
ĠUs yk
ĠAbdul ahi
ĠPat el
Ġenc ounter
Ġmal pract
Ġtank ers
Ġhy poc
rick et
ĠMaur icio
fl ow
br ey
ĠDan ish
Ġwet ln
ĠComp anies
ĠTun is
ĠBal ak
ĠBor r
Br own
Ġ196 5
Ġkam el
law s
ĠView ers
ĠBu i
ĠBu y
ĠSu u
ĠHol iday
EL L
ĠSong s
ĠOgb a
Ġrac ing
App le
une i
ĠOper a
Ak wa
Ġcoff ins
Ġrev olt
ĠHen rietta
Mar adona
Ġgreen light
Ġpur pol
Ġstor age
ĠNO W
Ġmus lims
Justice For
ĠCorpor al
ĠKaz akhstan
Ġje ans
ĠHal ima
Ġaff idavit
ĠShar iff
ĠBat talion
ĠHezek iah
Co ach
Co alition
ĠLamp tey
Ġfulf ill
ĠFox es
Ġpsych ological
Ġabd uction
ĠWel beck
Ġfib re
ĠDal ung
ĠInvestig ative
Ġbreastfeed ing
Ġmut ilation
Doct or
Ġunc over
Ġresist ance
ĠNgu ema
ĠBach or
government al
ĠWaz iri
ĠConsolid ation
ĠSpr ing
ĠKou y
ĠKro os
ĠMonitor ing
Ġbuck et
Ġintens ify
Ġcompass ion
Scient ists
ĠAlber ta
Ġoverd ose
ĠBert rand
ĠSymph ony
Ġliqu id
econom ic
ĠDocument ary
erle cht
ĠMuth arika
Mim imefo
Sis iku
Ġfirew ork
ĠGhe brey
ĠParagu ay
A MA
B L
C all
D G
D a
H ot
J ub
M ati
N Y
S te
S outhern
T utu
V M
W al
W ed
Y omi
Z en
b eg
b ury
g il
g eli
h oc
m ont
n ine
p en
r ub
s leep
s quare
w ana
y ere
Ġd ada
Ġd orm
or en
Ġf oc
Ġf aster
Ġs unday
Ġb af
en ko
Ġa y
Ġc otton
Ġdey judge
Ġo gb
ĠM ate
ĠM sw
ol ved
ĠD re
ĠD yn
ĠD ialogue
ĠN ombas
ĠN IMC
ĠA i
ĠA ra
Ġl iability
ĠT aj
ĠF aj
ĠF ESTAC
ĠO nd
Ġ3 33
am adu
am be
Ġ2 20
ĠB omb
Ġst oning
ate ur
ĠP ur
ĠP eng
ĠE duc
ĠE instein
ĠC annes
Ġk obo
le e
ĠW on
ĠW eb
ĠJ SS
ĠG um
ut ch
ut ality
ĠH ind
Ġsh ed
Ġal readi
ĠL adies
ear n
Ġch ess
ers ive
all on
oc ol
ĠK is
ĠK ontris
ĠR ufai
ĠR auf
Ġtr oub
ĠPr is
ĠAn imal
Ġdr ip
form er
Ġsu ff
ach t
ĠAf rique
ĠSt eel
ĠAb imbola
ish ment
og be
oll ey
Ġsp ring
one kan
Ġbl oc
Ġplay ed
ra it
Ġacc ur
Ġatt acked
ĠMar haba
ĠZ ambo
ĠZ ulum
ĠJan et
amp ire
ĠTr ack
ĠAl aba
Ġden ied
ĠBr ugge
Ġcomp ile
Ġcomp ilation
Ġcr aw
Ġevery wia
ĠSh onekan
Ġgood ness
ĠSen banjo
au da
Ġwar s
vel ashon
Ġgu v
pe o
get s
Ġsur ety
ush i
The Soot
Ġset ol
ĠPl ant
icin es
ĠKen ny
wu j
tr avel
ĠMal ick
Ġpeace keeping
Ġgun fire
ĠCo za
ĠCo oper
ĠDemoc rat
ID A
ane ze
ĠBo akye
ĠOy eb
59 7
ĠPol io
ĠKw aku
Ġfact ions
ung un
Ġrepl acement
Ġeng lish
Ġint ent
ĠCr uise
Ġty phoid
Ġfun ctions
Ġtarget s
ĠDE L
ĠRed emption
bl ue
ll l
kill ers
ĠTur tle
At letico
Ġfraud sters
ĠTer seer
inn in
ĠAde oti
ĠMak inde
ĠCons umer
ĠOgb om
Or gan
ĠAdm iral
ĠOny ek
ĠTra fficking
Ġhun ter
Ġcapt ivity
ĠBall a
OL E
ĠIS WAP
ĠFlood s
Som alia
Ex odus
Ġmanufact uring
ĠGw ari
Ġseed s
Gu inea
ĠMill ions
Ġherbal ist
ĠPolic eman
ĠBillion aire
Ġnin ety
ĠProtest s
fe it
ĠPot ter
Ph oto
ĠNgan nou
ĠMA KE
ĠAlm ighty
Ġplac ards
Ġprec ious
ĠKer en
Ġced is
ĠGibe on
ĠSof iane
ĠRul ing
Ġli ar
ĠPick in
Ġbul ld
ĠBom bers
ĠPharmaceutical s
ĠAkan bi
ĠLC DA
Ġconsec utive
ĠKoh at
ĠRib adu
Mac ron
ĠKoto ka
ĠAngu issa
ĠDrag ons
Commission er
ĠAgbeles he
ĠKig ali
ĠGus au
ĠOce ania
Ġpropriet or
ĠWander ers
! '
' (
5 56
9 00
A pr
B orn
C oin
E ric
E ye
K ontri
L ives
N I
S av
S ong
S upp
U AE
W W
W ild
Y usuf
e ent
g ary
h at
h ur
m ash
r iminal
Ġ urban
or p
an tha
Ġt umour
Ġt uition
Ġs au
Ġs aga
Ġdi ve
Ġp aw
Ġb rick
Ġc um
it ar
ĠS ama
Ġo oh
th s
ic ip
ĠM ant
ĠD od
ĠD ON
ĠD eleg
ĠN ch
ĠN ath
ĠN uru
ĠA uchi
Ġr all
Ġl ick
ow unmi
ĠO ta
ĠO me
un ga
ĠB T
ĠB ST
Ġst olen
ĠV uit
ĠV ision
ĠV ote
is k
is in
ot imi
Ġfr o
as ico
ĠE cu
ĠC ain
ĠC ult
ĠC reek
od oro
ĠG ren
ter ian
Ġpr itend
Ġsh uku
Ġal m
ist a
ĠL em
Ġban ana
oc c
ĠK O
ĠK ent
ĠK olo
ĠK iev
ĠK eshi
ul es
iv ic
end y
ĠAn k
ĠAn na
Ġun s
ik h
ik al
ĠY obo
Ġgr aves
ud es
ys mith
Ġmon ts
ĠDe ep
own ed
mer ie
ek u
ition ers
ĠAl ak
ĠAd esh
Ġinc ite
Ġqu iz
we h
ĠBr andy
Ġdec riminal
enc il
Ġbig innin
les iast
ĠSh ot
ĠAk uny
EC H
Ġexplos ive
Ġstat utory
ourn ey
Ġdiscover y
Ġbel ts
any ahu
ĠMon etary
Ġallow ee
Ġ13 7
Ġbreak through
ĠGr aham
ba o
aff y
Ġincrease d
Ġcur ric
Ġoper ating
Ġsl ack
Ġcelebr ating
Ġhard er
Ġpain ter
ift ing
gr oup
ĠOm ol
ĠEk ine
Ġaccount ant
Ġtit led
ĠOg u
Ġstar ch
ĠAF OTY
ĠFI LM
Ġint end
Ġtwitter View
Ġsav ing
Ġcomment ator
ĠMark afi
atta h
SC DC
Ar iana
Ġrobber ies
Ġamb itions
Ġaccept able
Ġsuper ior
ĠAkin yemi
ĠEs perance
ĠYa a
ih on
Ġaw asef
ĠSy nagogue
ĠMb ombo
Ġequ ally
ĠFrank f
Ġcult ism
ĠSong writer
udu wa
ĠCap it
Ġcy cle
ĠSing h
iev able
ĠEqu iano
big gest
Ġkiss ing
ĠOt u
ĠLG As
Ġpur p
ĠKol awole
Ġoverse a
sc ale
ĠBah d
ĠAgy eman
Ġsmart phone
ĠChukw uma
Ġunem ployed
ĠTank er
eli hood
ĠWood s
Ġafford able
ĠRah man
Ben in
Up on
Ġmic r
Ġmotiv ate
Ġinsect s
Ġbelief s
ĠSerge ant
Amb ode
Of The
Ġtransform er
Ġtra um
lar ation
ĠSupport ing
ĠAlb ion
Ġembarrass ment
Ġdisag reement
ĠLad ysmith
Ġventil ator
Ġdivers ity
ĠCab inda
Ġnutrition ist
ĠPhys ician
Ġtelec ommunic
Ġpolytechn ic
Ġsumm ary
Ġniger ian
ĠHem sworth
ĠInteg rated
Ġadministr ator
ĠWik ipedia
Ġmanip ulate
IGH T
Ġjub ilate
ĠMush in
Ġmineral s
ĠUch emba
ĠNIGER IAN
ĠSwa ziland
ĠPom peo
ĠCu omo
Ġfab ric
ĠGalad ima
Ġerect ile
Ther esa
Ġax is
itob ire
ĠGhebrey esus
Jub ril
Mati u
ĠVuit ton
1 21
5 13
5 33
A so
A bb
C ry
D og
D eath
F OR
F lor
H I
H am
K evin
K anu
L uc
P ass
P eoples
Q s
R el
S L
S il
W ood
W hether
Y ak
b ok
f y
k us
k ye
k arry
k pata
l an
l ullah
m usic
p op
p rise
p rises
s om
s and
s ince
s ylv
u da
w ords
Ġ ul
Ġf a
Ġf ung
Ġf iling
an ing
Ġt ico
Ġs ki
in is
Ġdi m
Ġb olt
Ġb ishops
it icians
Ġg imme
ar ly
ĠS W
ĠS em
ĠS hip
ĠS ars
Ġh ence
ol yn
ĠD ate
ĠD ors
ĠN ig
ĠN so
ĠN atan
ĠN aptip
ĠN ivea
ĠA side
il ed
Ġe ba
ĠI les
ĠF abiyi
am el
am ena
ed d
ed o
ĠB ali
ĠB odu
ĠB ooth
ĠV ital
ĠP ant
ĠP salms
ĠE vent
ĠC UPP
Ġdis fellowship
Ġdis regard
ip ts
ĠW ant
op ing
ĠG ud
ĠG ari
our i
ag ul
ĠH S
ist ration
ĠL en
ĠL ag
ĠL av
ĠU chendu
Ġch ancellor
Ġv ibe
Ġwh it
ab ase
ab oy
ab ration
ĠK ip
ĠK ub
ĠK ier
ĠK ANO
Ġdo ve
Ġher eby
ĠR U
ĠR ene
ĠR eek
ĠR achael
Ġtr acing
ust om
ri ved
Ġj og
art i
Ġpost ed
ĠAn at
Ġdr am
ok or
app ear
ĠAf olabi
ys c
An swer
Ġse iz
ob lem
Ġcont ext
ib ian
ek we
ĠUn cle
Ġbi omet
ele on
Ġ8 000
ĠAs k
com merce
ĠBr ent
ĠBr os
ĠBr unei
Ġdec or
aj j
ĠSh aq
au th
ull am
Ġsmall pox
BN L
az es
az au
Ġgu idance
sh ed
sh ots
Ġdifferent ly
any body
ĠOn w
ada a
Ġcond ole
Ġopp ression
ĠInter pol
ĠGr ant
ĠDor othy
Ġter ritorial
Ġit em
Ġelect ron
ĠPort able
ĠEn i
ĠUN GA
ĠBe autiful
ĠAh azaya
Ad e
Ġcons ensus
wh ich
ĠEk ene
RT V
rib es
Ġcoup s
Ġviol ations
ĠEb ute
Ġexam ine
ĠCol ston
Ġdevelop ed
Ġwarn ings
Ġsin c
Ġtreatment s
ĠSc reen
Ġgeneral s
ĠChristian ity
Ġeh m
60 9
ĠMah langu
ĠBel grade
ĠChin ua
Ġang lophone
Ġcommot ion
less ness
ĠKh adijat
Ġmurder ed
Ġcirc ulation
ĠFranc ophone
ĠJul iana
br oken
ĠAp o
Ġgri ev
ĠHam ilton
Ġkey s
ĠKar en
ha ja
BI YA
ĠFore ver
ĠKum ar
Ġwild life
Ġooo oo
Ġfoot st
ĠMik ah
ĠDog g
Ġacad emics
afi ya
ĠIy iola
Ġprincip les
Ġrelax ed
ĠLu ther
ĠOx lade
ĠKol inda
Ġperman ently
Ex per
ĠBil bao
Re gina
ĠOh aneze
ĠProsec ution
ĠInf inity
ĠJeff rey
ĠIC PC
Ġschol ar
ĠKr ane
Ġhomosexual s
ĠInn ocent
Ġrece iving
ĠMic heal
Ġpunch es
Ġbor ed
ĠDav ies
ĠAden iyi
ĠIss akar
Ġstrateg ies
ĠFern ando
Ġconstant ly
Je an
Je ff
ĠCarol ine
ĠProduct ivity
ĠSoph ia
Ġtempt ation
Ġmud slide
quin one
Jon athan
Ġcasual ty
Ġcasual ties
wor st
ĠPoll ution
Ġvess els
Ġpron ounce
ĠBrook lyn
Ġmessen jas
ĠMarcel o
Stud ents
ĠPed ro
Ġwaters ide
Fund Me
ĠParalym pic
Ġwer ey
ĠObia geli
ĠHoll and
ĠDomin ica
tem ple
david oofficial
ĠPrincip al
Ġfirear ms
Ġperpet r
Ġsalv ashon
Ġskelet on
Ġpow der
ĠOmid ina
ĠPresby terian
ĠNep al
ĠArkw right
wuj aren
Ġrall ies
ĠEcu ador
ĠAdesh ina
ĠBodu ong
! #
B ron
C up
C amer
F ace
F uel
M R
M Y
M b
O gb
P ut
T a
V ill
W iwa
b ey
b ach
g le
h ah
k aya
l are
l aim
m ix
o quine
s erving
t or
w eb
y ama
y no
Ġ ig
Ġb elly
Ġm ummy
om eter
ĠS ap
ĠS eat
ĠS abo
ĠS ammie
Ġh ors
st v
ic he
ĠM ills
ĠN z
ĠA qu
Ġr a
Ġr if
Ġr ugby
im u
ia ka
Ġl eopard
ent ine
Ġdem o
ĠT ory
ĠT emi
se ater
ĠF raud
ĠO tt
Ġ3 20
am asta
ed ayo
Ġy oga
ac etam
ĠB orders
ĠV ent
ĠV ikt
ot ics
ĠP iers
ĠC ase
ĠC omot
ĠC urrent
ĠC ertification
ĠC redit
ĠW o
ĠW id
ĠJ ill
Ġde w
ch or
us an
ĠH ey
ĠH os
Ġbo bs
Ġban s
Ġpl ok
Ġch amp
all ist
Ġwh ack
ab ad
ĠK yle
ĠK assim
re f
ul obia
ĠR ica
ĠR afi
ĠR ennes
rol oquine
ie g
Ġj or
Ġun w
av ed
ĠY ugu
ĠTwitter De
Ġgr ain
ĠCh roloquine
med ia
Ġcl ay
Ġbl end
Ġbl kos
own s
ĠMar itime
Ġtrans it
iz o
ĠAd edeji
Ġ19 19
Ġsc amm
Ġback ing
Ġover weight
ĠOb idi
Ġgood will
Ġrem embrance
ĠAm y
ĠAm azaya
Ġunder age
sh ore
Ġprom o
ĠAt uejide
ĠGr an
ĠGr aduate
Ġtreat ed
ĠEl n
Ġ24 2
ĠIb ile
As k
ĠSec s
Ġind ict
Ġla id
Ġdist ress
Ġsl am
ĠGu est
ph rod
ffic i
Ġcons erv
Ch in
Ġmov ed
Ġcontrol led
Ġadv is
Ġadv isers
ĠCl inic
ĠSal am
Ġexpect ation
ĠPh otos
ĠAmb rose
Ġsin cer
Ġtw ale
Ġtem por
reg ular
58 0
Ġsn ow
ĠMich y
Ġint estine
Ġrain bow
ĠCont est
Ġattend ants
oz en
AM VCA
ES U
omb ie
Ġserv ed
ĠX h
ĠChar ity
Ġcross ing
ĠReg istry
Ġpunish able
ube i
Ġcontract ors
Ġneg lect
ĠNd igbo
Ġmal treat
ĠAre as
ĠEs an
uff o
Nigerian Army
Ġpon mo
Ġhom icide
ĠAdeb impe
ĠDR C
ĠSy d
ĠCath olics
isia c
Ġwall s
Sen ior
ĠLeb ialem
ĠWi Fi
ĠBus ayo
ĠTem it
ĠFat ai
Americ ans
ĠSch edule
Ġlim elight
ĠOgb eh
ĠPD S
Ġscar ed
fr astructure
Ġsac red
Ġpen et
Ġrev ive
Ġcreat or
Ġrival ry
ĠNob odi
Ġestablish ed
ĠSl ovenia
Ġrelax ation
ĠMount ain
ĠLu iz
Ġpros cribed
Ġundastand in
Ġremind er
onel iness
Afric ans
ĠHy giene
ĠMarket ing
ĠEnvironment al
ĠMam oudou
ĠMir anda
Ġir respons
president ial
Ġeduc ated
Act s
ĠHal ep
Ġcoast al
Ġobject s
ĠProd uction
Mon day
Sah ara
ĠCelebr ity
Eng lish
ĠLie utenant
Ġjihad ists
Ġge o
ĠExcell ence
Ġven ues
Ġkar ve
Ġhab its
ĠUl timate
ĠTel ec
ĠTweet s
Ġtiger s
ĠNev ille
ĠBail ly
Ġindefin itely
Ig bo
Isa ac
ĠAbdulsal ami
Ġvib es
ĠRis ikat
ĠPenn sylv
ĠBarn abas
ĠPow ell
Ġhood l
ĠTij ani
ĠPub lisher
ĠWAT CH
Ġchimp anzee
sychiat ric
oton ou
Drink Festival
Leban on
ĠBia fr
ĠKiri at
ĠFunt ua
ĠPris ca
acetam ol
ĠYugu da
ĠPennsylv ania
B M
B ob
D ubai
E ach
G FA
L ek
N j
S H
S ar
S ource
T ol
U E
U M
V arious
W ife
h um
h ire
h ara
l adi
m umu
n aw
p y
p ics
w at
Ġ uh
Ġd uo
Ġf c
Ġt ief
at ories
Ġp ads
Ġp ple
20 12
Ġb arrel
Ġc ad
Ġc erebral
ar inde
Ġn k
Ġn w
ĠS SS
ĠS idi
st art
et on
ic ia
ĠM oyinoluwa
ĠD os
ĠN TA
Ġr t
Ġr ant
Ġr izin
Ġl ou
Ġl eather
il st
il ap
Ġe pic
Ġgo ss
ĠT all
ĠT PLF
Ġ3 30
am ents
Ġth or
Ġ2 13
ĠB U
ĠB ama
ĠB achel
Ġst yles
ĠV era
ot ekun
ĠP etition
ĠP andemic
ĠP oor
ĠP yeong
ĠE ne
ĠC ards
ĠC indy
ip les
ĠW ade
ĠW right
ĠJ es
ĠJ oke
ĠG an
ĠG ed
ag an
ag het
ĠL og
ĠL aport
Ġpl ague
Ġch ik
Ġch ips
ĠK way
ĠK unde
ĠR and
if ically
art ite
Ġtim ing
Ġapp ar
Ġaf raid
he el
hu ayi
Ġle aked
ud ia
Ġmed icines
Ġag ricultural
Ġtalk talk
25 8
Ġfam ili
Ġbox ers
Ġwatch ed
Ġsp ice
Ġsp ices
iver y
Ġtrans action
ĠIm perial
ĠZ oom
adu a
ĠAr non
ĠTr ial
ĠAl g
ĠAl gerian
Ġ8 26
Ġ19 5
Ġ19 14
Ġsc andals
eh in
con f
con nect
ĠBr istol
Ġcr us
Ġdec ember
ĠOb ed
ĠHar old
ĠQu ad
aj iri
Ġcare ers
ĠAm aka
ull ahi
Ġfl our
ĠRe ason
sh on
ĠAnd oni
ĠAnd erlecht
Ġfinal e
ĠOs ih
ĠBey ond
FC T
Ġem phas
ĠPl c
Ġ17 7
ĠBar nes
Th rough
Ġwater front
Pr ime
uch e
Ġrest ructure
ĠLaw maker
Ġstar ve
ĠBlack face
ĠEb i
ĠPremi ership
ĠCol by
Ġblood shed
Ġcarri ed
ĠMat iu
59 0
59 6
Ġsent ences
ĠKw ab
ĠEd ouard
Ġpolic ing
Ġmod erate
Ġdrag ging
Ġimp artial
ĠOff ences
ĠBam idele
ĠWar ren
Ġval u
ĠNg arb
ĠOd uah
ĠOd uduwa
CO M
ĠKim mel
Ġmis inter
ĠAj ah
ĠYor ub
ĠGar oua
ĠAw ah
Bl ue
ĠKy i
Ġaw on
umb ai
ĠRec overy
unt own
Ġworth y
ĠNet anyahu
Ġlit eral
ĠOlymp ia
quar ter
ĠSay oc
Ġtort ori
ĠTem be
ĠRw andan
riv ate
ĠRet ire
Ġfool s
igation Plenti
Ġrecommend ations
ĠBas in
ĠAth ens
Ġkil ogram
Ġker os
Con f
Ġng omna
ĠSadi ya
ĠMaj esty
ĠCanad ians
ĠOlub unmi
ĠDoll ars
ĠMu eller
ĠCho ose
Ġpassion ate
LO W
gal ink
Ġobser ver
ĠSala am
ĠBeat s
ĠNav igationPlenti
bel ievable
ĠKir k
ĠRh odes
onom y
ĠHak imi
ĠSalv ador
ĠDown ing
ĠRegist rar
ĠGil gal
Ġlamp stand
ĠIdriss a
Ġdeliber ately
ĠAla afin
Ġvit amin
Ġindefin ite
ĠEzen wo
ĠChem istry
ĠEdu ardo
Gab on
ĠPas cal
Akufo Addo
ĠDamb azau
ĠOsib anjo
ĠWrest ling
Ġabort ions
ĠSask ay
ĠEloz onam
ĠOG UN
ĠKyrgyz stan
Had ad
Ġprin ting
Ġherds man
ĠAlv aro
Sold iers
ĠSomal iland
wizkid ayo
ĠProper ty
Eat DrinkFestival
Ġwhereabout s
ĠOkere ke
Ġmisman agement
ccup y
Ġacknow ledge
Ġdorm ot
ĠAkuny ili
Ġcurric ulum
agul anyi
phrod isiac
ĠSyd ney
aghet ti
ĠNgarb uh
5 50
B ox
D D
E ight
G S
H L
H op
I gh
I MA
J an
J ul
L G
M ir
P OR
S l
S DF
T B
T ur
T ry
T oh
b oss
b less
j ides
n x
q i
s n
t el
u in
y our
y arn
z ar
Ġ idiot
on wealth
or st
Ġf oh
an woolu
Ġt om
Ġt amper
Ġs is
Ġs izin
ey in
Ġp ots
Ġfor ef
Ġm aid
it us
Ġg eop
ĠS N
ĠS es
ĠS ade
ĠS ane
Ġo g
Ġo t
Ġh ect
Ġh alla
th eb
th man
el vet
ĠM ong
ĠM ek
ĠM ason
ĠM az
ĠM umbai
ur ious
ol n
ol aji
ĠD ole
ĠN ATION
Ġl eda
ent re
ĠT ree
ĠT ang
se par
ĠF act
ed ris
Ġ2 30
ĠB aff
ĠB ella
ĠV ien
is sed
as les
ĠP irates
ĠC esar
Ġdis gu
ip er
ĠJ olly
ch eck
os ers
os het
ee ee
ag us
ĠH ang
ĠH mm
ĠH ubei
Ġsh uk
ĠU ri
Ġam en
Ġban ger
Ġch ant
ain ts
ĠK ick
ĠK cee
ine z
Ġlo bby
Ġ. ...
Ġaf ro
Ġgr at
Ġgr own
Ġshe ge
ĠCh am
Ġmed ication
Ġor ange
ose ph
Ġag reed
Ġman go
ĠSt ay
Ġbec ame
Ġtin y
Ġstates man
Ġbr ave
Ġregist rar
Ġpart ly
Ġout going
Ġacc ent
Ġatt ire
ĠMar iam
ree ze
ĠAd der
ĠTh an
ĠTh ief
ĠEm ile
of ee
of rin
ens ington
ĠAm ar
ĠAm unike
ĠAm hara
ĠAk uffo
Ġsmall er
PC R
Ġteam mate
ĠRe velation
uss y
Ġdest iny
sh ut
ĠTo gether
ĠBen aya
ai us
jo ice
ĠOl um
ait lyn
Ġfinish ed
ĠGr abar
ĠBar bados
tr ow
Ġserious ness
Pr ayer
Ġpromise d
ron aut
ĠEur os
ĠGu ine
ĠMe ga
ĠSam my
ĠOm oboriowo
ĠCent res
IC C
aph ic
ĠEb oue
ĠOy ew
ĠCom mercial
Ġeight y
ever i
US E
Ġball istic
ĠLib ii
On top
Ġstrik ers
ĠApp lic
ĠMel inda
Ġclean ing
itor ia
Ġsum tin
Sh ogunle
Ġimm igrant
Ġimm ersive
Ġgb ana
ĠKh ark
Pl us
Bl ood
ĠMil ovan
34 4
ĠKy agulanyi
Ġcommand ers
Ġdesign s
ĠKar aye
Ġriver ine
Ġobs ervation
Ġbil ivers
ĠIt akpe
Ġwall et
ĠRead ing
ĠOlymp ique
ĠOw olabi
ĠMa ada
ĠHol idays
ĠAz z
oduc ed
Em eka
ĠOluw as
Ġspons orship
ĠJoy ce
Mar vel
ĠGO T
ĠHapp en
ĠUr ban
Ġreven sh
Ġtab let
Ġcolonial ism
ĠDar ak
Sex ual
ĠKal eb
Ġfem ales
ĠHil ton
eller in
ĠGer rard
ĠFace App
ĠPent agon
ĠFollow ing
ĠTob acco
bet ween
ĠCoc a
ĠCoc oa
Ġterminal s
Gun shot
ĠTos in
ĠLo an
Sim ple
Ġste aming
Ġmirak le
Kill er
Ġsurrog acy
Ġfant astic
Ġpers in
Ġvess el
ĠBC G
ĠKuk ah
Ġank le
ĠDri vers
ĠJehoia da
Ġassass ination
graph y
Ġbarri er
ĠZab ud
akw era
ĠYem isi
Ġprivile ge
Ġannoy ing
ĠSpot ify
ĠPRES ID
ĠIsha q
ĠLip a
atas aray
Ġphilanthrop ist
ĠSebast ian
sak rifice
Ġpy ram
Ġhij ack
Ġmixt ure
Ġgyna ecologist
abot age
ĠMiz pa
ĠDankw ambo
Ġunex pected
Ġfirework s
Ġfoc used
Apr il
lesiast es
ĠDors ey
Lek ki
ilap ia
Ġfamili ar
jides anwoolu
ĠVien na
Ġdisgu ise
7 60
A bs
C al
D addy
E t
E lish
E cowas
K itar
L ay
L abour
M K
M obile
N am
N ana
N AkufoAddo
O jo
P G
S I
T u
T en
T aylor
V D
W in
X tra
b h
c arry
d ok
g at
j en
k idn
l m
m os
m ess
m ata
m ph
p es
r ak
r ange
r aku
u v
w ah
z ing
Ġw izkid
Ġw ider
Ġs anko
at on
Ġp edal
Ġp izza
Ġb achelor
ou q
al ph
it ious
Ġg er
Ġg az
Ġg uitar
Ġn ollywood
Ġn aturally
ĠS UN
ĠS uez
Ġ20 8
Ġ20 24
th reat
ic er
ĠM oment
ĠM US
ĠM illa
ĠM CC
ĠD est
ĠN CC
ĠN atal
ĠN ii
Ġr ashes
im ana
Ġl ied
Ġl iterature
Ġe j
ĠI w
ĠT od
ĠT ut
se galink
ĠF ind
ĠF ert
ĠF ouda
ĠO ye
ĠO BJ
Ġth irteen
Ġin vent
un ge
Ġy o
ac ism
ĠB od
ĠB um
ĠB elle
ĠB uni
ĠB imbo
ad as
Ġbe head
ĠV anessa
as ia
as sed
Ġna v
ĠE c
ĠC atch
ĠC ause
ĠC ultural
Ġdis m
Ġdis member
ĠW ur
Ġ1 38
Ġim ag
ĠG ES
ch allenge
os l
ag ne
ver kus
Ġre charge
ĠH ack
Ġpr eliminary
Ġsh elle
ĠL iv
ĠL over
ĠL ara
ĠL ogo
ill ings
Ġch ew
Ġch airs
Ġwh ose
ab il
oc a
ĠK A
ĠK night
ĠR ama
ost a
Ġtr iang
igh o
ok wu
ah d
ĠMay orkun
ĠY ara
ĠY EAR
app s
Ġbu g
ĠCh akwera
ud d
Ġman gr
28 0
ĠAb ou
ĠNa im
oll a
ond e
ord e
Ġmat ta
ĠIm agine
ĠZ ik
Ġrep airs
Ġrep rod
Ġstart s
ele ke
ĠAr am
ĠAr men
Ġstr ay
Ġstr esh
ĠAl ain
ĠAl ph
ĠAl ao
Ġmar ital
Ġ10 2
ĠDec laration
com ot
ĠBr uss
ĠBr oiler
Ġsm iling
Ġcr ops
ĠEm z
Ġbig gie
ĠSh iloh
aka a
aria m
ĠInst r
sh ire
Ġstat s
Ġ15 1
ĠOl ajide
ĠDr ink
Ġcle ans
Ġconc ession
ĠSp iderman
ĠGr adu
ĠKing ston
Ġ18 00
Ġter r
Ġind isc
Ġdist r
Ġdist rib
tr ot
Ġcompl iance
Ġstand by
ĠOk raku
Ġpray ing
esh bon
ĠPart ners
Ch allenge
ĠGo FundMe
Ġins ults
Ġadv anced
ple x
Ġspeak ers
Ġmanag ing
Ġgl obally
ĠCon stable
Ġdevelop er
ĠWill ian
light s
ĠAmb ul
ĠAmb assadors
Ġten ants
ĠMed ikal
Ġsent enced
Ġel dest
Ġgen es
Ġsn eeze
ĠRam sey
Ġstrik ing
Ġty res
Ġgrand father
Ġcollapse d
ĠBuk ayo
St ar
ĠJud ith
cl ose
IS T
Ar sene
ĠCar les
Ġaccept ance
Ġarg uments
ĠJoseph ine
ĠMac aul
ĠMac edonia
ĠChurch es
Ġdam n
osh on
Ġthreaten ing
ĠTer rorism
ĠHam zat
ĠHam dok
ĠMart inez
Br iggs
ĠOw ona
ĠSpe aking
par ents
ĠKab ba
ĠAsh ley
Ġblind ness
ĠSis i
ĠSis era
Paul Biya
ĠVot es
fr s
iden na
Ġpremi ership
Ġspons ors
ĠPass port
ĠOj uelegba
ĠPress ure
ĠFer din
ĠKor le
Ġsponsor ed
ĠEye witness
Ġlif es
ashe k
oooo o
ĠDum o
Ġapprec iation
Ġhat red
ĠBern abe
Ġporn ography
ĠDance hall
Ġguarant eed
ĠSur in
Ġnarr ow
Day OfThe
ĠMajor ity
Ġdispl ace
Ġagg ressive
Ġschoolg irl
Ben jamin
MB ER
Ġmenstr uation
lead er
ĠAccount ability
ĠDM W
ĠBou fal
ĠMou k
prof essional
ĠLeon ardo
ĠSU V
Ġrefin eries
Ġjealous y
ĠAbdel aziz
ĠAded ayo
ĠFad lullah
ĠConsult ant
Ġframe work
ĠWrit ing
ĠJal ingo
ĠHugh es
col lect
ĠEmil iano
Ġmessen ja
ĠCoup le
ĠErik sen
Ġexcell ent
ĠNeighb our
Ġvo ices
ĠOng u
ĠVers ace
HQ NigerianArmy
ĠMuss ard
ĠRelig ion
ĠAur ier
ĠGyna ecologist
ĠMold ova
Ġincompet ent
ĠNket iah
ĠFrankf urt
Ġsinc ere
Ġtempor arily
Ġhoodl ums
Ġthor ough
ĠLaport e
Ġliteral ly
ĠKhark iv
verkus en
DayOfThe Girl
) "
3 60
A J
C AN
E j
H ey
I ta
K U
L o
L and
M ike
M atter
P an
S um
S aul
S oph
S ym
U G
V er
W I
W alk
Y Z
a for
c ount
f oot
h ot
h undred
l oyd
n at
n ick
n eh
p O
p are
p awa
r ide
r ani
s ocial
s abi
t om
v ict
w r
w ayo
w ota
y ers
Ġ ike
Ġd or
er es
at ively
Ġdi ction
Ġb ought
Ġc oins
Ġc aught
es th
Ġm ey
Ġm omo
it hu
ay elsa
Ġg om
ar os
Ġn ko
ĠS ac
ĠS elect
ĠS ola
ĠS GF
id ges
el odi
ĠM ok
ĠM af
ĠM be
ur ities
ĠD lam
ĠD idi
ĠD ua
ĠN al
ĠN APTIP
Ġr id
Ġl ag
Ġe b
ĠI E
ing u
ĠO zek
ĠO THER
ed ed
ac les
ĠB un
ĠB ek
Ġst y
ĠV eter
ĠV iral
ot ion
ĠE sh
ĠE bere
ĠC le
ĠC otonou
od ia
Ġ1 56
op oto
ĠG ust
ĠG iggs
ĠG aius
ter o
est one
ag ga
out a
ĠH U
ĠH end
Ġsh aria
ĠL ol
ĠL ent
ĠL ost
ĠL ink
ĠU wujaren
Ġv ital
22 8
ĠK G
ĠK one
ĠK AD
re as
ge v
da ugh
ap r
ap son
Ġ2019 11
Ġun block
ĠDi op
ĠDi ocese
ric an
ue hi
Ġpolice woman
Ġkon fort
Ġgr ammar
ĠCh il
ĠCh ick
ĠAf rob
gin ho
30 2
Ġfir ms
Ġinter nally
Ġport ion
ĠMar in
ĠĠĠĠĠĠĠĠ ĠĠĠĠ
pr ay
ĠAr g
ĠTr in
Ġstr angle
ĠAl ab
ĠAl imi
ĠAl isson
ĠLe verkusen
Ġmar riages
Ġ19 49
Ġrec onsider
we i
ĠTh rough
ĠFr uit
ĠShe ba
Ġdec entral
enc er
Ġi Tun
ĠSh o
ĠSh ah
ĠSh emaya
odi um
Ġis n
Ġteach ings
ĠAk ase
ĠRe view
ĠRe actions
uss ion
Ġpar asite
Ġpar acetamol
Ġco z
Ġinvest or
Ġret reat
uct ive
Ġ14 4
ĠBan abas
11 2
ier ce
ĠInter est
ĠGr oss
ĠEl eph
Ġ25 9
ĠSe ag
Ġair space
ye ama
Ġcompl icated
Pr incess
AF U
ĠDen rele
ĠOr thodox
AN I
ĠUN DP
ph ia
ĠMe thod
Ġcheck ing
ĠGb ag
Ġtrain er
Ġhot test
ON Y
ĠEk ema
In s
ĠAy ah
ĠLaw s
ĠCl asico
aph ne
Ġhost ing
Ġmot ors
Ġgl ue
Ġwas n
Ġvacc inate
ĠPh oen
Ġlight s
ĠPol y
ĠEd erson
ĠMor rison
str ange
Ġexc iting
Ġmod er
Ġprovide d
ĠJud y
Ġval entine
Ġident ified
UN HCR
Ġwake up
ĠIv an
Ġmid day
Ġmis yarn
Ġsuper stars
57 8
ĠNd ume
och u
Ġtank s
Ġdevelopment s
Ġey el
Tr uth
ĠDan ladi
ĠTrans ition
ĠMen u
IT UTION
ĠTer ror
ĠDou mb
AMB RA
ĠPal m
ĠPal ava
ĠMb aka
ĠNe uer
ĠAngel ina
48 6
ĠJo jo
ĠMary land
Ġprogress ive
Ġsound s
idel ines
Ġdeep est
ĠSus pect
Ġcred ibility
ĠNine veh
ĠJob s
ĠAC P
ĠChi wet
Ġrap ists
ĠMer ari
Ġren ame
inst ead
ĠConf eder
Ġreign ing
Ġaccus er
uwa it
amad ou
ĠAkinw umi
ĠWell ington
ĠCost ume
ĠMam elodi
ĠTrad er
Ġdonkey s
ora for
ĠOkon kwo
Ġdispl acement
ĠRog ers
Ġwid ows
feed ing
Ġmuse ums
ĠCho ir
Ġmotiv ation
ĠTor onto
ĠVen us
ikt as
ĠGy ampo
ĠGian ni
ĠDer by
ĠRoll ing
ĠExplos ions
ĠHear n
cy cles
ĠBra ide
Ġsem ester
ĠOsin owo
Ġfel t
NCDC gov
Jud ges
ĠNE PA
ĠCoc o
Ġpharm acy
Ġmeg acity
Abd ullahi
ĠUd u
ĠIsmail a
Final ly
Ġliber ation
Ġliv elihood
Ġsculpt ure
adel phia
ĠUgo chukwu
ĠQuest ion
ĠMamb illa
ĠMamb azo
ĠVit amin
Ġabsol utely
ĠTat aw
Ġhyper tension
lif eless
Ġlov ely
Youth s
Ġarmour ed
ĠComed ian
ĠPalestin ian
Ġcorrid or
ĠLI KE
Ġvet ting
Ġbraid s
Ġbund le
ĠStrip per
ĠGaut eng
Ġadequ ate
ĠKouy ate
Wal ter
ĠAlak ija
Elish a
ĠDlam ini
ĠiTun es
ĠDoumb ouya
" ?
3 14
A V
B oris
C ola
D n
E z
G ram
H ESU
K yl
K asala
L ady
M inistry
O O
R ape
S imi
S ylv
b omb
d ates
f eld
l V
p aul
s ick
w el
w ang
Ġd me
or gh
Ġf ell
Ġw o
Ġt ak
Ġs ie
in conclusive
at ise
Ġp ond
Ġp air
Ġp iano
Ġm utiny
Ġg ives
ĠS ect
ĠS ihon
Ġo s
ĠD ent
ĠD ok
ĠN aya
ĠN PC
ĠA ME
il ey
ow att
ĠT HIS
ing esi
ĠF of
ĠO us
ĠO YO
am my
ĠB ost
Ġst unt
is ayo
ĠP ig
ĠP un
ĠP ill
ĠP FA
Ġna u
ĠE yo
ĠC ough
ĠC aster
ĠC SP
ĠC lean
ĠC urse
Ġk in
ĠW as
ĠJ P
ĠJ ef
us ing
est on
ag g
ĠH orn
ĠH eshbon
Ġpr ol
Ġpr est
Ġsh atter
ĠL uz
for get
Ġpl ain
Ġch ol
Ġch ap
oc ratic
ĠK W
ĠK il
ĠK ony
ĠR uk
ĠR ofee
Ġtr im
ĠIn trodushon
ri bers
Ġ2019 23
ĠAn ya
Ġaf robeat
Ġat least
ld e
ME D
Ġman ual
ĠSt amp
ĠTop e
eb el
Ġbr ig
Ġbl ade
ord ination
Ġinter ference
ib aba
Ġhand writing
ek unle
ek aro
ĠIm ams
pr ov
Ġbi ological
ele ase
ĠAr bit
ĠTr ipol
ram a
ĠTh ousand
Ġday light
ĠGover n
ĠHar m
ĠHar iri
Ġjoin ed
af et
af rica
ĠSh isha
Ġrem oving
wa it
Ġis lands
ĠAm ebo
emi obe
Ġwho ever
ĠAk inb
ĠHe z
ade v
Ġhead quarter
uk aku
Ġgu inea
ĠInst ruction
Ġpar l
Ġco al
sh ame
pt om
Ġbel oved
any tin
ĠOl ani
ĠĠĠĠĠĠĠĠĠĠĠĠĠĠĠĠ ĠĠĠĠĠĠĠĠ
ĠOs el
ĠOs unde
ĠInter nally
27 7
Ġpoison ous
Ġroad block
rit is
Ġes plain
Ġair time
Ġair plane
Ġstand s
Ġcre ams
ĠSam ia
ĠSam antha
Ġform at
Ġtrain ed
Ġhope ful
Ch ang
sw ear
Ġtweet er
acc ording
Ġhost age
epend ent
Ġproc urement
ĠBo G
ĠSan cho
ĠMess age
ĠMess enger
ĠMat ters
Ġder by
ĠPol aris
AP GA
usal ema
Ġself ish
Ġpast a
ĠDon bas
ĠIk eme
ĠNy anya
ham s
Ġtouch ing
Ġsan ctuary
ĠReg ister
Ġcal ories
ĠKam ala
mon key
amf i
ĠMo j
ĠGand hi
ĠKim ura
Ġsuper model
37 3
ĠFA Qs
49 8
Ġequal iser
Ġconv inc
Ġdocument ation
Ġ196 8
je i
ĠMak oko
Os cars
ĠUm eh
born e
riv ing
Ġappointment s
Ġtrip le
ĠCel estine
Ġsac r
ĠNam ibian
Ġcolour ful
Ġpredict ions
Ġgreet ing
ĠFar ouq
Ġsubs cription
ega ard
Ġwood en
OL A
ĠColl ation
ĠColl abor
Ġep ilepsy
Ġeth ics
ĠFer anmi
ĠOut side
Ġlif eless
ĠSule ja
ĠEll iot
ĠMarket ers
ĠMas ari
ĠSte ff
Ġly ing
ĠInf act
ĠCam illa
ĠTog olese
Ġaddict ed
ĠKhal ed
ĠFit r
ĠHil da
Law yer
Ġng ondere
hh hh
Ġinfl amm
ĠOlub oyo
Ġdiarr hea
Christ ian
ĠSound city
NGR Senate
ĠAden iran
Ġod ds
Ġsmooth ly
Ġemir ates
ĠKay bee
ĠTob ago
abal ala
Ġfixt ure
ĠBuck ingham
ĠPhilip pe
ĠKel ani
Str ong
ĠMuk htar
ĠActiv ists
Ġcontinu ed
ĠSurviv ors
ĠEy es
Ġassoci ates
LAS EMA
ĠEff iong
Ġraitious ness
ĠAdd ed
ĠSpokes man
ĠAst ra
Ġdaw n
Ġfertil izer
ĠTI ME
Ġabsent ee
ĠOmot ola
FR SC
Ġkonf use
ĠTyr ese
ĠEntr eprene
Ġtreas ury
ĠCorrect ional
Chad wick
Ġfest ive
ĠRai ola
ĠIru emiobe
Ġfrequ ent
Ġapr oko
Ġhelpl ess
Ġgad gets
ĠDong ban
ĠJeb us
ĠRew ane
ĠRail way
Ġcontamin ated
ĠOnyek uru
ĠCapit ol
ĠHS BC
ĠKier an
ĠBiafr an
ĠKway amasta
Ġmisinter pret
ĠFert il
Ġdismember ed
ĠBruss els
ĠFerdin and
ĠOzek home
daugh ter
ĠRofee ha
ĠTripol i
' ',
1 19
5 10
? !
A v
A ha
B a
B ello
C D
C Y
D ance
E E
E le
G P
G reat
J ada
L ook
M ust
N ick
N IA
N eymar
P eru
S ection
S ERAP
T D
U l
W y
b ek
b ird
e ous
f its
k ind
l ack
l ifting
p aw
p read
p ublic
r ete
r iona
t f
t ear
w aju
z ishon
Ġd ual
er oy
on ely
or rah
Ġf ulani
Ġt ory
Ġp ink
Ġb are
Ġb ias
Ġc ab
Ġc ricket
om es
om ising
al uation
ĠS leep
ĠS yl
ĠS SCE
ĠS aints
Ġh ey
ĠM m
ĠM im
ĠM ash
ĠM eg
ĠM others
ĠM azi
ĠM oyes
ĠD ad
ĠD ayo
ĠD ada
ĠN ama
Ġl izard
il igo
Ġgo ogle
ĠT ian
ĠT ib
ĠT eh
ĠT umi
ing ya
ĠF L
ĠF ly
ĠF RE
ĠF ighters
ĠF attah
ep rint
ĠO J
Ġth y
Ġin k
ĠB og
ĠB anda
ĠB unmi
ĠB ishops
ĠB ellerin
Ġst er
ĠV I
is el
is ie
ĠP E
ĠE T
ĠE rd
ĠE ND
ĠE DO
ĠC ec
ĠC ock
ĠC ities
ĠC res
ĠW ada
ir rel
ĠJ ared
ĠJ ourney
op pa
ĠG oma
our g
ee b
est ar
ag h
ver se
ver de
Ġpr ank
Ġsh ithole
Ġal t
Ġal tern
AR T
ĠL if
ĠL ang
ast ruct
ort ivo
ear e
Ġan a
ain de
Ġpass words
ab ag
ĠK off
ĠK uwait
Ġab ol
ĠR untown
if ace
Ġme al
ec oming
ap ova
iv an
iv ir
ie u
ie gbu
Ġj are
ors o
Ġlo k
Ġex empt
Ġun married
ĠDi ya
Ġat roc
ĠY er
ans k
ĠCh apter
ĠCh outa
Ġway lay
Ġturn out
ĠAb ish
ĠAb ijah
ob ye
Ġdress es
Ġen lar
Ġout ing
Ġout let
Ġout fits
ĠZ e
ĠZ ar
pr ud
ĠTr emor
Ġstr aw
ĠAl ess
ĠAd om
Ġsc ent
Ġback yard
ĠFr ances
omm ate
Ġsm ash
ĠOb s
ĠSh adow
Ġland mark
ester ol
uk ka
Ġpo em
Ġpo zishon
Ġstat ues
Ġdestroy ed
Ġmillion aire
ĠOl ab
ĠIf edayo
ĠDr ive
Ġcontin ental
Ġred i
Ġopp oz
ĠChrist ine
ĠDavid son
ĠSp ears
ĠPl atform
ĠInter view
Ġreturn ee
ĠYu an
Ġind ig
Ġind eed
ark s
ĠOk orafor
ĠNorth east
Ġform a
rid ges
Ġprov incial
ĠMos lem
ĠST D
ĠAy ine
ĠLaw ani
Ġhost ess
ĠOy igbo
ĠCon stant
Ġpriv ately
US D
Ġforeign er
AP E
ĠSc reenshot
Ġcomplain s
Wen ger
Ġgreat ness
ĠDo ja
ĠOd egaard
bl ood
Ġmis use
57 9
ĠAbdul rahman
dr ink
Ġcirc les
trod uce
ĠAkin n
Ġyan fu
Ġcouncil s
br ight
Ġsch emes
Ġthreaten ed
ĠWin frey
Ab ub
ĠNk wen
ĠAbdull ah
ĠGab ri
Ġaut o
ĠJo ash
Ġship ping
Ġgener ators
ĠSch emes
ĠPerson ality
Ġslow ly
Ġtro op
ĠArtist es
ĠFlor a
IL Y
ĠLat via
ĠAch raf
Ġign or
Ġpros pect
Ġkwesh ions
ĠKor ah
Ġelder ly
ĠDum elo
Ġdoes nt
month s
ĠEll is
ĠSa o
esl im
UT ME
Ġtrail ers
ĠReb ekah
Ġir rit
Bab ilon
Law yers
Nor thern
Par ents
Ġpartial ly
Ġextrad ited
Minister ial
hour s
Ġstruct ures
Ġvac ation
Ġemir s
ĠBeat rice
ĠStop TheSoot
des ivir
ĠDeath s
Ġdiagn osis
ĠSeparat ist
fun ny
bet es
ĠSha un
Ġeleph ants
ĠDC P
Ġdy ing
ĠBush iri
Bet ween
VER N
ĠEld er
Ġdemonstr ators
ĠMerc edes
ĠZen ith
ĠRab bit
egu et
lik ely
ĠImp ala
ĠFre eman
ĠWaz obia
Fal z
Ever ton
ĠUb ang
Ġadministr ators
ĠBats huayi
ĠOFF ICE
Ġrecon struction
Olym pic
Gold en
Ġdyn am
ĠLabor atory
ĠZur ich
ĠTeju oso
Muh ammadu
Ġcontrib utions
Ġenh ance
Ġcert ified
uber culosis
Ġpanc reas
ĠVir gil
ĠYouss ouf
criminal s
Ġpersec ution
ĠPOL ICE
Bus iness
Member s
Ġgendar merie
ĠDub lin
Ġgrav eyard
Kidd waya
ĠZamb ian
ĠGit mo
ĠSustain able
Separat ists
Ġbast ard
Zen eca
Yak ubu
Ġfung us
Ġirrespons ible
Ġgeop olitical
ĠMUS IC
ĠSurin ame
ĠIE BC
ĠKAD UNA
ĠPhoen ix
Ġabsentee ism
1 17
5 19
5 58
A BUJA
C ond
D ou
D ead
F in
F el
F ew
F DA
G al
H M
H ear
J I
J un
J ournal
K atsina
M n
M oni
N k
O oni
O lamide
P eace
P VC
R ef
S K
S urv
T P
T s
T ony
W D
W ater
W ahala
Z Z
b ound
b ala
b eta
b acked
d ino
g ue
h uman
l ai
m art
p at
p aid
p enter
r ule
t ot
v iol
w ole
z hou
z eguet
Ġ il
Ġ uter
Ġd umb
er ec
on line
or am
an le
Ġp es
Ġp encil
20 10
Ġb er
Ġb ites
en icious
Ġa xe
es ians
em aker
em ployment
Ġg als
ar au
ĠS uk
ĠS ession
th ink
ic ycle
ĠM AS
ĠM OU
ĠM aps
ĠM oura
ur um
ĠD ove
ĠN day
ĠN iam
ĠA wu
ĠA way
ĠA BC
ĠA xe
Ġr il
Ġr ack
Ġr otten
Ġ2020 21
im ota
ĠT iv
ĠT actical
ĠT ett
ĠT eslim
am aka
Ġ2 26
ĠB end
ad wo
ot ed
Ġfr anc
ĠC ars
ĠC arry
ĠC attle
Ġk ai
Ġk attle
ĠW ah
ĠW AFU
ĠJ ad
ĠJ abi
op us
ĠG ast
ĠG ET
ĠG erm
ĠG aza
os ile
Ġre joice
ĠH od
ĠH air
ĠH awa
ĠH utu
ĠH iram
Ġal ign
ĠL ele
ĠL ere
ĠL lor
ĠL IVE
ĠL UTH
ĠL loyd
ass ane
for ward
ori ans
ori sed
Ġwh is
ab z
ab olic
ĠK E
ĠK et
ĠK ap
ĠK epa
ĠR t
ĠR uto
iv ate
ie k
Ġj esus
Ġj amb
ĠPr omot
ĠY ass
ĠY PP
ĠY BNL
Ġbu bble
Ġbu ilt
Ġgr oc
hu d
Ġup s
Ġall ah
ĠCh ance
wo bi
Ġar th
Ġman power
ĠAb ah
og wu
Ġdress er
Ġdat abase
ew aa
13 8
ĠDem ola
ĠZ ay
ĠJu ice
Ġstr ongh
Ġcandid acy
ĠAd ef
bo ards
ĠQ amb
Ġ19 3
Ġ19 47
Ġcomm ence
Ġsc ary
Ġsc roll
Ġrec ieve
ime ji
ich el
Ġover load
ĠEm power
ĠQu art
les sed
ĠSh ear
ĠSh abalala
Ġcount down
Ġoffic iate
ĠComm un
ĠUS D
ĠSund owns
Ġfl o
Ġunder mine
Ġhead ed
rik h
Ġgu bernatorial
adi Girls
ĠSo chi
ĠSo jas
Ġthr ash
ĠId em
Ġrel iable
ĠOl ise
Ġdef lect
Wh ats
ĠDr op
Ġtest ed
Ġpre v
ĠInter sex
ĠInter nal
14 9
ĠDor cas
ĠEl ton
Ġreturn s
Ġinst itute
Ġla under
tr ans
tr ade
Ġoper a
ĠEn enche
Ġsl um
ĠOk w
bab alola
ph ones
Ġburn s
ĠMe zaya
ĠAh it
ĠAh enk
Ġrest oration
Ġtrain s
Ġprov inces
ĠPart ies
Ġcoll ision
ĠCo operation
ĠPap er
ĠPap ua
Ġdraw n
ann ah
ĠBrit ney
ĠJer ome
arr ell
Ġbur den
ĠBank ole
Ġexam ples
Ġcut ting
ĠCom plex
Ġelectric al
ĠPh yno
Ġbill ing
Ġeas iest
SS E
ĠHer ero
ĠCont emporary
ĠRam s
ĠRam ot
ĠSol ange
upr em
Ġdesc end
60 7
Ġadvise d
ĠOff side
Ar thur
ĠNg ute
Ġamb itious
EA L
Ġtourn aments
ĠSim ona
37 4
Ġdam aged
ĠTrans mission
ĠTer rence
ĠAkp eyi
Ġjoll iment
ĠFore x
ĠCardi ology
dis c
Ġfair ness
ĠJac ques
ĠDes ert
ĠBad mus
Ġdelay ed
Ġtight en
Ġloc ated
ĠCal vin
igen es
ides pread
ĠEt im
ĠAlexand ria
Ġinform ed
ĠFlood ing
ĠOx fam
ĠBer g
ĠBer ger
ĠMust afa
Ġseek ers
ĠEj uke
Ġtab lets
ĠSun ni
ĠChe f
ĠBern ad
Ġvigil ant
ĠConc ept
ĠInf antino
ĠMem orandum
Atiku Plan
ĠMill enn
Cl ick
Ġopin ions
Ġkil owatt
ĠBul ama
ĠTre zeguet
wan ne
Om oyele
Ġbarr els
ĠCoun sel
Ġepis odes
Ġlegisl ation
Up date
Lion heart
Ġrefin ing
IF E
ĠSand ra
ĠNs ukka
Ġlegit imate
ĠEg usi
mel aye
abal aga
Ġslang s
ĠOlad ipo
ĠAlb ania
Ġfrustr ated
Ġconfront ation
Ġstig mat
ĠInvestig ations
Ġchampionship s
Next Level
Ġentrepreneurs hip
Ġcath olic
ĠCab ral
ĠLamb orgh
Final s
ĠAsher ah
FG M
ĠMult i
ĠHebrew s
Ġov aries
Ġpul pit
ĠGon z
ĠConsolid ated
edal aya
Ġank ara
ĠAbdulsal am
ĠEntr ance
ĠJehoia shin
Ġmagn ate
Hel p
ĠYong gi
Omo juwa
ĠPhill ip
ĠPam ela
ĠAssoci ated
ĠTomm ey
ĠHun ger
ĠAdetun ji
ĠHail ey
ĠPath ao
Ġsubsc ribers
Ġstabil ize
ĠAmbazon ians
ĠVar ane
ĠSick le
Ġsymb ols
Ġsne ak
riz abalaga
Europe an
ĠTanz anian
Bud get
Ġmalpract ice
Ġsau ce
Wood berry
Ġperpetr ators
Ta adiGirls
mix ers
Ġgoss ip
Ġvalu able
ĠKA ZE
ĠArmen ia
ĠBernabe u
Ġchol esterol
Ġparl our
Ġatroc ities
erec ruitment
ĠQamb rani
A side
D aily
F S
F RA
H y
H osea
I JA
J ennifer
L ondon
M et
M all
N IN
O j
O thers
O yo
P ress
R ice
S elf
T onto
T UC
V ote
W el
Y a
d h
f ection
f arm
h ol
k ach
k orate
u art
Ġ elev
on kye
Ġt ally
Ġt une
Ġt sun
Ġt orso
Ġs essions
Ġs uprem
at ian
Ġb aux
en th
Ġa ides
Ġc af
it able
Ġn igga
ĠS OS
ĠM aw
ĠM wa
ĠM ater
ĠM ira
ĠM undi
ĠM found
ig ious
ĠA J
ĠA EK
Ġr ams
im ents
Ġl unar
Ġl oneliness
ent ed
Ġe i
ĠI weala
ĠT ay
ĠF ield
ĠF enty
ĠF ocus
ep age
ĠO ccupy
ed iction
ĠB ent
ĠB ok
ĠB ai
ĠB amb
ĠB TS
ĠB ovi
ĠB razzaville
as elf
ĠP ension
ĠP ichai
ĠE him
ĠC L
ĠC ul
Ġk an
ell ect
le ave
Ġde korate
ch ain
ag ye
ĠH eat
Ġsh ack
ĠL ance
ĠL oom
ĠL itt
ĠL afiya
ĠU bi
ĠK ed
ĠK ensington
re ens
Ġget s
ĠR ig
ĠR MD
ĠR alph
Ġ2018 2
Ġcon do
ĠIn come
Ġpat riotic
end ra
eat ed
Ġun e
Ġun follow
her d
av or
Ġgr oove
ĠCh ider
ud j
Ġmed allist
hana eze
Ġcar di
Ġkn ees
ony mous
An ton
ĠNa a
ĠNa zi
Ġbr idges
Ġen qu
Ġsp in
Ġnor fit
Ġad vent
Ġout s
ĠIs real
ĠFor ward
ĠAr rizabalaga
Ġbet ting
ĠAd enta
ĠLe Bron
man go
Ġ19 59
ĠAs af
Ġinc idence
ang ol
56 8
com a
ĠBr anch
eg unle
Ġsupport ed
ĠSh aku
Ġgood bye
ĠAm otekun
For bes
Ġend ed
Ġend sars
leg es
az ard
uk ere
Ġdest inations
Ġsign atures
emb ong
emb ourg
Ġright eous
Ġ15 00
Ġlist s
Ġfinal ists
aim s
ĠDr ille
ĠOs aze
Ġcontin ues
Ġfinish ing
Ġsur f
ert aker
ĠBl atter
Ġfeel s
ĠGr iff
Ġter ritories
Ġlocal s
Ġvisit ing
Ġkind ly
Ġoper ator
uch el
ĠEn ang
Ġsuccess or
Ġcons ign
Ġcons ulate
gr ad
Ġcoll ate
ĠMos ques
ID E
ĠOg ulu
Ġhome work
Ġexp ired
Ġdel eted
ĠSal iu
Ġvirus es
Ġhar p
ĠSav ior
ĠCon struction
ĠCom bs
Ġsexual ity
59 3
59 5
que en
ĠItal ians
Ġprost itutes
Ġterm inate
ĠCr uz
ham ed
Ġgrand parents
aji uba
ĠOrgan isations
ĠVict ory
ĠRiver a
ĠCar lo
ica o
To Run
bl ower
Ġmass es
Ġproduc ing
Ġhail ing
br and
ĠTim o
ĠTim etable
ĠAp oll
Ġsym ptom
IT Y
ĠTer wase
ĠGun shots
ĠAkwa aba
Ġquarter final
Ġrecogn ised
Ġmourn ers
oom son
ĠJew ish
Ġdisturb ance
ĠCons ulate
ĠCamp us
Ġband age
Ġorganis ing
ĠPerson nel
Ġstra it
Ġcy cling
riv o
ĠDj ibril
Ġtraffick er
olas ade
ĠGal atasaray
Ġsurround ed
ĠJen ifa
Ġbal d
ĠGO VERN
Ġcompet ent
ipp ers
Ġkare ful
ii i
ĠKor an
ĠKor ra
Ġmus cles
Ġexist ence
ĠChe v
ĠMarvel ous
ĠGoal keeper
Ġmanufact urer
Ġque ens
ĠBabat ayo
Ġloyal ty
nn nn
Inter net
ln s
ĠSn r
Ev ritin
Ġaeropl anes
Ġcomplet ed
ĠArch itect
Ġnin eteen
ĠBot ch
ĠScott ish
Ġauth orise
Ġprovid ing
Ġentertain ers
Ġregard less
Ġod eshi
Ġther apist
ĠDominic an
ĠRoll as
ĠDram ani
Ġsect ions
ĠSU BST
ĠIss ah
Mal awi
ARA WA
ĠKad esh
Ġdetect ives
Ġpharm ac
Str ange
ĠPlat inum
Pol itical
Bet ter
Ġimmun ization
Ġcler k
Ġcler ic
ĠWrit er
ĠJor ginho
ĠElk anah
ĠDol apo
etz ky
ĠEzen wa
Osh iom
ĠVis ual
ĠDri ver
ĠAmo ah
ĠLO VE
Ġreduc ing
Laur estar
Ġhor rible
ĠTreat ment
ĠFalcon ets
BringBackOur TaadiGirls
ĠJez rel
sav ant
Ġuncon stitutional
ĠBes iktas
ĠBI YA
ĠEss ence
bai jan
Cong ratulations
Ġvibr ator
ĠSot itobire
Ġrescu ed
Ac ad
egbu a
Steph en
ĠQualif ier
Normal ly
Ġaccur ate
Ġcraw l
ĠBrent ford
ĠTemit ope
Ġchik ala
ĠQuad ri
Ġtriang le
ĠEmz olyn
ithu ania
ĠTrin idad
ĠAlab ama
ĠSect ions
ĠArbit ration
ĠOsel oka
ĠKoff i
ĠNday ish
ĠNiam ey
Ġbaux ite
ĠMfound i
ĠChider a
ĠSUBST ITUTION
1 24
5 17
5 29
A do
A WCON
B i
B asket
B eyond
C reat
C yr
E G
G M
H ome
I ke
J im
J ord
L ew
M p
M ill
M tschew
N R
N om
N ine
O il
O ld
O ya
R ich
T em
T ax
U z
V RT
Z K
b od
c ribe
c ano
c ologist
f aith
h om
h ia
h attan
k oll
k ings
m ag
n om
p ost
t ribe
w as
w ari
w ind
w ild
z es
Ġ urg
Ġd ort
Ġd upe
Ġf one
Ġw ak
Ġw ah
Ġs ept
ey ards
Ġdi gest
Ġp ik
Ġp oultry
20 11
Ġb b
Ġa unt
Ġc c
Ġc uz
es aria
Ġm aps
Ġm unicipal
it ic
it uary
ĠS ou
ĠS ew
ĠS AF
ĠS HO
ĠS orry
ĠS anni
Ġto e
st ery
el ius
ĠM eh
ĠM idd
ĠN ak
ĠN IA
ĠA ke
ĠA dah
il ement
ĠI ya
ĠI ria
ĠI yamu
ĠI UD
ow ler
ĠT ag
Ġdon or
ĠF ors
ĠF ountain
ĠF ashek
ep e
Ġin ch
un ning
ĠB IR
ĠP O
ĠP y
ĠP anti
ĠP oco
ĠE edris
ĠE rivo
ĠC ama
ĠC abinet
Ġk old
Ġk idd
Ġk oins
Ġdis charged
ir ing
ĠJ uma
ch er
ch ten
ĠH av
ĠH amm
Ġsh ance
Ġpip e
ĠL ock
Ġv est
ain d
Ġwh ip
ab and
ab led
ĠK K
ĠK un
ĠK ib
ĠK uje
ĠK achi
ĠR ad
ĠR aji
ĠR umour
Ġcon ven
um ma
ff i
ĠIn land
Ġwell being
ors i
Ġmy ster
ĠAn a
Ġun professional
Ġdr ill
ĠY ank
ĠY iadom
ĠY cee
ach es
Ġlike d
he aven
hu b
Ġup set
Ġag ri
Ġneed le
Ġar ena
Ġar rived
oy ede
ĠSt arr
Ġhapp ily
28 9
ub abel
ĠAb r
ob by
over eign
pl eted
Ġbl ues
Ġte ase
ga i
Ġent ries
ib es
ount ries
Ġ16 00
ĠAd jei
Ġ19 40
Ġ19 48
Ġ19 51
ĠAs ari
ash ina
Ġcause d
ww ww
ĠBut akor
af an
ĠSh ep
Dem ocracy
Ġnot able
au coma
apa ah
Ġwar lord
Ġcollect ing
Ġcollect ive
Ġco at
sh ey
ĠAnd ela
Ġ15 4
jo ke
Ġfree kick
ĠOl arinde
ĠDr agon
ĠBl og
Ġconc o
Ġass emble
Ġroad side
12 6
me ichel
ify ing
ĠBar ker
Ġmarket er
ĠGu idelines
ĠOk ochu
ph ys
ĠBe ji
Ġph ane
Ġexper i
ĠSam ira
Ġcampaign ers
ĠEx clusive
ĠLeg acy
Ġac ute
Ġcoll ab
ĠTe odoro
ĠMoh ammad
ĠCl eric
ĠPar asite
aph at
ĠEb ele
ĠEb uehi
ĠPremi ere
Ġwon jure
Ġmanag ed
ĠCon or
ĠCom ic
te es
Ġsent encing
Ġmag u
Ġkw ensh
Ġrepl ay
Ġawa iting
He avy
ĠSol ution
NG A
break ing
Ġdrag on
Ġimp ot
Ġclass ic
Ġperiod s
lym outh
Ġz onal
ĠWar ere
Ġaccept ed
ĠUs her
Ġneg lig
ĠJe ep
Ġmad ness
Ġmal es
ĠAny bodi
ĠAkin y
ĠAN AMBRA
ĠAw ad
ĠRobert son
At ta
ĠGram mar
ĠHam za
ĠGen esis
umb ali
ĠPlay boy
off enheim
ĠNe va
ĠNe gev
ĠComp a
Ġfellow ship
Ġcolon ise
ĠAnn ual
sp irit
ĠAli ou
Ġdifficult ies
ĠBet is
ĠAdv oc
Ġtort oise
ĠOke owo
Ġfill ed
ĠKab ir
ĠKab aka
ĠSch meichel
ĠBad agry
ĠUm rah
ett es
Ġroyal ty
RE X
Ġchalleng ing
Ġdisappoint ing
ams ey
ĠCond itions
ĠHen rikh
ĠEt ete
Ġcast le
MT N
Ġill iter
ĠEle k
ĠUr h
fortun ate
ben ga
just ice
AG E
Sp anish
Ex ecutive
Ġveget arian
Ġcart ons
isc ope
ster dam
Gu aranteed
Ġinstr uments
Ġparent ing
ĠLaur en
ĠLaur ent
ĠWhit enicious
ĠKash im
ambo o
Too Young
ĠDut se
Ġembarr assing
iac os
Ġcould n
ĠTor u
ĠDer ek
ĠForm ation
Ġca ucus
ĠJeho iakim
prof it
prof ile
ĠSand ers
ĠMA X
Ġanoint ed
Mal aria
ĠKend all
ĠMarse illes
ĠAlb ino
ĠNini ola
ĠGnassing be
Ġtomat oes
Ġsymp athy
attack ing
ouf ou
Gar Shehu
Ġshel ters
ĠSE Y
ĠClaud io
Se un
Ġprovision al
ĠTa ekw
ĠConcern ing
pay ers
ĠHard ing
ĠUdom a
ĠColumb us
Bel gium
ĠMAR CO
ĠNat asha
ĠDin amo
ĠFarm ers
ekw ere
Ġinh ale
ĠNass arawa
ĠCreat ive
Ġinteract ive
ĠCur few
ĠMig os
ĠArin ze
Odo i
ĠSkill z
Mens em
ĠTreas ury
prost itutes
ĠTerm inal
ĠAld o
Ġolu wa
eteor ological
ĠSpart ak
Ġsupervis or
ĠSull ivan
Ġez ample
Lives Matter
inis ce
ĠPant ami
ĠReek ado
Ġfootst eps
ĠSap ele
ĠWid ow
Ġcad et
ĠAlg iers
Ġhect ares
ĠUri aya
Ġlied an
Ġdistr oshon
ĠGbag ada
ĠBost on
ĠKony aspor
Ġbrig ade
ĠGovern ance
Ġinflamm ation
Abub akar
Ġril ashons
ĠCommun ist
Ġtsun ami
ellect ual
ĠLitt oral
ĠNdayish imi
chten stein
TooYoung ToRun
A th
B eat
B auchi
C A
E qu
F ela
H Y
M c
N as
O D
P a
R og
R oad
R ights
S W
S us
S DP
S okoto
S wed
T in
T MA
V al
W a
a an
c ap
c ards
e ight
e zi
f und
j ie
k ov
l og
n ear
r iday
s il
s ize
s elling
u ana
z en
z ee
z zy
Ġ ou
Ġ iv
Ġd l
Ġt an
Ġt isha
Ġt umble
in tr
at ography
Ġp urse
Ġp afuka
20 22
Ġb ases
Ġb ark
Ġc ord
Ġc abal
Ġm ak
Ġm ere
om ic
om ination
ar med
Ġn c
Ġn erv
Ġn ylon
ĠS omb
ĠS HE
ĠS ansa
ĠS gt
and ro
Ġh idden
st ep
ĠM S
ĠM odi
ur as
ĠD ede
ĠD onga
ĠD aphne
ĠN Power
ig ibility
Ġr ag
Ġr iding
Ġl ique
ent ina
ĠI da
ĠT Y
ĠT ool
ĠT ud
ĠT eb
ĠT odd
ing y
ĠF O
ĠF oot
ĠO va
ĠO sa
ĠO di
am uno
Ġth igh
Ġin iti
ac er
ĠB Y
ĠB ode
ĠB IG
ĠV ie
ĠV ert
ate e
as ki
ĠP ique
Ġk ap
Ġk ook
ve e
Ġcom it
ĠW ays
ĠW esco
od ua
ĠJ eg
ĠG eh
ĠG edalaya
os on
est ation
Ġas hamed
ĠH ern
Ġsh ap
Ġsh irts
ĠL us
ĠL ess
ĠL ah
ĠL anc
ast ing
ill ian
Ġwh ilst
Ġab t
ĠR oland
ĠR anking
Ġtr act
und ipe
ĠIn frastructure
ak k
qu ito
ĠPr inc
ĠPr obe
ĠAn sah
ĠDi eng
ĠDi jk
Na omi
ĠMay a
ĠY ous
Ġup to
ĠCh a
ĠAf egbua
Ġar k
oun a
ĠSt ones
Ġhapp iest
ĠAb oudi
Ġwork place
ise xual
Ġse em
Ġhe el
Ġsp oon
Ġsp rink
ord on
Ġtrans formation
iz ia
iz ers
ĠZ o
ĠZ am
irl ey
ĠUn i
ath i
anc ies
Ġ7 50
ĠAl cohol
ĠAl aves
ĠAl assane
Ġhel met
ĠAd mission
ĠAd han
oup e
ĠAs ant
ang ana
Ġhelp ing
nor thern
Ġcourt room
ne ver
ĠDis placed
ĠAir craft
list in
ĠQu ality
ĠMan ufact
Ġis ol
ĠAm sterdam
ĠInst it
Ġpar rot
ĠTo chukwu
ork or
ai h
ai ya
Ġfree zer
Ġdef ilement
ĠOn ne
Ġpopul ous
Ġcontin uation
Ġ0 2
ush ing
Ġear ned
ĠCourt s
Ġaccording ly
work ers
Ġcent uries
omot iv
ĠSe ir
ĠOr al
ĠGu at
ĠOk ah
AN CE
ph oon
ĠBe ast
Ġhard est
Ad en
ĠGb agbo
Ġiss u
Ch ika
Ġcorrect ly
Ġro ommate
In formation
Ġsaf er
Ġhalf way
ĠOy ongo
ĠCon ce
Ġcontr aband
ĠDel ivery
Ġtax payers
ĠMat ic
ĠMag gie
ĠCO ME
Ġel bow
ĠFl u
reg ister
ĠKw asi
inc luding
Ġdoz en
mar riage
Ġthank ful
Ġdeb ts
Ġpriest ess
Ġpoll uted
osit ive
Ġcover ing
ĠDon nar
ument al
Ġblow s
ĠNw ajiuba
Ġsan it
Ġimpr ession
Ġclass mate
Ġtechn icians
ĠVict im
ĠNg wa
BBC Pidgin
Ġcondemn ation
ĠNd uka
Ġperc eption
Ġyan ga
Ġpan els
fl ict
ĠYa o
Ġpub lik
Just in
ĠHam at
Ġrespons ibilities
ĠAkwa za
48 9
Ġfix ing
ĠDia betes
World Cup
Ġconcert s
Ġpot opoto
ĠKardash ians
Ġche er
Ġimpl icate
ĠCH I
Ġadjourn ed
ĠDj iku
IM N
ĠRel ated
Ġkp afuka
ĠBon iface
ĠFun milayo
ĠAud it
Ġestablish ment
abar an
ĠKa unda
ĠUnder standing
ĠVal verde
Ġstor ms
ĠGom orrah
Ġbrief ly
Ġcounter feit
ĠKom uro
ĠRoh ingya
Ġspot light
Ġspec ifically
Ġabs or
ĠAgu ata
ĠLas ema
ĠChe ik
Sp irit
Ġtee thing
ĠBa asha
ĠDar amola
ĠBry an
ĠSab rina
ĠSmall ing
Ind ependent
Cl ar
Ġconvict ed
ĠTam my
ĠFel abration
ĠHil ary
ĠHil kaya
Ġnurs ing
Te chn
Ġagg ression
happ iness
Ġinit iate
ĠFab assou
ĠON E
ĠON LY
iak os
ĠGy amfi
ĠLet ter
Ph il
Ġther es
Ġll ke
ĠPil gr
Ġpish ures
ĠSala u
Ġretail ers
su ffer
des ign
ĠAccess ibility
Fl ag
ĠAded oyin
Ġdiamond s
ĠNaz ar
ĠStall ions
ĠLev ante
god s
ĠHak ainde
Ġlaptop s
ekun ola
Ġwheel chair
Ġcaus ing
Ġast ronaut
ĠDim it
ĠBant amweight
ĠClass ical
Ġdeliber ate
Ġliv estock
ĠQuest ions
Ġpilgr ims
Ġlip stick
Ġniger ians
Og undipe
Ġmislead ing
Lev itikus
ĠVis it
Ġtow el
cult ism
oriz on
ĠTir op
Ġbarri ers
then ff
Tw enty
Ġhor ror
Ġchrist mas
ĠHaf iz
Ġeg usi
Ġaccompl ish
ĠChang es
ĠOrig inal
ĠNwak ali
ĠAkh igbe
ĠTaf awa
ĠPear l
Ġcontrac ept
fol io
ĠFidel is
ĠGhisl aine
Ġtelev ised
ĠOghen ekaro
ĠPiss etzky
ĠGers hon
ĠBind ow
ENS HOT
ĠMsw ane
ĠKis umu
Ġseiz ure
Camer oun
Ġsincer ely
ĠBachel et
separ at
Gram my
ĠFof ana
Ġalt ars
Ġindig ene
Ġuter us
Ġgroc ery
ĠCama ir
REX IT
ĠNdayishimi ye
ĠAdhan om
? .
B reak
C andid
D om
D am
D ER
E qual
F est
F ight
G MT
H eart
J ie
K a
K ey
K um
L es
L iga
L ukaku
M ak
N F
P I
Q U
T or
T our
T imes
c ost
c up
d it
f ielder
g ou
g ust
g ra
g bo
g reen
h arm
h agen
i ott
j ohn
k ol
k pe
m inister
m aking
n h
o ah
p he
p rison
r ent
v ation
w eda
w ane
w oship
y iwa
Ġ ic
Ġ !!
or es
or ra
Ġw idespread
in ee
Ġdi abolic
Ġp und
Ġp eop
Ġp istol
20 14
Ġc asket
al ke
it ement
ĠS ulu
ĠS overeign
st et
st aff
ĠM ia
ĠM ul
ĠM oss
ĠM oseph
ĠD ans
ĠD ES
ĠD auda
ĠN for
ĠN ative
ĠN SCDC
ĠA I
ĠA chi
Ġr ib
Ġl adder
Ġe in
ĠI PPIS
ĠT hu
ĠT uchel
se we
ĠF ub
ĠF ingesi
ĠF owler
ĠO go
am al
ed ing
ed ad
ĠB ound
ĠB ird
Ġst air
Ġst uck
Ġst eel
ĠV ic
ĠE swat
ĠC er
ĠC arr
Ġk a
Ġdis rupt
le in
ir s
Ġ1 46
ĠJ idenna
Ġim ams
ĠG ur
ch em
ut s
ag be
ĠH ist
ĠH iv
Ġsh ips
Ġal coh
ce f
ĠL L
ĠL ane
ĠL ima
ĠL CC
Ġam put
Ġban j
Ġpl ug
ab ir
oc can
ĠK ov
ĠK rist
ĠK affy
ĠK oomson
Ġab normal
Ġdo odle
ĠR y
ĠR az
ĠR IP
Ġcon ventions
und o
um n
up h
Ġoda wise
ak un
ak ari
end iture
ack er
Ġj etty
Ġj oking
Ġwor m
ĠPr os
ĠPr esid
Ġun cond
ah aya
ĠY ale
ĠY awa
app r
00 2
Ġtell s
ĠSt ep
ony i
Ġbuy er
port or
ind o
ĠAb ang
Ġfir es
ĠJos iah
eb ration
Ġbox es
Ġbr oth
ĠJun gle
Ġcl ergy
Ġcont emporary
orn e
Ġplay offs
Ġoff ers
Ġhand ling
Ġout line
Ġout lets
Ġport folio
Ġyour s
ĠMar ry
ĠJan ine
ĠTr uck
ĠTr acy
ĠAl amy
oh am
Ġqu ite
ĠTh emb
ĠShe b
ĠDec lare
Ġover power
Ġprot ester
ĠHigh lights
uc ed
ĠSh ady
ĠSh irley
ens ikin
odi q
Ġis lam
ĠAm usan
ps y
az er
uk ari
Ġpo et
Ġdest abil
sh i
ĠSo ja
ĠBen edict
ĠNew man
Ġprotest ors
ĠAss imi
Ġdef ile
ĠOn ome
ĠBan jo
Ġ0 9
Ġ13 3
Ġconc ept
ĠSp eech
27 25
14 8
Ġ17 9
Ġnational ist
ro x
Th omas
Ġind igenes
ĠSuper man
ĠSuper Sport
olog ies
ĠOk h
Ġ27 16
Ġgun ners
Ch i
ĠAg nes
ĠAg ricultural
Ġsw ing
Ġexp at
ĠBi ology
Ġhol es
Ġremember ed
Ġfly over
Cameroon ian
AP P
ĠKw adwo
Ġtog eder
Ġdoctor ate
ĠMor occan
Ġbirth s
ĠSol o
open hagen
Ġprep aid
RIC AN
Ġdesc ribed
Ġtechn ician
ĠOd e
ĠOd ukoya
ĠOp ebi
ĠAj ara
Ġemploy ee
ĠAkin f
ĠAkin ola
PEN G
fort able
ĠTim ini
ĠNow adays
APC Nigeria
Ġdesign ers
Ġbomb ings
Ġfac ilitate
ĠGen k
Ġshout ing
ĠSy nd
Ġ37 1
Ġaccess ories
Ġpred ec
Ġgat eman
ĠDia ck
Ġoffer ing
Ġconduct ors
ĠSil icon
Ġtowns hip
ĠUz zaya
EL E
ĠDam as
ĠWith in
Ġdeport ees
Ak p
Ġexcept ion
Ġexcept ional
ĠMik aya
Ġwalk out
Ġvarian ts
ĠLyon na
Ġattract ion
Ġattract ed
ĠAud itor
ĠIy iegbu
Ġcompet ence
Ġpur ge
ĠCy cling
Ġinform al
ĠPM B
ĠPM S
ĠTom isin
Ġcyber crime
pose d
Ġhat ers
Ġtoll gate
ĠTax i
ĠEgb uson
ĠShek arau
Ġsmart est
Ġrever end
Ġded icated
war z
Ġconfident ial
Elect ions
Ġnurs ery
Ġcigar ettes
ĠScient ist
Ġmic ro
imp y
ĠTor res
ĠPH IL
ĠPay roll
Kw ara
ĠNE W
ĠHeavy weight
Ġregul ator
Ġregul atory
Ġaccommod ate
ĠRh ino
ĠDip anda
Jo ab
ĠMang esh
ĠGil bert
ĠGa al
ĠBrom wich
Ġjab s
ĠEkp u
akor ede
Ġpatron ize
Ġdistract ion
Ġprophec ies
Ġhorm ones
ĠAri bo
ĠFight ing
Report s
Ġfant asy
ĠJO HN
ĠNeh emiah
ĠChik we
LL OU
ĠYan kee
Ġkonf ess
Ġcand le
Ġabsol ute
Def ence
Ġuncom pleted
Ġsadd est
Ġnu is
Ġsail ors
ĠDy bala
Ġexplo itation
Ġfum igation
Ġwal ahi
polic erecruitment
ĠSaif ura
ĠSali hu
Ġtwer k
ĠLux embourg
Chamber lain
ĠCharter ed
Mat thew
Ġescal ate
ĠAnj orin
ĠZag reb
Ġdavid o
[...]
