{"<s>":0,"<pad>":1,"</s>":2,"<unk>":3,"<mask>":4,"!":5,"\"":6,"#":7,"$":8,"%":9,"&":10,"'":11,"(":12,")":13,"*":14,"+":15,",":16,"-":17,".":18,"/":19,"0":20,"1":21,"2":22,"3":23,"4":24,"5":25,"6":26,"7":27,"8":28,"9":29,":":30,";":31,"<":32,"=":33,">":34,"?":35,"@":36,"A":37,"B":38,"C":39,"D":40,"E":41,"F":42,"G":43,"H":44,"I":45,"J":46,"K":47,"L":48,"M":49,"N":50,"O":51,"P":52,"Q":53,"R":54,"S":55,"T":56,"U":57,"V":58,"W":59,"X":60,"Y":61,"Z":62,"[":63,"\\":64,"]":65,"^":66,"_":67,"`":68,"a":69,"b":70,"c":71,"d":72,"e":73,"f":74,"g":75,"h":76,"i":77,"j":78,"k":79,"l":80,"m":81,"n":82,"o":83,"p":84,"q":85,"r":86,"s":87,"t":88,"u":89,"v":90,"w":91,"x":92,"y":93,"z":94,"{":95,"|":96,"}":97,"~":98,"¡":99,"¢":100,"£":101,"¤":102,"¥":103,"¦":104,"§":105,"¨":106,"©":107,"ª":108,"«":109,"¬":110,"®":111,"¯":112,"°":113,"±":114,"²":115,"³":116,"´":117,"µ":118,"¶":119,"·":120,"¸":121,"¹":122,"º":123,"»":124,"¼":125,"½":126,"¾":127,"¿":128,"À":129,"Á":130,"Â":131,"Ã":132,"Ä":133,"Å":134,"Æ":135,"Ç":136,"È":137,"É":138,"Ê":139,"Ë":140,"Ì":141,"Í":142,"Î":143,"Ï":144,"Ð":145,"Ñ":146,"Ò":147,"Ó":148,"Ô":149,"Õ":150,"Ö":151,"×":152,"Ø":153,"Ù":154,"Ú":155,"Û":156,"Ü":157,"Ý":158,"Þ":159,"ß":160,"à":161,"á":162,"â":163,"ã":164,"ä":165,"å":166,"æ":167,"ç":168,"è":169,"é":170,"ê":171,"ë":172,"ì":173,"í":174,"î":175,"ï":176,"ð":177,"ñ":178,"ò":179,"ó":180,"ô":181,"õ":182,"ö":183,"÷":184,"ø":185,"ù":186,"ú":187,"û":188,"ü":189,"ý":190,"þ":191,"ÿ":192,"Ā":193,"ā":194,"Ă":195,"ă":196,"Ą":197,"ą":198,"Ć":199,"ć":200,"Ĉ":201,"ĉ":202,"Ċ":203,"ċ":204,"Č":205,"č":206,"Ď":207,"ď":208,"Đ":209,"đ":210,"Ē":211,"ē":212,"Ĕ":213,"ĕ":214,"Ė":215,"ė":216,"Ę":217,"ę":218,"Ě":219,"ě":220,"Ĝ":221,"ĝ":222,"Ğ":223,"ğ":224,"Ġ":225,"ġ":226,"Ģ":227,"ģ":228,"Ĥ":229,"ĥ":230,"Ħ":231,"ħ":232,"Ĩ":233,"ĩ":234,"Ī":235,"ī":236,"Ĭ":237,"ĭ":238,"Į":239,"į":240,"İ":241,"ı":242,"Ĳ":243,"ĳ":244,"Ĵ":245,"ĵ":246,"Ķ":247,"ķ":248,"ĸ":249,"Ĺ":250,"ĺ":251,"Ļ":252,"ļ":253,"Ľ":254,"ľ":255,"Ŀ":256,"ŀ":257,"Ł":258,"ł":259,"Ń":260,"Ġd":261,"er":262,"on":263,"or":264,"Ġf":265,"an":266,"Ġw":267,"Ġt":268,"Ġs":269,"in":270,"ey":271,"at":272,"Ġdi":273,"Ġp":274,"20":275,"Ġb":276,"en":277,"Ġa":278,"Ġc":279,"es":280,"Ġfor":281,"em":282,"Ġm":283,"ou":284,"om":285,"al":286,"it":287,"ay":288,"Ġg":289,"ar":290,"Ġn":291,"ĠS":292,"Ġdey":293,"Ġo":294,"and":295,"Ġ20":296,"Ġto":297,"Ġh":298,"st":299,"id":300,"th":301,"ion":302,"Ġwey":303,"et":304,"el":305,"ic":306,"Ġand":307,"ĠM":308,"ur":309,"ol":310,"ĠD":311,"ct":312,"ĠN":313,"ber":314,"ig":315,"ĠA":316,"Ġr":317,"ke":318,"Ġof":319,"Ġ2020":320,"im":321,"ia":322,"ide":323,"Ġl":324,"ent":325,"il":326,"Ġdem":327,"ation":328,"Ġe":329,"ĠI":330,"ow":331,"Ġgo":332,"ĠT":333,"se":334,"Ġdon":335,"ing":336,"ĠF":337,"ep":338,"ĠO":339,"Ġ3":340,"am":341,"Ġsay":342,"Ġth":343,"Ġin":344,"un":345,"ed":346,"ake":347,"iger":348,"Ġ2":349,"Ġy":350,"ac":351,"ĠNiger":352,"ĠB":353,"ad":354,"ember":355,"Ġst":356,"Ġbe":357,"Ġon":358,"ĠV":359,"ideo":360,"is":361,"ate":362,"ot":363,"Ġfr":364,"as":365,"ĠP":366,"ĠVideo":367,"Ġna":368,"ĠĠ":369,"ĠE":370,"ĠC":371,"Ġk":372,"ell":373,"ept":374,"ve":375,"ĠSept":376,"Ġdis":377,"le":378,"ip":379,"ĠSeptember":380,"Ġcom":381,"ĠW":382,"ir":383,"od":384,"Ġ1":385,"ĠNigeria":386,"ĠJ":387,"op":388,"Ġ201":389,"Ġim":390,"Ġde":391,"ĠG":392,"Ġwe":393,"our":394,"ch":395,"Ġno":396,"ĠDur":397,"ĠDuration":398,"ut":399,"ter":400,"Ġfrom":401,"nd":402,"us":403,"ober":404,"ĠOct":405,"ĠOctober":406,"os":407,"ee":408,"est":409,"pp":410,"ag":411,"ver":412,"Ġre":413,"Ġas":414,"out":415,"Ġwit":416,"ĠH":417,"ly":418,"Ġyou":419,"eet":420,"Ġpr":421,"ice":422,"Ġmake":423,"Ġsh":424,"ect":425,"Ġal":426,"ce":427,"ist":428,"AR":429,"ARS":430,"Ġpip":431,"ĠL":432,"ast":433,"ess":434,"Ġ\"":435,"etin":436,"ĠU":437,"ort":438,"Ġone":439,"Ġam":440,"ill":441,"ass":442,"for":443,"Ġbo":444,"Ġcome":445,"Ġban":446,"ĠMeet":447,"Ġpl":448,"ace":449,"ear":450,"Ġch":451,"Ġfit":452,"ers":453,"ori":454,"Ġv":455,"22":456,"Ġthe":457,"Ġpipo":458,"Ġan":459,"Ġne":460,"side":461,"ian":462,"all":463,"ain":464,"Ġpass":465,"Ġwh":466,"ab":467,"ike":468,"oc":469,"Ġinside":470,"ĠK":471,"ive":472,"Ġab":473,"re":474,"olice":475,"ov":476,"Ġdia":477,"SARS":478,"Ġdo":479,"use":480,"Ġget":481,"21":482,"Ġher":483,"ul":484,"ge":485,"ĠR":486,"da":487,"ost":488,"if":489,"Ġ2018":490,"Ġtr":491,"ĠĊ":492,"Ġme":493,"ther":494,"Ġcon":495,"und":496,"Ġ'":497,"gh":498,"ec":499,"um":500,"ff":501,"up":502,"ĠIn":503,"ust":504,"Ġabout":505,"igh":506,"Ġ-":507,"Ġwith":508,"Ġoda":509,"Ġface":510,"rol":511,"ap":512,"ome":513,"ial":514,"Ġwell":515,"Ġtake":516,"Ġpat":517,"ri":518,"ates":519,"ine":520,"oto":521,"ak":522,"qu":523,"iv":524,"Ġpatrol":525,"Ġhow":526,"act":527,"05":528,"06":529,"Ġfoto":530,"\",":531,"end":532,"ack":533,"ie":534,"ĠFSARS":535,"Ġj":536,"ry":537,"ary":538,"eat":539,"Ġhour":540,"esid":541,"Ġwetin":542,"Ġany":543,"ors":544,"art":545,"Ġwor":546,"Ġmy":547,"oment":548,"Ġtim":549,"ĠPr":550,"Ġpost":551,"urn":552,"wit":553,"Ġlo":554,"Ġ(":555,"ĠSee":556,"ity":557,"other":558,"Ġ2019":559,"ĠAn":560,"Ġex":561,"witter":562,"Ġwom":563,"Ġhours":564,"ana":565,"Ġgoment":566,"Ġthing":567,"Ġun":568,"ody":569,"esident":570,"ĠDi":571,"Ġtok":572,"ric":573,"aw":574,"Ġapp":575,"ĠĠĠĠ":576,"Ġtori":577,"ment":578,"Ġdr":579,"ĠNigerian":580,"Ġ.":581,"ok":582,"Na":583,"Ġyear":584,"Ġaf":585,"atch":586,"her":587,"av":588,"ta":589,"ays":590,"elli":591,"ah":592,"ue":593,"ĠUgh":594,"ĠUghelli":595,"Ġcall":596,"eop":597,"Ġpolice":598,"ight":599,"ĠFund":600,"ĠMay":601,"form":602,"ĠEnd":603,"01":604,"Ġat":605,"Ġsu":606,"ik":607,"ĠY":608,"ĠTwitter":609,"ach":610,"Ġbin":611,"Ġlike":612,"ĠHow":613,"eople":614,"Ġkon":615,"he":616,"ng":617,"app":618,"Ġbu":619,"Ġ4":620,"ĠWetin":621,"Ġgr":622,"hu":623,"ical":624,"00":625,"elect":626,"ans":627,"ange":628,"ant":629,"fore":630,"Ġshe":631,"Ġup":632,"ool":633,"ld":634,"body":635,"Ġall":636,"Ġle":637,"ĠCh":638,"ud":639,"ĠAf":640,"Ġpeople":641,"Ġmed":642,"Ġbut":643,"Ġor":644,"alk":645,"ase":646,"urv":647,"Ġwoman":648,"ival":649,"ME":650,"Ġway":651,"ose":652,"med":653,"Ġsome":654,"rd":655,"Ġkill":656,"Ġag":657,"Ġbefore":658,"hana":659,"ffect":660,"Ġneed":661,"Ġso":662,"wo":663,"ure":664,"gin":665,"old":666,"Ġcar":667,"uel":668,"Ġchange":669,"Ġar":670,"Ġtalk":671,"ong":672,"Ġman":673,"ance":674,"ĠSurv":675,"ause":676,"ys":677,"ouse":678,"Ġapply":679,"cc":680,"SME":681,"Ġwhy":682,"ĠSurvival":683,"ĠMSME":684,"election":685,"age":686,"oy":687,"Ġgive":688,"Ġyoung":689,"day":690,"Ġtell":691,"ĠPolice":692,"oun":693,"Ġmedia":694,"formate":695,"chool":696,"Ġev":697,"ĠTori":698,"30":699,"outh":700,"ĠGhana":701,"Ġturn":702,"ĠSt":703,"Ġkn":704,"25":705,"ony":706,"Ġ5":707,"Ġlove":708,"Ġbec":709,"Ġhapp":710,"28":711,"Ġreg":712,"Ġbuy":713,"ub":714,"ĠInformate":715,"uh":716,"ari":717,"ug":718,"ĠTop":719,"uit":720,"ĠAfric":721,"ways":722,"Ġschool":723,"port":724,"ind":725,"ĠAb":726,"Ġtin":727,"uary":728,"Ġfir":729,"Ġafta":730,"ish":731,"iate":732,"Ġalways":733,"ĠJos":734,"Ġeffect":735,"ily":736,"Ġimmed":737,"Ġknow":738,"ocial":739,"An":740,"ads":741,"eb":742,"ick":743,"ĠFG":744,"hua":745,"Ġanybody":746,"Ġmon":747,"Ġsqu":748,"Ġ,":749,"agos":750,"Ġwork":751,"Ġimmediate":752,"Ġfam":753,"ators":754,"Ġboil":755,"ard":756,"ĠJoshua":757,"ja":758,"ise":759,"Ġbox":760,"Ġwatch":761,"Ġfuel":762,"Ġse":763,"Ġcomot":764,"Ġhe":765,"aste":766,"Ġstates":767,"Ġnew":768,"actical":769,"Ġres":770,"ĠDe":771,"Ġsey":772,"ies":773,"thony":774,"Ġtactical":775,"Ġsocial":776,"Ġsquads":777,"ĠNa":778,"ĠPresident":779,"og":780,"ĠLagos":781,"Ġinn":782,"ore":783,"Ġfruit":784,"ob":785,"Ġfamily":786,"over":787,"ĠMike":788,"oll":789,"ĠGod":790,"Ġdie":791,"eather":792,"yson":793,"ĠTyson":794,"ĠSARS":795,"Ġbr":796,"Ġinnov":797,"weather":798,"Ġ36":799,"ĠMayweather":800,"Ġuna":801,"052":802,"Ġinnovators":803,"Ġdress":804,"Ġread":805,"Ġtimes":806,"2128":807,"Ġwan":808,"0630":809,"2225":810,"ĠAnthony":811,"Ġwaste":812,"Ġen":813,"Ġuse":814,"Ġstate":815,"Ġsp":816,"astic":817,"Ġsupp":818,"Another":819,"ame":820,"Ġyears":821,"Ġplastic":822,"Ġwin":823,"ĠĠĠĊ":824,"Ġrout":825,"ond":826,"Ġboxing":827,"ite":828,"Ġroutine":829,"Ġlaw":830,"Ġpatrols":831,"one":832,"Ġvs":833,"ĠJun":834,"ration":835,"Ġhouse":836,"Ġelection":837,"do":838,"Ġcl":839,"pl":840,"Ġbl":841,"ĠWh":842,"Ġ2017":843,"Ġcont":844,"Di":845,"orn":846,"iver":847,"15":848,"Ġsee":849,"esin":850,"Ġtime":851,"ord":852,"Ġshow":853,"Ġkont":854,"23":855,"abi":856,"Ġagain":857,"uhari":858,"Ġinter":859,"Ġte":860,"Ġfirst":861,"ute":862,"so":863,"Ġbus":864,"ourt":865,"Ġwen":866,"Ġ\"\"":867,"Ġregist":868,"Ġplay":869,"own":870,"oon":871,"mer":872,"ife":873,"ga":874,"Ġop":875,"ĠBB":876,"Ġnor":877,"Ġent":878,"Ġad":879,"Ġdat":880,"are":881,"iss":882,"ĠBuhari":883,"Ġus":884,"Ġif":885,"iness":886,"ra":887,"Ġpart":888,"ound":889,".\"":890,"ib":891,"Ġtwo":892,"ational":893,"Ġoff":894,"ĠEndSARS":895,"Ġmat":896,"Ġhand":897,"ĠKan":898,"Ġboy":899,"Ġout":900,"ew":901,"amer":902,"Ġport":903,"hip":904,"idgin":905,"ock":906,"Ġacc":907,"Ġstill":908,"Ġregistration":909,"vest":910,"Ġnow":911,"Ġsabi":912,"Ġyour":913,"Ġtins":914,"ions":915,"Ġbusiness":916,"ign":917,"Ġatt":918,"ence":919,"ty":920,"Ġhim":921,"kip":922,"Ġstep":923,"Ġdance":924,"ameroon":925,"inist":926,"ĠMar":927,"Ġalso":928,"Ġportal":929,"ement":930,"Ġ6":931,"Ġtrans":932,"ult":933,"iz":934,"13":935,"Ġsec":936,"lect":937,"Ġtop":938,"ous":939,"ek":940,"oin":941,"ris":942,"ĠDem":943,"ebr":944,"Ġeven":945,"ĠIm":946,"ija":947,"ĠZ":948,"very":949,"Ġjust":950,"ĠWia":951,"Ġheat":952,"irl":953,"ree":954,"Ġkontri":955,"ĠJu":956,"ĠĠĠĠĠĠĠĠ":957,"Ġsteps":958,"ĠAfrica":959,"ount":960,"Ġbecause":961,"Ġcute":962,"ĠUn":963,"0123":964,"Ġrep":965,"ath":966,"pr":967,"ĠState":968,"anc":969,"Ġ7":970,"Ġstart":971,"ĠJan":972,"ĠIs":973,"Ġbi":974,"ĠFor":975,"ikin":976,"ele":977,"ition":978,"Ġpesin":979,"Ġ16":980,"adu":981,"amp":982,"ĠAr":983,"ĠCameroon":984,"ĠTr":985,"Ġstr":986,"andid":987,"ump":988,"ĠAug":989,"wn":990,"ĠAl":991,"Ġ8":992,"ĠAugust":993,"ile":994,"ood":995,"ations":996,"iew":997,"Ġhel":998,"eral":999,"Ġcandid":1000,"Ġpikin":1001,"Ġopen":1002,"ivers":1003,"Ġby":1004,"16":1005,"ĠNigerians":1006,"ild":1007,"inal":1008,"Ġlead":1009,"Ġthis":1010,"ĠJuly":1011,"Ġtransport":1012,"ave":1013,"Ġbet":1014,"ĠJanuary":1015,"ĠAd":1016,"ince":1017,"ĠJune":1018,"ĠLe":1019,"Ġmar":1020,"erson":1021,"oot":1022,"Ġser":1023,"ere":1024,"bo":1025,"man":1026,"ĠQ":1027,"ict":1028,"19":1029,"Ġfe":1030,"Ġattack":1031,"oup":1032,"Ġ19":1033,"Ġpipol":1034,"ĠAs":1035,"ough":1036,"ĠBBC":1037,"Ġgirl":1038,"Ġvot":1039,"ĠNov":1040,"Ġden":1041,"Ġinc":1042,"Ġtransportation":1043,"Ġcomm":1044,"Ġmoney":1045,"ollow":1046,"ĠFunds":1047,"ash":1048,"Ġ10":1049,"ĠNovember":1050,"Ġarr":1051,"Ġsc":1052,"Ġtoo":1053,"oh":1054,"nors":1055,"ram":1056,"irus":1057,"Ġrec":1058,"Ġpresident":1059,"view":1060,"Ġqu":1061,"Ġact":1062,"we":1063,"ĠTh":1064,"inister":1065,"Ġcor":1066,"Ġfollow":1067,"ang":1068,"Ġcause":1069,"Ġhelp":1070,"ebruary":1071,"Ġback":1072,"ĠFebruary":1073,"nor":1074,"erc":1075,"ĠFr":1076,"Ġconf":1077,"Ġafter":1078,"ĠShe":1079,"ww":1080,"ama":1081,"ĠPidgin":1082,"ĠYouth":1083,"ime":1084,"Ġonly":1085,"Ġinterview":1086,"ail":1087,"Ġgover":1088,"acts":1089,"Ġworld":1090,"ĠAbu":1091,"eh":1092,"Ġput":1093,"con":1094,"Ġplent":1095,"ĠDec":1096,"able":1097,"Ġmore":1098,"ich":1099,"ason":1100,"Ġhappen":1101,"omm":1102,"Ġmeet":1103,"17":1104,"Ġcandidates":1105,"ĠMarch":1106,"Ġmany":1107,"Ġcourt":1108,"Ġperson":1109,"56":1110,"ior":1111,"com":1112,"Ġhappun":1113,"ĠDecember":1114,"ĠBr":1115,"ages":1116,"norship":1117,"Ġlat":1118,"Ġsuppose":1119,"Ġsm":1120,"Ġ9":1121,"illion":1122,"Ġcarry":1123,"aya":1124,"ank":1125,"Ġexpl":1126,"46":1127,"Ġshort":1128,"Ġmin":1129,"Ġcomp":1130,"ĠInvest":1131,"Ġcr":1132,"Ġbecome":1133,"38":1134,"Ġbegin":1135,"ayo":1136,"Ġour":1137,"ĠBut":1138,"pect":1139,"land":1140,"ities":1141,"ison":1142,"ents":1143,"Ġwant":1144,"Ġ:":1145,"ffer":1146,"air":1147,"Ġover":1148,"ne":1149,"ink":1150,"ĠWhy":1151,"Ġlast":1152,"Ġsend":1153,"Ġprot":1154,"Ġmean":1155,"Ġare":1156,"000":1157,"Ġthat":1158,"ĠApr":1159,"Ġdec":1160,"Ġmata":1161,"ĠOb":1162,"Ġfind":1163,"ĠHigh":1164,"Ġday":1165,"ĠApril":1166,"ĠDis":1167,"ĠEm":1168,"enc":1169,"of":1170,"Ġown":1171,"Ġi":1172,"ĠAir":1173,"ĠGover":1174,"ording":1175,"Ġyu":1176,"ove":1177,"Ġfight":1178,"uc":1179,"Ġwomen":1180,"orld":1181,"oss":1182,"eg":1183,"Ġ(@":1184,"ven":1185,"ory":1186,"ĠEdo":1187,"10":1188,"ress":1189,"ital":1190,"Ġgov":1191,"vice":1192,"Ġreach":1193,"nment":1194,"Ġhear":1195,"Ġcol":1196,"ya":1197,"Ġbig":1198,"list":1199,"Ġadd":1200,"ala":1201,"reat":1202,"etty":1203,"ĠAfrican":1204,"Ġevery":1205,"Ġsupport":1206,"ĠHar":1207,"ĠQu":1208,"Wia":1209,"Ġthree":1210,"Ġwhen":1211,"lic":1212,"Ġshortlist":1213,"Ġjoin":1214,"Ġarrest":1215,"les":1216,"aj":1217,"Ġdeh":1218,"Ġstud":1219,"ĠMan":1220,"ercise":1221,"Ġagainst":1222,"af":1223,"Ġlife":1224,"ower":1225,"Ġexercise":1226,"Ġfive":1227,"Ġpol":1228,"Ġdisc":1229,"Ġgirls":1230,"onav":1231,"ĠSh":1232,"va":1233,"ĠKanayo":1234,"onavirus":1235,"Ġgood":1236,"ĠImages":1237,"Ġfacts":1238,"Ġcount":1239,"ward":1240,"Ġenter":1241,"18":1242,"Ġoga":1243,"ĠThe":1244,"ens":1245,"to":1246,"Dem":1247,"Ġrem":1248,"Ġvote":1249,"ĠSouth":1250,"Ġvideo":1251,"ĠTrump":1252,"thing":1253,"..":1254,"Ġper":1255,"Ġsince":1256,"ames":1257,"Ġgradu":1258,"\"\"":1259,"Ġhin":1260,"ola":1261,"wa":1262,"ĠSkip":1263,"Skip":1264,"ĠQuick":1265,"ĠMSMEs":1266,"ĠNaija":1267,"Ġstop":1268,"hone":1269,"ĠMinister":1270,"odi":1271,"Ġcare":1272,"Ġenta":1273,"ĠElect":1274,"ĠNo":1275,"But":1276,"Ġis":1277,"ĠGetty":1278,"Ġpay":1279,"ĠSen":1280,"Ġoffic":1281,"ĠAm":1282,"Ġweh":1283,"oad":1284,"Ġfans":1285,"Ġwr":1286,"alth":1287,"Ġname":1288,"Ġland":1289,"ĠComm":1290,"down":1291,"Ġask":1292,"Ġlook":1293,"For":1294,"Ġsecond":1295,"Ġgraduate":1296,"emi":1297,"ĠBig":1298,"Ġwife":1299,"Ġwho":1300,"xt":1301,"ina":1302,"der":1303,"Ġnot":1304,"Ġcanc":1305,"Ġ#":1306,"au":1307,"Ġteach":1308,"Ġtry":1309,"ball":1310,"ĠUS":1311,"Ġund":1312,"ope":1313,"ĠWorld":1314,"ull":1315,"ians":1316,"ission":1317,"Ġold":1318,"ederal":1319,"read":1320,"Ġlock":1321,"tt":1322,"Ġmi":1323,"Ġformer":1324,"ehov":1325,"ehovah":1326,"ĠAk":1327,"force":1328,"Ġplan":1329,"oda":1330,"Ġreport":1331,"ester":1332,"ĠJunior":1333,"Ġweek":1334,"Ġchop":1335,"Ġrun":1336,"Ġend":1337,"roy":1338,"Ġlawy":1339,"ublic":1340,"Ġsake":1341,"my":1342,"Ġgroup":1343,"EC":1344,"ren":1345,"urity":1346,"Ġsmall":1347,"ps":1348,"aka":1349,"ootball":1350,"Dis":1351,"oldest":1352,"tion":1353,"Ġrele":1354,"Ġdown":1355,"Ġparty":1356,"aker":1357,"tee":1358,"Ġthem":1359,"apa":1360,"ĠHe":1361,"Ġ12":1362,"ĠSund":1363,"ĠHouse":1364,"Ġfl":1365,"ĠJehovah":1366,"Ġann":1367,"leg":1368,"We":1369,"PC":1370,"Ġteam":1371,"ĠRe":1372,"Ġsus":1373,"75":1374,"Ġunder":1375,"gb":1376,"ĠSunday":1377,"Ġdates":1378,"ĠAirforce":1379,"ade":1380,"top":1381,"Ġselection":1382,"Ġgovernment":1383,"ape":1384,"Ġreal":1385,"per":1386,"Ġhead":1387,"olly":1388,"uss":1389,"BN":1390,"Ġwar":1391,"vel":1392,"umber":1393,"Ġthings":1394,"ful":1395,"Ġrelease":1396,"az":1397,"ilit":1398,"Ġmatch":1399,"wood":1400,"ole":1401,"ague":1402,"Ġcollect":1403,"ĠNational":1404,"ings":1405,"ecial":1406,"ency":1407,"Ġwia":1408,"uk":1409,"Ġwhere":1410,"aria":1411,"Ġsi":1412,"ikos":1413,"Ġmonth":1414,"ont":1415,"Ġpo":1416,"Ġmen":1417,"elf":1418,"Ġdiffer":1419,"rik":1420,"Ġgu":1421,"ĠInst":1422,"be":1423,"Naija":1424,"esday":1425,"//":1426,"DP":1427,"://":1428,"ese":1429,"Ġlockdown":1430,"Ġpar":1431,"ttps":1432,"ĠInvestment":1433,"Ġco":1434,"ani":1435,"usic":1436,"Ġdest":1437,"ited":1438,"Ġmatter":1439,"sh":1440,"Ġannoun":1441,"Ġpolit":1442,"ual":1443,"adi":1444,"Ġexplos":1445,"ustr":1446,"Ġbeat":1447,"Ġfour":1448,"Ġtheir":1449,"ollywood":1450,"utes":1451,"ern":1452,"Ġlatest":1453,"ĠTo":1454,"Ġnumber":1455,"Ġinvest":1456,"rect":1457,"Ġstat":1458,"Ġmind":1459,"agram":1460,"eye":1461,"uth":1462,"Ġbre":1463,"ĠCup":1464,"Ġ?":1465,"Ġdifferent":1466,"ĠSo":1467,"ork":1468,"Ġbad":1469,"rist":1470,"Ġlawyer":1471,"Ġbody":1472,"uring":1473,"ze":1474,"pt":1475,"Ġconfam":1476,"national":1477,"meric":1478,"Ġbrother":1479,"amm":1480,"Ġplace":1481,"Ġexplosion":1482,"oko":1483,"Ġdestroy":1484,"Ġborn":1485,"Ġtoday":1486,"ĠBen":1487,"ourn":1488,"Ġplayer":1489,"Ġcase":1490,"ĠNew":1491,"ious":1492,"Ġthr":1493,"Ġcareer":1494,"Niger":1495,"Ġfin":1496,"Ġmillion":1497,"ki":1498,"Ġgoal":1499,"bb":1500,"ger":1501,"ĠId":1502,"Ġother":1503,"oo":1504,"ons":1505,"weet":1506,"Ġminutes":1507,"ĠMake":1508,"Ġbring":1509,"lud":1510,"Ġsign":1511,"Ġkorn":1512,"Ġdiscover":1513,"Ġbel":1514,"Ġontop":1515,"emb":1516,"Ġvis":1517,"Ġfeem":1518,"https":1519,"ĠAustr":1520,"igate":1521,"Ġplenty":1522,"epar":1523,"ief":1524,"ĠBBNaija":1525,"Ġve":1526,"Ġret":1527,"ĠOga":1528,"Ġmilit":1529,"Ġsell":1530,"any":1531,"ution":1532,"iversity":1533,"Ġright":1534,"oint":1535,"ire":1536,"pe":1537,"Ġcountry":1538,"Ġsen":1539,"ai":1540,"Ġpapa":1541,"esus":1542,"ĠAnd":1543,"Ġdays":1544,"ale":1545,"Ġmember":1546,"Ġdeath":1547,"Ġ15":1548,"Ġrel":1549,"Ġresp":1550,"Ġprotest":1551,"opul":1552,"Ġplus":1553,"uce":1554,"ĠInstagram":1555,"jo":1556,"ocal":1557,"ĠMuh":1558,"Ġfree":1559,"ics":1560,"ĠElection":1561,"ible":1562,"erry":1563,"ĠAbuja":1564,"ĠGold":1565,"Ġcancel":1566,"bbc":1567,"Ġlist":1568,"ĠOl":1569,"Ġcap":1570,"Ġsecurity":1571,"gan":1572,"ĠIsland":1573,"pidgin":1574,"Ġsing":1575,"'s":1576,"well":1577,"ohn":1578,"uct":1579,"ĠNollywood":1580,"Ġchar":1581,"book":1582,"osp":1583,"ults":1584,"Ġwaka":1585,"Ġannounce":1586,"ĠMon":1587,"www":1588,"Ġ$":1589,"ER":1590,"ĠAmeric":1591,"ĠEmir":1592,"ĠAss":1593,"Ġblast":1594,"ĠCor":1595,"Ġlate":1596,"Ġdef":1597,"Ġarea":1598,"zo":1599,"ĠKano":1600,"Ġduring":1601,"sa":1602,"Ġmust":1603,"Ġfootball":1604,"Ġwrite":1605,"amb":1606,"Ġfar":1607,"ieve":1608,"ĠOn":1609,"ĠShehu":1610,"Ġbuild":1611,"ĠMr":1612,"Ġinclud":1613,"boy":1614,"Ġfinal":1615,"get":1616,".\"\"":1617,"eneral":1618,"Ġ14":1619,"Ġ)":1620,"Ġlive":1621,"idn":1622,"Wetin":1623,"Ġhigh":1624,"Ġsame":1625,"Ġcho":1626,"avid":1627,"Ġkain":1628,"ĠAdo":1629,"Ġmusic":1630,"ĠAnother":1631,"ĠĠĠĠĠĠĠĠĠĠĠĠĠĠĠĠ":1632,"Wh":1633,"ĠAng":1634,"ait":1635,"ĠIf":1636,"ospital":1637,"ĠBan":1638,"Ġreason":1639,"aim":1640,"ĠAPC":1641,"Ġmark":1642,"ĠWest":1643,"Ġsepar":1644,"acebook":1645,"ĠUnited":1646,"ĠMuhamm":1647,"gy":1648,"Ġeye":1649,"ĠJohn":1650,"ĠDr":1651,"ness":1652,"ĠRes":1653,"ĠWaya":1654,"Ġfire":1655,"Ġpack":1656,"ovid":1657,"Ġnever":1658,"Ġpopul":1659,"ada":1660,"Ġplenti":1661,"ator":1662,"Ġmama":1663,"Ġcle":1664,"ĠOs":1665,"Ġcontin":1666,"ween":1667,"Ġmost":1668,"urs":1669,"Ġprom":1670,"Ġanoda":1671,"osition":1672,"atur":1673,"ĠTen":1674,"Ġprison":1675,"Ġoffice":1676,"ĠIdris":1677,"Ġalleg":1678,"Ġfinish":1679,"ĠGolden":1680,"onc":1681,"ĠAbule":1682,"res":1683,"Ġnext":1684,"ident":1685,"uper":1686,"ĠAt":1687,"11":1688,"ĠLeague":1689,"ision":1690,"ĠWe":1691,"ier":1692,"Ġhold":1693,"Ġ0":1694,"ĠJames":1695,"ĠOzo":1696,"Ġstay":1697,"ĠAcc":1698,"Ġcel":1699,"Ġneva":1700,"Ġmaker":1701,"ete":1702,"Ġsef":1703,"Ġfri":1704,"ata":1705,"Ġorder":1706,"na":1707,"ĠBey":1708,"Ġfriend":1709,"Ġcond":1710,"Ġsur":1711,"ert":1712,"iture":1713,"ater":1714,"ĠBanana":1715,"ĠPDP":1716,"Ġstatement":1717,"ava":1718,"Ġ58":1719,"Ġleaders":1720,"Ġart":1721,"Ġcontain":1722,"rael":1723,"Ġabuse":1724,"Ġchild":1725,"Ġallow":1726,"Ġaround":1727,"Ġbetween":1728,"Ġattacks":1729,"Ġfurn":1730,"Ġfurniture":1731,"Ġred":1732,"ush":1733,"Ġ30":1734,"FC":1735,"iday":1736,"Ġear":1737,"icap":1738,"Ġbikos":1739,"Ġopp":1740,"Ġhandicap":1741,"Ġem":1742,"3816":1743,"The":1744,"ĠGoldenboy":1745,"Ġhandicapable":1746,"1317":1747,"5610":1748,"ds":1749,"Ġ13":1750,"ĠJesus":1751,"Ġvery":1752,"Ġsex":1753,"ode":1754,"ins":1755,"eda":1756,"ists":1757,"Ġclub":1758,"ĠChrist":1759,"iec":1760,"Ġnews":1761,"ieces":1762,"Ġ11":1763,"Nigeria":1764,"Ġtest":1765,"ĠDavid":1766,"new":1767,"Ġaccuse":1768,"uf":1769,"ĠOne":1770,"ĠBl":1771,"Ġconc":1772,"ĠSp":1773,"Ġcamp":1774,"ĠTerry":1775,"ĠWhite":1776,"ĠDie":1777,"Ġfeel":1778,"ĠMuhammadu":1779,"ĠZaria":1780,"ner":1781,"Ġleg":1782,"di":1783,"Ġvex":1784,"lem":1785,"Ġset":1786,"ĠFacebook":1787,"ĠNor":1788,"ives":1789,"aul":1790,"ĠGovernorship":1791,"uthor":1792,"Ġpre":1793,"Ġprob":1794,"Ġstrong":1795,"ytee":1796,"uman":1797,"ĠTrik":1798,"ĠPl":1799,"ĠRuss":1800,"keep":1801,"ara":1802,"das":1803,"ars":1804,"Ġofficial":1805,"Ġ@":1806,"ĠInter":1807,"Ġhappy":1808,"Ġpal":1809,"Ġpower":1810,"ule":1811,"Ġkidn":1812,"ĠTime":1813,"ĠTrikytee":1814,"Ġbreak":1815,"Ġmilitary":1816,"27":1817,"ĠCourt":1818,"oth":1819,"ĠLay":1820,"Ġpublic":1821,"ize":1822,"ĠWen":1823,"14":1824,"rica":1825,"Ġgovnorship":1826,"4621":1827,"ants":1828,"Ġhealth":1829,"Ġleave":1830,"ning":1831,"Ġscore":1832,"ĠIsrael":1833,"ilm":1834,"band":1835,"ĠGr":1836,"tori":1837,"ĠAustrian":1838,"unity":1839,"Ġfear":1840,"pieces":1841,"ĠAll":1842,"24":1843,"ba":1844,"year":1845,"Ġgree":1846,"Ġbelieve":1847,"Ġaffect":1848,"Ġpoison":1849,"ĠKing":1850,"Ġtreat":1851,"Ġsure":1852,"Ġbetter":1853,"ĠLaycon":1854,"Ġ18":1855,"Ġtrav":1856,"Ġ200":1857,"Ġass":1858,"Ġelections":1859,"ĠCovid":1860,"lop":1861,"Ġaccording":1862,"Ġroad":1863,"ĠDor":1864,"Ġter":1865,"Ġhospital":1866,"enal":1867,"Ġtown":1868,"12":1869,"Ġsong":1870,"ĠEl":1871,"NEC":1872,"men":1873,"Ġfull":1874,"Ġlet":1875,"ĠUniversity":1876,"Ġfood":1877,"Ġ24":1878,"Ġprod":1879,"Ġmeeting":1880,"me":1881,"eace":1882,"ria":1883,"Ġseason":1884,"Ġ&":1885,"Ġprog":1886,"Ġpackage":1887,"Ġpick":1888,"Ġ17":1889,"rah":1890,"ĠIb":1891,"Ġlater":1892,"ĠHaram":1893,"onal":1894,"usband":1895,"Ġcoronavirus":1896,"Im":1897,"ĠBeyonc":1898,"ĠBond":1899,"aff":1900,"go":1901,"rit":1902,"Ġ100":1903,"athy":1904,"Ġnational":1905,"Ġdes":1906,"ify":1907,"ahala":1908,"Ġcontinue":1909,"ĠYouths":1910,"ĠCong":1911,"Ġreturn":1912,"Ġincre":1913,"ĠInd":1914,"Ġleader":1915,"ret":1916,"Ġlocal":1917,"Ġthink":1918,"twitter":1919,"eck":1920,"Ġrul":1921,"ĠYu":1922,"Pesin":1923,"Ġproblem":1924,"work":1925,"idd":1926,"ĠUK":1927,"aturday":1928,"26":1929,"ĠSer":1930,"Ġit":1931,"Ġbodi":1932,"rup":1933,"Ġodas":1934,"Ġsuspect":1935,"Ġvisit":1936,"ro":1937,"Ġclose":1938,"Ġever":1939,"Ġshare":1940,"icin":1941,"Ġhon":1942,"ters":1943,"rat":1944,"vent":1945,"risis":1946,"Ġfilm":1947,"ĠDorathy":1948,"Ġdate":1949,"ĠSaturday":1950,"Ġ20203":1951,"fer":1952,"eng":1953,"Ġstudents":1954,"astor":1955,"Ġhusband":1956,"urch":1957,"Ġincrease":1958,"ef":1959,"Ġricin":1960,"ĠBar":1961,"ĠMonday":1962,"ĠMad":1963,"Ġking":1964,"Ġcent":1965,"Ġelect":1966,"As":1967,"Ġ25":1968,"ĠCommission":1969,"ĠFinal":1970,"ĠFederal":1971,"ject":1972,"Ġjud":1973,"If":1974,"Ġthrough":1975,"Ġmembers":1976,"ira":1977,"Ġtravel":1978,"Ġcur":1979,"anda":1980,"Ġwahala":1981,"una":1982,"ĠBoko":1983,"Ġtrue":1984,"tle":1985,"ĠPort":1986,"ĠResults":1987,"Th":1988,"Ġaward":1989,"Ġnear":1990,"Ġclaim":1991,"ĠRivers":1992,"ĠKen":1993,"ĠSec":1994,"ĠYou":1995,"Ġmain":1996,"lophone":1997,"ases":1998,"son":1999,"AC":2000,"conom":2001,"Ġlong":2002,"esido":2003,"ready":2004,"Ġimport":2005,"omot":2006,"amu":2007,"Ġinst":2008,"Ġpict":2009,"awa":2010,"Ġrecord":2011,"Ġind":2012,"ĠSe":2013,"Ġla":2014,"ax":2015,"Ġsol":2016,"Ġdist":2017,"Ġsix":2018,"Ġprop":2019,"Ġground":2020,"OR":2021,"33":2022,"Ġupd":2023,"ĠEng":2024,"Ġpopular":2025,"self":2026,"Ġside":2027,"Ġmarket":2028,"ĠRep":2029,"Ġob":2030,"Ġcatch":2031,"ely":2032,"Ġcity":2033,"Ġshoot":2034,"Ġfall":2035,"sef":2036,"Ġdecl":2037,"aba":2038,"ts":2039,"Ġinv":2040,"Ġkind":2041,"Ġes":2042,"wu":2043,"tr":2044,"Ġwater":2045,"ĠINEC":2046,"Ġserious":2047,"Ġfederal":2048,"gbon":2049,"ĠCoronavirus":2050,"ampions":2051,"Ġdep":2052,",\"":2053,"Ġoper":2054,"Ġnight":2055,"Ġclear":2056,"Ġair":2057,"ms":2058,"Ġkontris":2059,"til":2060,"ye":2061,"Ġmove":2062,"ĠWed":2063,"Ġcompl":2064,"Ġyor":2065,"Ġmonths":2066,"29":2067,"Ġmouth":2068,"Ġprogram":2069,"ĠErica":2070,"oci":2071,"So":2072,"Ġ21":2073,"tal":2074,"Ġalready":2075,"Ġwhile":2076,"Ġchildren":2077,"Ġready":2078,"onse":2079,"Pr":2080,"uch":2081,"Ġstand":2082,"Ġspecial":2083,"oke":2084,"Ġhous":2085,"Ġstage":2086,"Ġpromise":2087,"Ġsy":2088,"ĠDare":2089,"Ġpalava":2090,"Ġserve":2091,"ead":2092,"Ġwear":2093,"duc":2094,"Ġthough":2095,"ience":2096,"ark":2097,"Ġphone":2098,"Ġrule":2099,"ĠMal":2100,"iku":2101,"ĠEn":2102,"eal":2103,"Ġinto":2104,"gbonge":2105,"Ġpeace":2106,"Ġlose":2107,"Ġsl":2108,"AF":2109,"Ġupdate":2110,"Ġwi":2111,"ĠTu":2112,"Ġcelebr":2113,"Ġcoach":2114,"Ġdoct":2115,"elle":2116,"tin":2117,"Ġmarry":2118,"ĠSuper":2119,"Ġamong":2120,"ĠGov":2121,"gypt":2122,"leep":2123,"Ġorgan":2124,"Ġreally":2125,"ĠDen":2126,"Ġ23":2127,"aseki":2128,"She":2129,"ĠFriday":2130,"FA":2131,"Ġthan":2132,"Ġways":2133,"ury":2134,"Ġuntil":2135,"ron":2136,"ather":2137,"Ġhere":2138,"Ġwhich":2139,"ĠInvestigate":2140,"ific":2141,"Ġ22":2142,"ĠEur":2143,"Ġstrike":2144,"else":2145,"olog":2146,"embly":2147,"ĠTuesday":2148,"ĠRussia":2149,"Ġthose":2150,"Ġdevice":2151,"nesday":2152,"thern":2153,"Ġsuffer":2154,"earch":2155,"Ġsk":2156,"Al":2157,"Ġgame":2158,"Ġkeep":2159,"ĠCity":2160,"ĠJust":2161,"Ġevri":2162,"Ġminister":2163,"Ġqual":2164,"Ġmess":2165,"ĠOr":2166,"ĠAnglophone":2167,"Ġgovnor":2168,"Ġplayers":2169,"ĠGu":2170,"Ġsit":2171,"io":2172,"Ġcases":2173,"ĠObaseki":2174,"Ġresponse":2175,"ccess":2176,"Ġsal":2177,"iel":2178,"Ġremain":2179,"ĠWednesday":2180,"ĠDay":2181,"Ġbest":2182,"Ġvict":2183,"mit":2184,"Ġsleep":2185,"aign":2186,"umption":2187,"ĠOk":2188,"AN":2189,"lish":2190,"IN":2191,"bab":2192,"ĠUN":2193,"Ġregion":2194,"Ġmiss":2195,"ton":2196,"EN":2197,"Ġmoni":2198,"ph":2199,"Ġpray":2200,"...":2201,"Ġcrisis":2202,"ĠBe":2203,"Ġph":2204,"How":2205,"way":2206,"gest":2207,"abe":2208,"esh":2209,"Af":2210,"Ġlear":2211,"uthorities":2212,"Ġburn":2213,"Ġinf":2214,"Ġresumption":2215,"Ġspe":2216,"Ġteachers":2217,"dom":2218,"Ġforce":2219,"Ġexplain":2220,"Ġhard":2221,"Ġpain":2222,"augh":2223,"Ġ26":2224,"ĠMe":2225,"Ġartist":2226,"Ġhonour":2227,"Ġsuccess":2228,"ducation":2229,"ĠAh":2230,"Ġhuman":2231,"ĠEgypt":2232,"Ġdeal":2233,"co":2234,"Ġ2021":2235,"Ġdeclare":2236,"Ad":2237,"bodi":2238,"Ġallegations":2239,"sease":2240,"ipo":2241,"Ġseven":2242,"velop":2243,"ĠFour":2244,"Ġcheck":2245,"ral":2246,"Ġexper":2247,"Ġcapital":2248,"ĠNorth":2249,"Ġcre":2250,"ird":2251,"ĠGb":2252,"Ġfore":2253,"Ġcommit":2254,"Ġsave":2255,"Ġogbonge":2256,"Ġrest":2257,"ift":2258,"ures":2259,"Ġbeen":2260,"ounc":2261,"ĠSome":2262,"Ġvill":2263,"Ġreact":2264,"Ġsold":2265,"ĠPaul":2266,"Ġ199":2267,"Ġsusp":2268,"ĠSam":2269,"senal":2270,"Ġpolitical":2271,"court":2272,"ĠInternational":2273,"orning":2274,"Ġ27":2275,"iers":2276,"Ġcampaign":2277,"uty":2278,"ix":2279,"line":2280,"ffic":2281,"here":2282,"Ġcompany":2283,"ĠSar":2284,"ĠAccording":2285,"Ġpic":2286,"Ġanother":2287,"ĠAmerica":2288,"Ġkomot":2289,"Ġdirect":2290,"chi":2291,"ĠEx":2292,"ĠBrother":2293,"Ġcons":2294,"Ġform":2295,"Ġwait":2296,"Ġlearn":2297,"kr":2298,"Ġiss":2299,"wh":2300,"gr":2301,"Ġprogramme":2302,"Ġtrain":2303,"Ġhope":2304,"iversities":2305,"Ġreduce":2306,"Ġeach":2307,"),":2308,"rid":2309,"ĠGeneral":2310,"alf":2311,"Ġprov":2312,"ĠLeg":2313,"Ġpresidential":2314,"ĠPart":2315,"Ġinternational":2316,"One":2317,"\".":2318,"tain":2319,"Ġservice":2320,"FCC":2321,"ĠMus":2322,"Ġcandidate":2323,"ursday":2324,"Ġconcern":2325,"akar":2326,"ross":2327,"Ġgun":2328,"ĠOm":2329,"Ġarmy":2330,"Ġhot":2331,"Ġac":2332,"Ġcoll":2333,"ding":2334,"Ġpicture":2335,"Ch":2336,"ON":2337,"Ġsist":2338,"etition":2339,"Ġmorning":2340,"ces":2341,"Ġcari":2342,"Ġbeg":2343,"ination":2344,"ĠThursday":2345,"ĠCent":2346,"ession":2347,"ism":2348,"agles":2349,"elsea":2350,"ask":2351,"ceive":2352,"Ġimportant":2353,"ĠWom":2354,"red":2355,"ats":2356,"bum":2357,"unch":2358,"uck":2359,"ĠTol":2360,"ĠHarcourt":2361,"ruption":2362,"Ġworkers":2363,"imes":2364,"ĠAg":2365,"Ġage":2366,"sw":2367,"ĠAct":2368,"Ġdrink":2369,"Ġboys":2370,").":2371,"ĠMos":2372,"ĠCo":2373,"Ġheav":2374,"Ġsw":2375,"por":2376,"ouncil":2377,"Ġcharge":2378,"chester":2379,"ĠDemoc":2380,"ene":2381,"Ġschools":2382,"ĠST":2383,"Ġbook":2384,"Ġcorrect":2385,"ĠEk":2386,"FK":2387,"Ġbeta":2388,"ĠPastor":2389,"IC":2390,"Ġ29":2391,"uj":2392,"ased":2393,"aine":2394,"Ġmov":2395,"Ġseparation":2396,"iy":2397,"eter":2398,"Ġspread":2399,"eme":2400,"Ġspend":2401,"iol":2402,"ma":2403,"Ġbank":2404,"RT":2405,"stit":2406,"yamu":2407,"ti":2408,"ĠIze":2409,"Ġdisease":2410,"inger":2411,"ĠBible":2412,"ĠOjo":2413,"ĠFFK":2414,"Ġfine":2415,"No":2416,"Ġ28":2417,"Ġmuch":2418,"ĠPap":2419,"ĠGovernor":2420,"ĠTe":2421,"resent":2422,"Ġpickin":2423,"ĠAssembly":2424,"Iyamu":2425,"ative":2426,"Ġref":2427,"Ġbelle":2428,"Ġinclude":2429,"Ġchurch":2430,"Ġincluding":2431,"ĠChina":2432,"riage":2433,"Ġlevel":2434,"ID":2435,"net":2436,"Ġpoint":2437,"Ġopposition":2438,"Ġprotect":2439,"imal":2440,"airman":2441,"ĠGo":2442,"Ġshar":2443,"ĠEurope":2444,"Ġoil":2445,"Ġcontrol":2446,"Ġaccount":2447,"ĠArsenal":2448,"Ġtit":2449,"ries":2450,"Ġjourn":2451,"Ġro":2452,"Ġeconom":2453,"Ġsuccessful":2454,"ĠMoh":2455,"ĠEagles":2456,"ĠOg":2457,"In":2458,"ivil":2459,"Ġdecide":2460,"Ġwhole":2461,"Ġins":2462,"Ġhousem":2463,"Ġadv":2464,"ĠAy":2465,"DC":2466,"ote":2467,"And":2468,"ety":2469,"Ġtweet":2470,"ĠFrance":2471,"ueen":2472,"bs":2473,"ajor":2474,"Ġinvestig":2475,"Ġcommunity":2476,"els":2477,"iral":2478,"Ġdrop":2479,"Ġdraw":2480,"ector":2481,"Ġrape":2482,"Ġprof":2483,"ĠChelsea":2484,"Ġheart":2485,"ĠBest":2486,"ĠLaw":2487,"Ġgrow":2488,"ĠChampions":2489,"Ġ2016":2490,"ĠBab":2491,"Ġresult":2492,"Ġcontest":2493,"Ġhome":2494,"Ġfake":2495,"Ġ2015":2496,"ĠUkr":2497,"aki":2498,"Ġexp":2499,"acc":2500,"oph":2501,"213":2502,"Ġsomething":2503,"ratic":2504,"Ġuniversities":2505,"Ġlie":2506,"\"\".":2507,"Ġbeh":2508,"ple":2509,"ann":2510,"ĠAtiku":2511,"ĠGbese":2512,"ĠChief":2513,"ĠCl":2514,"west":2515,"ĠPapi":2516,"AS":2517,"ĠArot":2518,"Ġdel":2519,"Ġnom":2520,"ĠMy":2521,"ĠLegwork":2522,"stand":2523,"ĠSal":2524,"Ġkidnap":2525,"Ġnorth":2526,"ĠProf":2527,"ĠBrit":2528,"Ġinvestigate":2529,"ues":2530,"ĠEFCC":2531,"ĠAbd":2532,"Ġtink":2533,"Ġboth":2534,"ĠArotile":2535,"ĠMoham":2536,"rib":2537,"31":2538,"ĠManchester":2539,"ĠĠĊ":2540,"Ġdead":2541,"Ġdecision":2542,"Ġgoals":2543,"Ġcelebrate":2544,"ĠSenator":2545,"iti":2546,"Ġmessage":2547,"Ġrish":2548,"ĠPar":2549,"ims":2550,"Ġcoup":2551,"Ġpres":2552,"aph":2553,"Power":2554,"Ġsaf":2555,"Ġsom":2556,"You":2557,"ated":2558,"ĠBi":2559,"aid":2560,"no":2561,"ĠTolul":2562,"Ġtill":2563,"Ġvirus":2564,"aur":2565,"Ġbillion":2566,"dsmen":2567,"ĠĠĠ":2568,"Ġap":2569,"ĠHim":2570,"ĠQueen":2571,"Ġperform":2572,"acy":2573,"Ġblack":2574,"ĠParty":2575,"Ġhost":2576,"Ġstar":2577,"Ġpress":2578,"Ġsack":2579,"ĠTV":2580,"Ġwill":2581,"De":2582,"Ġdrug":2583,"Ġpro":2584,"Ġtrad":2585,"Ġsinger":2586,"Ġsoldiers":2587,"Ġviol":2588,"ona":2589,"ĠBlack":2590,"hero":2591,"ently":2592,"Ġspeak":2593,"Ġ50":2594,"ĠSenate":2595,"ĠKenya":2596,"Ġsweet":2597,"oub":2598,"chn":2599,"ĠNations":2600,"ĠJer":2601,"Ġinj":2602,"Ġquest":2603,"epend":2604,"ient":2605,"Ġhar":2606,"inistry":2607,"aud":2608,"ĠCongress":2609,"Ġcurr":2610,"Ġanimal":2611,"Ġweeks":2612,"aise":2613,"ĠHealth":2614,"Ġhalf":2615,"aked":2616,"ft":2617,"ott":2618,"Ġexpect":2619,"oro":2620,"ane":2621,"ĠEb":2622,"Ġoutside":2623,"aduna":2624,"angu":2625,"ĠAF":2626,"Ġthey":2627,"ĠBay":2628,"ĠAS":2629,"pool":2630,"Ġsense":2631,"Ġsouth":2632,"arr":2633,"Ġsick":2634,"Ġthere":2635,"Ġstudy":2636,"Ġdeny":2637,"Ġauthorities":2638,"Ġworry":2639,"ĠMadrid":2640,"ĠAward":2641,"Ġ80":2642,"Ġmarriage":2643,"lam":2644,"Ġreceive":2645,"ufo":2646,"Ġhave":2647,"iverpool":2648,"Ġhist":2649,"Ġjob":2650,"ĠJon":2651,"Ġweda":2652,"ndo":2653,"ĠPremi":2654,"Ġdan":2655,"oma":2656,"Ġok":2657,"Ġchoose":2658,"Why":2659,"Ġproc":2660,"Ġanything":2661,"ĠSav":2662,"ĠIRT":2663,"ines":2664,"Ġvillage":2665,"Ġmot":2666,"ention":2667,"Ġcorruption":2668,"itiz":2669,"Ġansa":2670,"joy":2671,"acher":2672,"',":2673,"Make":2674,"Ġchall":2675,"Ġbur":2676,"ards":2677,"ility":2678,"Addo":2679,"ĠWomen":2680,"Ġnaked":2681,"ĠBo":2682,"formation":2683,"ondon":2684,"Ġu":2685,"Ġchook":2686,"mal":2687,"ĠSTS":2688,"ACS":2689,"Ġhol":2690,"ĠDemocratic":2691,"Ghana":2692,"ĠAbub":2693,"Ġwon":2694,"lia":2695,"ĠTolulpe":2696,"erman":2697,"ĠSACS":2698,"ĠJustice":2699,"ĠOy":2700,"Ġwithout":2701,"ĠGovnor":2702,"bi":2703,"Ġsalary":2704,"ror":2705,"oral":2706,"Ġmanag":2707,"Ġfail":2708,"ĠBank":2709,"ĠAkufo":2710,"ĠAmerican":2711,"ĠArmy":2712,"Some":2713,"Ġmajor":2714,"onald":2715,"Ġleast":2716,"ley":2717,"Ġexam":2718,"idren":2719,"Ġstudent":2720,"ĠCol":2721,"ka":2722,"Ġpolitic":2723,"Ġwed":2724,"Ġcut":2725,"emale":2726,"while":2727,"ino":2728,"Ġgl":2729,"iest":2730,"Ġav":2731,"head":2732,"ĠLondon":2733,"ĠCon":2734,"Ġcancer":2735,"liament":2736,"ĠUkraine":2737,"ĠAbubakar":2738,"ench":2739,"Ġcontr":2740,"Ġyouth":2741,"Ġdevelop":2742,"Ġrelations":2743,"ĠDel":2744,"Ġgovernor":2745,"Ġlaunch":2746,"Ġblood":2747,"cel":2748,"ection":2749,"ĠBenin":2750,"Ġwas":2751,"Ġcivil":2752,"ĠCom":2753,"ĠSavage":2754,"key":2755,"Ġdiv":2756,"Ġelectric":2757,"Ġvacc":2758,"Ġtrib":2759,"Ġdefend":2760,"ĠPh":2761,"ĠWill":2762,"Ġofficials":2763,"ĠKaduna":2764,"Ġenjoy":2765,"rahim":2766,"ritin":2767,"Ġrights":2768,"uation":2769,"egal":2770,"ports":2771,"Ġblock":2772,"Ġrespect":2773,"light":2774,"Ġremember":2775,"oni":2776,"where":2777,"Ġsub":2778,"Ġagree":2779,"MA":2780,"Ġsolve":2781,"Ġdet":2782,"Ġtax":2783,"Ġ000":2784,"Ġfriends":2785,"Ġactiv":2786,"ĠSan":2787,"Ġhistory":2788,"ets":2789,"Ġearly":2790,"ady":2791,"Ġsuspend":2792,"Ġalbum":2793,"Ġstaff":2794,"tok":2795,"pecial":2796,"ĠAmb":2797,"how":2798,"ĠDir":2799,"Ġova":2800,"Ġflood":2801,"wey":2802,"Ġround":2803,"ension":2804,"ices":2805,"Ġtey":2806,"ream":2807,"Ġanytin":2808,"Ġcarri":2809,"Ġwarn":2810,"Ġcry":2811,"ĠFI":2812,"End":2813,"Ġthird":2814,"Ġson":2815,"Ġlight":2816,"ĠLiverpool":2817,"row":2818,"Ġfront":2819,"ĠYear":2820,"Ġhousemates":2821,"isha":2822,"Ġjudge":2823,"ĠDep":2824,"Ġresign":2825,"Ġunderstand":2826,"Ġeight":2827,"Acc":2828,"BB":2829,"ĠDani":2830,"adium":2831,"ever":2832,"ĠMess":2833,"Ġsin":2834,"ĠGhanaians":2835,"ĠAFP":2836,"Ġfly":2837,"ĠPeople":2838,"Ġshock":2839,"Ġappear":2840,"Ġfarm":2841,"Ġinternet":2842,"ĠFacts":2843,"ĠMat":2844,"ĠPresido":2845,"aughter":2846,"Ġcreate":2847,"ĠSaraki":2848,"Ġder":2849,"akers":2850,"irit":2851,"ĠGovernment":2852,"most":2853,"irm":2854,"emic":2855,"Ġtreatment":2856,"Ġtw":2857,"Ġbill":2858,"Ġwedding":2859,"Ġten":2860,"Ġsexual":2861,"ĠIbrahim":2862,"ĠPipo":2863,"retary":2864,"Ġpriv":2865,"Ġbuilding":2866,"dem":2867,"ĠJose":2868,"Ġago":2869,"Ġhit":2870,"apper":2871,"Ġquick":2872,"US":2873,"Ġnobody":2874,"ges":2875,"Ġshake":2876,"Ġforeign":2877,"jas":2878,"imi":2879,"ĠLek":2880,"ĠBenue":2881,"Ġbab":2882,"Ġposition":2883,"Ġsoon":2884,"enge":2885,"ĠPremier":2886,"te":2887,"Ġblue":2888,"TA":2889,"Ġqualify":2890,"Ġlawm":2891,"Ġeverything":2892,"Cameroon":2893,"ho":2894,"Ġexperience":2895,"ners":2896,"ould":2897,"Ġginger":2898,"Ġlangu":2899,"vers":2900,"Ġremove":2901,"Ġguy":2902,"Ġrob":2903,"Ġrepresent":2904,"''":2905,"Ġacross":2906,"ample":2907,"ĠMed":2908,"Ġteacher":2909,"anwhile":2910,"iam":2911,"Ġones":2912,"irth":2913,"ĠKanu":2914,"ting":2915,"Ġcust":2916,"arry":2917,"iff":2918,"HO":2919,"ĠEven":2920,"Ġactress":2921,"Ġword":2922,"Ġcompetition":2923,"According":2924,"ĠMag":2925,"Ġsurv":2926,"ribe":2927,"ĠGe":2928,"59":2929,"Ġeas":2930,"onaldo":2931,"ĠCO":2932,"ones":2933,"Ġtem":2934,"Ġaccident":2935,"stem":2936,"Ġareas":2937,"ruit":2938,"eration":2939,"imbab":2940,"ĠPol":2941,"gery":2942,"vert":2943,"Ġdema":2944,"Ġactor":2945,"Ġsent":2946,"Ġel":2947,"Ġmag":2948,"ĠFl":2949,"ume":2950,"Ġgada":2951,"Ġprim":2952,"imbabwe":2953,"reg":2954,"Ġappoint":2955,"Ġstreet":2956,"AP":2957,"Ġobey":2958,"ĠLekki":2959,"ĠKw":2960,"ĠReal":2961,"ociation":2962,"inc":2963,"Ġball":2964,"lex":2965,"Ġofficers":2966,"ugg":2967,"kid":2968,"ema":2969,"Ġkw":2970,"Ġtitle":2971,"ĠBur":2972,"ji":2973,"ĠGroup":2974,"ĠPrince":2975,"Ġcountries":2976,"Ġfact":2977,"anjo":2978,"raham":2979,"ĠSenegal":2980,"Ġevritin":2981,"58":2982,"IG":2983,"Ġ31":2984,"pecially":2985,"que":2986,"others":2987,"stitution":2988,"Ġnaira":2989,"Ġinvestigation":2990,"eed":2991,"huk":2992,"Ġevent":2993,"izkid":2994,"ĠBiya":2995,"Ġeverybody":2996,"Ġeducation":2997,"IA":2998,"Ġcitiz":2999,"Ġdoz":3000,"oms":3001,"adio":3002,"SS":3003,"ĠHer":3004,"ĠThis":3005,"Ġinstead":3006,"Ġjournal":3007,"ĠEd":3008,"iminal":3009,"ally":3010,"ĠCouncil":3011,"imum":3012,"usal":3013,"veal":3014,"Ġwinner":3015,"Ġext":3016,"Ġbiggest":3017,"Ġpresent":3018,"50":3019,"ĠSchool":3020,"Ġrelationship":3021,"ights":3022,"Ġcost":3023,"ĠDelta":3024,"yl":3025,"ĠDonald":3026,"ĠFootball":3027,"Ġahead":3028,"ĠItal":3029,"Ġletter":3030,"Ġbased":3031,"ked":3032,"Ġespecially":3033,"ĠMoses":3034,"ĠMessi":3035,"Ġpoor":3036,"iction":3037,"ether":3038,"Ġissue":3039,"though":3040,"Ġcong":3041,"ĠMohammed":3042,"Ġgen":3043,"ung":3044,"Ġtog":3045,"Ġaction":3046,"Ġdoctor":3047,"mar":3048,"Ġreveal":3049,"Ġregister":3050,"iber":3051,"het":3052,"ĠAbraham":3053,"Ġruling":3054,"Ġansw":3055,"Ġpreach":3056,"Ġforces":3057,"uction":3058,"ĠMor":3059,"order":3060,"aper":3061,"Ġelectricity":3062,"Ġsn":3063,"My":3064,"gether":3065,"pic":3066,"Ġalmost":3067,"Ġsystem":3068,"Ġthank":3069,"ĠNews":3070,"Ġchance":3071,"Ġregions":3072,"ĠWho":3073,"erem":3074,"Ġrepl":3075,"reak":3076,"lu":3077,"time":3078,"Ġ2022":3079,"Ġparents":3080,"Ġokay":3081,"uma":3082,"Even":3083,"ahoo":3084,"Ġdri":3085,"ouch":3086,"Ġrecruit":3087,"ena":3088,"Ġmedical":3089,"udan":3090,"Ġsurgery":3091,"Ġonline":3092,"ĠProg":3093,"Ġconfirm":3094,"Ġself":3095,"ĠIg":3096,"Ġdaughter":3097,"Ġhandle":3098,"Ġsituation":3099,"Ġpolic":3100,"Ġposs":3101,"ĠEnglish":3102,"oil":3103,"Ġlanguage":3104,"Ġtogeda":3105,"ield":3106,"Ġawa":3107,"Ġhis":3108,"ĠMich":3109,"Ġprice":3110,"Ġcard":3111,"usalem":3112,"ny":3113,"Ġbobo":3114,"Ġfemale":3115,"ousand":3116,"ĠSc":3117,"ĠGerman":3118,"reen":3119,"Ġcommission":3120,"outhern":3121,"manuel":3122,"Ġgeneral":3123,"Ġdeb":3124,"ĠService":3125,"ias":3126,"ĠBoy":3127,"ĠBritish":3128,"Ġ40":3129,"Ġterror":3130,"Ġeng":3131,"Ġappr":3132,"ĠAfta":3133,"ĠMin":3134,"ology":3135,"Ġint":3136,"ĠChuk":3137,"Ġrain":3138,"Ġprost":3139,"ĠRonaldo":3140,"ĠRepublic":3141,"aster":3142,"Ġprocess":3143,"Ġpriest":3144,"See":3145,"ima":3146,"Ġbirth":3147,"ĠCont":3148,"orge":3149,"Ġpresido":3150,"Ġexample":3151,"ĠDavido":3152,"Ġcomplain":3153,"aye":3154,"Ġdoctors":3155,"ploy":3156,"Ġquestion":3157,"ĠZimbabwe":3158,"Ġterm":3159,"ĠNn":3160,"Ġrules":3161,"Ġmotor":3162,"Ġkidnapp":3163,"Ġtogether":3164,"uru":3165,"qual":3166,"Ġattend":3167,"ajo":3168,"ugabe":3169,"Ġseparat":3170,"Ġris":3171,"abour":3172,"ĠEngland":3173,"cue":3174,"Ġthreat":3175,"emy":3176,"attle":3177,"ulture":3178,"oz":3179,"Ġbaby":3180,"ania":3181,"ela":3182,"Ġ2014":3183,"ĠDirector":3184,"Ġanswer":3185,"Wen":3186,"Ġplane":3187,"ĠLib":3188,"ĠRam":3189,"ĠRich":3190,"Ġoperation":3191,"inb":3192,"Ġpawa":3193,"Ġeasy":3194,"its":3195,"Ġnormal":3196,"pm":3197,"oud":3198,"AM":3199,"idge":3200,"ford":3201,"raz":3202,"idence":3203,"Ġcentre":3204,"gency":3205,"Ġherdsmen":3206,"dey":3207,"Ġpast":3208,"Ġpoll":3209,"isation":3210,"ev":3211,"itional":3212,"President":3213,"Ġviolence":3214,"On":3215,"asanjo":3216,"uture":3217,"Ġprivate":3218,"ael":3219,"Ġresearch":3220,"Ġeconomy":3221,"elsa":3222,"ES":3223,"igr":3224,"esty":3225,"Ġadm":3226,"Ġstrik":3227,"ĠCr":3228,"thi":3229,"Ġchallenge":3230,"enty":3231,"osit":3232,"Del":3233,"TER":3234,"let":3235,"He":3236,"ota":3237,"ops":3238,"Ġproduce":3239,"Ġsentence":3240,"enda":3241,"Ġbless":3242,"Ġfast":3243,"Ġdoll":3244,"Ġcover":3245,"53":3246,"Ġinterest":3247,"ĠBurn":3248,"Ġwhat":3249,"Ġtraff":3250,"ĠSol":3251,"ĠVice":3252,"ĠUg":3253,"Ġgreat":3254,"ĠSudan":3255,"ĠCongo":3256,"ĠWizkid":3257,"ĠIslam":3258,"aith":3259,"Ġtear":3260,"athan":3261,"Ġanyhow":3262,"artment":3263,"celona":3264,"Ġpage":3265,"Ġmusician":3266,"ĠDon":3267,"Ġforget":3268,"Ġspoil":3269,"ecut":3270,"Ġcan":3271,"ĠMugabe":3272,"orry":3273,"Ġgroups":3274,"This":3275,"NG":3276,"Ġhide":3277,"ĠUnion":3278,"thiop":3279,"oe":3280,"Ġreplace":3281,"omb":3282,"iron":3283,"Ġesc":3284,"Ġtar":3285,"str":3286,"Ġsister":3287,"Ġserv":3288,"ĠFIFA":3289,"ĠOndo":3290,"Ġcloth":3291,"Ġsot":3292,"Ġ198":3293,"Ġgold":3294,"irst":3295,"Ġarrange":3296,"upp":3297,"aso":3298,"Ġsojas":3299,"Ġgames":3300,"ĠIk":3301,"Oga":3302,"ellow":3303,"Ġcommittee":3304,"Ġrecruitment":3305,"ĠHead":3306,"Police":3307,"ĠX":3308,"Ġshidren":3309,"ĠNy":3310,"ĠJerusalem":3311,"apse":3312,"rise":3313,"ĠSamuel":3314,"ham":3315,"open":3316,"Ġprep":3317,"ĠTrap":3318,"Ġrecover":3319,"ĠFrench":3320,"ument":3321,"VID":3322,"ulate":3323,"016":3324,"ĠApp":3325,"ĠChristian":3326,"cle":3327,"Ġhair":3328,"upr":3329,"inea":3330,"155":3331,"Ġproper":3332,"RIC":3333,"iod":3334,"Ġsha":3335,"Ġexc":3336,"Ġrescue":3337,"God":3338,"Ġty":3339,"Ġdrive":3340,"ament":3341,"ij":3342,"Ġtrial":3343,"orters":3344,"uters":3345,"Ġincident":3346,"orrow":3347,"Ġthen":3348,"obi":3349,"xtape":3350,"ĠMel":3351,"Ġofficer":3352,"atter":3353,"illeg":3354,"yr":3355,"ĠFal":3356,"Ġvotes":3357,"ĠObasanjo":3358,"break":3359,"reement":3360,"Ġwella":3361,"ied":3362,"rict":3363,"ĠMany":3364,"Ġalleged":3365,"Ġstory":3366,"Ġshine":3367,"ĠFC":3368,"ĠWike":3369,"Ġleague":3370,"ĠStates":3371,"Ġmod":3372,"ĠKidd":3373,"Ġsextape":3374,"Ġparts":3375,"aces":3376,"aries":3377,"Ġroom":3378,"NT":3379,"Ġtwitter":3380,"336":3381,"Ġpoliticians":3382,"Delete":3383,"oul":3384,"undred":3385,"Ġceleb":3386,"inbajo":3387,"Ġprepare":3388,"ĠCan":3389,"ĠFay":3390,"ili":3391,"ertific":3392,"Ġproject":3393,"ĠBayelsa":3394,"een":3395,"arn":3396,"dah":3397,"esterday":3398,"Ġvictims":3399,"Ġeh":3400,"Ġprevent":3401,"Ġbrothers":3402,"Ġrisk":3403,"ecutive":3404,"Ġblow":3405,"Ġadvice":3406,"ĠAssociation":3407,"Ġinformation":3408,"Ġkomm":3409,"Ġgrand":3410,"ubu":3411,"ĠSecretary":3412,"upreme":3413,"Ġmist":3414,"ĠAdam":3415,"Tori":3416,"Ġnet":3417,"Ġdesc":3418,"Ġdrag":3419,"AT":3420,"Ġsav":3421,"ipol":3422,"essor":3423,"Ġresults":3424,"40":3425,"ith":3426,"ĠKore":3427,"ĠUna":3428,"Ġclean":3429,"Ġheavy":3430,"Ġtotal":3431,"Ġdemand":3432,"Ġsurp":3433,"Ġairport":3434,"ider":3435,"When":3436,"Ġcommun":3437,"Ġbeing":3438,"ĠAdek":3439,"Ġcondition":3440,"Ġilleg":3441,"ĠChar":3442,"Ġrelig":3443,"Ġlawmakers":3444,"ita":3445,"ĠProgress":3446,"Ġinvol":3447,"Ġwhether":3448,"Ġcross":3449,"Ġhighest":3450,"ouble":3451,"Ġrapper":3452,"ĠEthiop":3453,"Ġuniversity":3454,"Ġchief":3455,"Ġfew":3456,"ĠNw":3457,"Ġcomment":3458,"Ġfuture":3459,"Ġprovide":3460,"ĠOgun":3461,"Ġtouch":3462,"Ġhelep":3463,"ogle":3464,"obal":3465,"Ġparties":3466,"Me":3467,"ense":3468,"Ġfun":3469,"Ġkarry":3470,"ĠGuinea":3471,"PO":3472,"Ġpun":3473,"ĠDo":3474,"Ġimp":3475,"ĠPresidential":3476,"Ġboxer":3477,"Ġcollapse":3478,"ĠGoment":3479,"ization":3480,"fra":3481,"Ġthese":3482,"ender":3483,"airs":3484,"gement":3485,"olo":3486,"anz":3487,"Ġsan":3488,"omi":3489,"elev":3490,"Ġstriker":3491,"rin":3492,"Ġcrime":3493,"SP":3494,"ultan":3495,"ĠAhmed":3496,"Ġpossible":3497,"ĠBarcelona":3498,"Ġsafe":3499,"ĠAwards":3500,"aji":3501,"Ġlect":3502,"ĠArt":3503,"Ġteams":3504,"Ġgod":3505,"ĠFin":3506,"ĠMark":3507,"Ġraise":3508,"ĠGeorge":3509,"Ġposit":3510,"come":3511,"Ġthousand":3512,"Ġspirit":3513,"esidency":3514,"Ġemer":3515,"atives":3516,"Ġnation":3517,"Ġsenior":3518,"Ġhas":3519,"ĠIr":3520,"All":3521,"mi":3522,"Ġbud":3523,"itor":3524,"ĠReg":3525,"Ġwage":3526,"uba":3527,"ardi":3528,"ambia":3529,"Ġ[":3530,"ĠJonathan":3531,"Ġmanager":3532,"ĠBuk":3533,"Ġcriminal":3534,"Ġpurs":3535,"Ġpunish":3536,"LD":3537,"Ġsum":3538,"ĠĠĠĠĠĠĠĠĠĠĠĠĠĠĠĠĠĠĠĠĠĠĠĠĠĠĠĠĠĠĠĠ":3539,"IGER":3540,"waya":3541,"anger":3542,"adan":3543,"ĠReuters":3544,"Ġanimals":3545,"ĠGhanaian":3546,"estival":3547,"Ġlawyers":3548,"Ġdream":3549,"ĠEast":3550,"Ġnine":3551,"MENT":3552,"ourage":3553,"Ġrice":3554,"Ġagreement":3555,"ube":3556,"Ġquar":3557,"RICA":3558,"Ġrite":3559,"Ġimpr":3560,"abo":3561,"ĠOrgan":3562,"eman":3563,"Ġbudget":3564,"60":3565,"oyal":3566,"aking":3567,"Ġclass":3568,"Ġpolitics":3569,"ĠChukwu":3570,"ĠNaira":3571,"Ġcomplete":3572,"ĠMusl":3573,"ĠCentral":3574,"uggle":3575,"cast":3576,"Ġah":3577,"ĠOsh":3578,"ighb":3579,"ĠOsinbajo":3580,"Ġcitizens":3581,"Ġsurprise":3582,"anya":3583,"ĠLibya":3584,"Ġsorry":3585,"Ġcal":3586,"ĠMah":3587,"Ġtor":3588,"atan":3589,"ella":3590,"lege":3591,"oya":3592,"Ġperiod":3593,"ĠFuel":3594,"lym":3595,"ĠChairman":3596,"Ġpursue":3597,"St":3598,"Ġborder":3599,"ambra":3600,"Ġsharp":3601,"ĠSultan":3602,"Ġmanage":3603,"Ġjustice":3604,"Ġnotice":3605,"Ġeast":3606,"Ġtechn":3607,"ots":3608,"orial":3609,"atta":3610,"Ġsug":3611,"Ġsuspects":3612,"Ġ;":3613,"Ġbail":3614,"ular":3615,"ifa":3616,"ĠOsun":3617,"Ġsurvive":3618,"ves":3619,"ĠMinistry":3620,"ĠCommissioner":3621,"Ġsid":3622,"ĠJud":3623,"SC":3624,"Ġz":3625,"Ġadvise":3626,"emn":3627,"amdi":3628,"zek":3629,"ali":3630,"Ġparliament":3631,"porate":3632,"ĠOff":3633,"Ġwebs":3634,"Ġmakeup":3635,"Ġseller":3636,"oice":3637,"Ġabeg":3638,"erve":3639,"Ġcrash":3640,"ĠBel":3641,"ĠFive":3642,"iri":3643,"Ġkillings":3644,"Ġpartic":3645,"etimes":3646,"Ġbehind":3647,"Ġcontract":3648,"alia":3649,"etrol":3650,"ilty":3651,"ĠBam":3652,"ĠPeter":3653,"Ġtransfer":3654,"onder":3655,"Ġtarget":3656,"Ġdescribe":3657,"Ġ35":3658,"Ġkilling":3659,"ĠSpecial":3660,"Ġstation":3661,"iano":3662,"Ġsingle":3663,"ĠMali":3664,"Ġnames":3665,"Ġvisa":3666,"Ġyesterday":3667,"Ġhundred":3668,"ĠArab":3669,"riend":3670,"gi":3671,"Ġfav":3672,"itions":3673,"Ġless":3674,"ĠEducation":3675,"Ġvoters":3676,"Ġpopulation":3677,"ĠIndia":3678,"Sh":3679,"Ġcup":3680,"ĠAlex":3681,"ĠWar":3682,"ugu":3683,"Ġwrong":3684,"Ġdoc":3685,"ĠOffic":3686,"Ġtorch":3687,"'t":3688,"cl":3689,"ico":3690,"Ġimm":3691,"Ġval":3692,"ĠPrime":3693,"ĠAccra":3694,"ĠKiddwaya":3695,"andemic":3696,"ĠDaniel":3697,"Ġagency":3698,"Anthony":3699,"Ġfeat":3700,"Ġwarning":3701,"2021":3702,"ĠMeanwhile":3703,"Ġcerem":3704,"ĠVict":3705,"Ġreply":3706,"odeine":3707,"Ġwest":3708,"icine":3709,"Ġcustom":3710,"arm":3711,"urb":3712,"Ġreopen":3713,"ecause":3714,"ĠCOVID":3715,"thers":3716,"IS":3717,"Ġillegal":3718,"Ar":3719,"Ġfaith":3720,"Ġaway":3721,"Ġfreed":3722,"ĠKam":3723,"Ġfinally":3724,"ĠChin":3725,"Ġpara":3726,"ĠUganda":3727,"Ġrush":3728,"anies":3729,"Ġindepend":3730,"ociety":3731,"ients":3732,"ĠAnambra":3733,"ĠNg":3734,"Ġchairman":3735,"IGERIA":3736,"uke":3737,"uje":3738,"ĠJane":3739,"Ġrobber":3740,"Ġviral":3741,"BBC":3742,"AFRICA":3743,"ĠEkiti":3744,"urder":3745,"Ġopport":3746,"ĠBurna":3747,"ĠDE":3748,"Ġrich":3749,"Ġang":3750,"ĠRiver":3751,"ĠSupreme":3752,"Ġcondemn":3753,"Ġsettle":3754,"Ġvaccine":3755,"Ġrequ":3756,"Ġwebsite":3757,"ogi":3758,"Ġsite":3759,"Ġcommot":3760,"Ġaddress":3761,"mo":3762,"Ġcorporate":3763,"Ġguilty":3764,"ĠGoogle":3765,"Ġharass":3766,"ĠKorea":3767,"Ġtable":3768,"ĠSw":3769,"ĠCar":3770,"Ġdiscuss":3771,"Ġident":3772,"Ġple":3773,"Ġamb":3774,"osec":3775,"Ġaccept":3776,"Ġbreast":3777,"Ġreject":3778,"Ġoutbreak":3779,"ĠEmmanuel":3780,"Ġdistroy":3781,"made":3782,"eech":3783,"ĠEuropean":3784,"ĠYork":3785,"Ġassist":3786,"bu":3787,"Ġneighb":3788,"ĠElections":3789,"Ġcurrent":3790,"by":3791,"less":3792,"Ġloss":3793,"irc":3794,"Ġgbab":3795,"Ġcouple":3796,"Ġburial":3797,"!!":3798,"IV":3799,"uge":3800,"elevision":3801,"Ġalive":3802,"esters":3803,"ĠSecurity":3804,"mins":3805,"ĠLiber":3806,"Ġjudgement":3807,"razil":3808,"mon":3809,"Ġjail":3810,"car":3811,"Ġpush":3812,"Ġgb":3813,"Ġtrust":3814,"Ġfreedom":3815,"ery":3816,"ĠOd":3817,"Ġminimum":3818,"Ġcharges":3819,"ĠUB":3820,"Ġ60":3821,"bn":3822,"Ġline":3823,"Ġlink":3824,"ĠWHO":3825,"Ġconvert":3826,"ĠFormer":3827,"ĠCommit":3828,"amf":3829,"Ġceremony":3830,"ĠStr":3831,"Ġheaven":3832,"TAIN":3833,"ĠFayose":3834,"ertificate":3835,"Mr":3836,"racy":3837,"ica":3838,"ĠAman":3839,"Ġinformate":3840,"ORLD":3841,"Ġstadium":3842,"encies":3843,"oid":3844,"ateau":3845,"Ġarg":3846,"ENTER":3847,"Ġkommand":3848,"Ġnomin":3849,"ex":3850,"Ġfound":3851,"ĠMo":3852,"Ġtrend":3853,"ĠGand":3854,"Ġrefer":3855,"ĠKingdom":3856,"Ġforward":3857,"ĠObi":3858,"uthority":3859,"TAINMENT":3860,"Ġpandemic":3861,"ahi":3862,"ances":3863,"WORLD":3864,"ĠGood":3865,"Ġmins":3866,"ENTERTAINMENT":3867,"Ġlectur":3868,"Ġtorchlight":3869,"nesty":3870,"otos":3871,"aga":3872,"ensive":3873,"Ġdefeat":3874,"ago":3875,"inistration":3876,"ĠGermany":3877,"ĠCentre":3878,"CO":3879,"ĠOlym":3880,"ederation":3881,"Ġkl":3882,"Ġcompanies":3883,"Ġholy":3884,"ĠNnamdi":3885,"ĠKh":3886,"ĠBefore":3887,"Ġbattle":3888,"ĠUs":3889,"ĠCommittee":3890,"Ġmurder":3891,"Be":3892,"zi":3893,"Ġboss":3894,"Ġpoints":3895,"aiz":3896,"Ġproduct":3897,"gent":3898,"UU":3899,"Ġwonder":3900,"iafra":3901,"Ġapplic":3902,"Ġevening":3903,"UN":3904,"ĠKim":3905,"rom":3906,"Ġrole":3907,"Ġneg":3908,"ogo":3909,"NIGERIA":3910,"Ġwhite":3911,"Ġprimary":3912,"EA":3913,"oye":3914,"cement":3915,"Ġtourn":3916,"ĠRed":3917,"Ġtemple":3918,"Ġcass":3919,"ĠMusic":3920,"Ġmistake":3921,"Ġspeech":3922,"uju":3923,"ĠJoseph":3924,"Is":3925,"Ġwound":3926,"Ġshot":3927,"To":3928,"Ġwake":3929,"ustry":3930,"bl":3931,"give":3932,"Ġemb":3933,"ĠIv":3934,"Ġconn":3935,"Ġwithin":3936,"Ġmid":3937,"iams":3938,"ffairs":3939,"157":3940,"ĠSpain":3941,"Ġmis":3942,"ĠJe":3943,"ĠJohnson":3944,"iwa":3945,"Ġresume":3946,"onia":3947,"Ġkoll":3948,"Ġlaws":3949,"hood":3950,"Ġpenal":3951,"Ġmatches":3952,"ĠIgbo":3953,"ll":3954,"ĠItaly":3955,"Ġsuper":3956,"Ġissues":3957,"57":3958,"ĠBill":3959,"Ġest":3960,"ĠIG":3961,"Ġinvite":3962,"audi":3963,"ĠRichards":3964,"ĠKogi":3965,"ogue":3966,"Ġyouths":3967,"Buhari":3968,"add":3969,"ĠAbdul":3970,"ĠMichael":3971,"Ġkick":3972,"Ġnorthern":3973,"ĠElectoral":3974,"Ġnothing":3975,"iked":3976,"che":3977,"Ġrespond":3978,"Ġsearch":3979,"utin":3980,"Ġtrow":3981,"Ġjam":3982,"ĠCoast":3983,"Ġcassava":3984,"Ġmay":3985,"Ġconstitution":3986,"158":3987,"ĠAdekoya":3988,"Ġemergency":3989,"ĠUBEC":3990,"Ġonce":3991,"ĠPat":3992,"ĠEthiopia":3993,"Ġide":3994,"ĠGl":3995,"ierra":3996,"Ġprosthet":3997,"ĠAmanam":3998,"viral":3999,"viron":4000,"ĠRights":4001,"Ġcrit":4002,"final":4003,"kon":4004,"ĠEconom":4005,"ĠBukola":4006,"Ġprosthetics":4007,"ĠWaste":4008,"enn":4009,"ĠOp":4010,"Ġhandmade":4011,"Ġstruggle":4012,"Ġlaik":4013,"vironment":4014,"dr":4015,"make":4016,"1322":4017,"ancial":4018,"Ġenc":4019,"ĠLeone":4020,"Ġhotel":4021,"ini":4022,"ox":4023,"Ġmad":4024,"Ġmoment":4025,"obert":4026,"friend":4027,"Ġpastor":4028,"Ġbury":4029,"Ġcirc":4030,"Ġshould":4031,"ĠGanduje":4032,"mall":4033,"Ġgas":4034,"Ġyouone":4035,"ately":4036,"imate":4037,"Ġnaw":4038,"Ġtraining":4039,"Ġnack":4040,"ĠIsa":4041,"Ġcommon":4042,"Ġgather":4043,"Ġrecent":4044,"Ġfigh":4045,"Ġwel":4046,"Ġgift":4047,"ĠMac":4048,"ĠNd":4049,"agement":4050,"Ġtournament":4051,"och":4052,"Ġdisapp":4053,"Ġshut":4054,"kill":4055,"Ġmal":4056,"ateg":4057,"ĠLion":4058,"Ġgovernorship":4059,"ĠJudah":4060,"Ġmovie":4061,"ĠAre":4062,"Ġlow":4063,"Ġplaces":4064,"Ġtire":4065,"ĠDat":4066,"Ġswear":4067,"ĠSim":4068,"Ġyarn":4069,"Ġ2013":4070,"Ġescape":4071,"ĠBorn":4072,"ĠHuman":4073,"illa":4074,"Ġmeas":4075,"Ġtank":4076,"trod":4077,"ĠAfcon":4078,"ĠFrom":4079,"Ġpositive":4080,"vi":4081,"arian":4082,"ĠAj":4083,"ĠSalah":4084,"Ġbirthday":4085,"Ġothers":4086,"Ġmeat":4087,"Ġdevelopment":4088,"Many":4089,"ero":4090,"ĠFirst":4091,"asala":4092,"ips":4093,"occo":4094,"Ġemploy":4095,"Ġlady":4096,"Ġed":4097,"pir":4098,"yle":4099,"Ġmother":4100,"ĠWhen":4101,"37":4102,"ĠAfricans":4103,"Ġenough":4104,"iga":4105,"ĠPri":4106,"ĠPublic":4107,"Ġhands":4108,"Ġscatter":4109,"ental":4110,"ĠImo":4111,"win":4112,"ĠPlateau":4113,"Ġneighbour":4114,"ky":4115,"Ġach":4116,"ĠForce":4117,"Ġ''":4118,"urther":4119,"bege":4120,"ĠFA":4121,"ĠBiafra":4122,"Ġmass":4123,"ĠSocial":4124,"Ġlives":4125,"ĠChurch":4126,"Ġsongs":4127,"Ġyab":4128,"ĠLabour":4129,"ĠVictor":4130,"ĠLocal":4131,"Ġmedicine":4132,"Ġevidence":4133,"Ġproduc":4134,"idi":4135,"road":4136,"156":4137,"inho":4138,"159":4139,"Ġcomed":4140,"ĠLa":4141,"Ġben":4142,"ulani":4143,"ghan":4144,"acter":4145,"Ġdebate":4146,"world":4147,"Ġperc":4148,"ĠAny":4149,"ĠFranc":4150,"Now":4151,"irls":4152,"Ġjournalist":4153,"ĠPan":4154,"Ġshame":4155,"ĠAkin":4156,"Ġlegal":4157,"engers":4158,"Ġsickness":4159,"ook":4160,"Ġdam":4161,"ĠEv":4162,"ĠYor":4163,"'.":4164,"ami":4165,"eoples":4166,"rif":4167,"Ġmarch":4168,"Ġproperty":4169,"aut":4170,"Ġwiked":4171,"Ġey":4172,"Ġfurther":4173,"ailable":4174,"ĠWilliams":4175,"empt":4176,"vention":4177,"Ġsupporters":4178,"sel":4179,"Ġ33":4180,"ĠBrazil":4181,"Ġ90":4182,"Ġreality":4183,"Ġ2012":4184,"ukwu":4185,"Ġgbege":4186,"Ġpersonal":4187,"ĠMusa":4188,"ĠSaudi":4189,"Ġthief":4190,"Ġhy":4191,"ĠEs":4192,"Ġyan":4193,"TH":4194,"Ġsecret":4195,"ĠRussian":4196,"Ġtraffic":4197,"POB":4198,"uw":4199,"ocus":4200,"estern":4201,"Ġtraditional":4202,"ĠNana":4203,"54":4204,"uff":4205,"Ġmigr":4206,"eph":4207,"rick":4208,"Ġinjury":4209,"rifice":4210,"Ġappeal":4211,"amfara":4212,"Ġsil":4213,"Ġministry":4214,"ude":4215,"lier":4216,"inary":4217,"Ġpan":4218,"emen":4219,"Ġhail":4220,"ĠMaur":4221,"Ġalong":4222,"PEN":4223,"urg":4224,"ĠAc":4225,"Ġrise":4226,"Ġbecos":4227,"regation":4228,"amin":4229,"Ġprotesters":4230,"ĠDeputy":4231,"Ġsociety":4232,"Ġbrain":4233,"Ġreports":4234,"ador":4235,"Am":4236,"Pl":4237,"aly":4238,"Ġshop":4239,"Ġseize":4240,"iddle":4241,"Ġresident":4242,"Ġofrin":4243,"Ġanti":4244,"east":4245,"fort":4246,"als":4247,"Ġdirector":4248,"ĠAgency":4249,"bikos":4250,"ello":4251,"acha":4252,"Ġleft":4253,"fl":4254,"Ġdanger":4255,"Ġfish":4256,"anta":4257,"tern":4258,"ĠYa":4259,"Ġpercent":4260,"Ġeat":4261,"Ġepp":4262,"ĠJul":4263,"usi":4264,"Ġcouncil":4265,"ĠAN":4266,"ĠTur":4267,"Ġ34":4268,"Tr":4269,"fa":4270,"Ġtruth":4271,"ca":4272,"Ġpub":4273,"Ġ!":4274,"Ġabroad":4275,"ĠCommand":4276,"Ġavailable":4277,"br":4278,"ling":4279,"ĠThree":4280,"oronavirus":4281,"ĠDan":4282,"osh":4283,"ĠTrans":4284,"ĠDino":4285,"Ġweap":4286,"Ġawards":4287,"Ġforever":4288,"de":4289,"Ġbag":4290,"ĠND":4291,"Ġsch":4292,"ĠAisha":4293,"ĠTim":4294,"ĠGar":4295,"ĠChris":4296,"ampion":4297,"Ġdiscip":4298,"enti":4299,"inu":4300,"Ġbed":4301,"ĠFemi":4302,"yan":4303,"Ġcertificate":4304,"ĠAw":4305,"Nigerian":4306,"Ġchampions":4307,"press":4308,"ĠCanada":4309,"Ġgain":4310,"Ġalone":4311,"ĠAfter":4312,"Ġindustry":4313,"Ġopportunity":4314,"ĠDeb":4315,"ĠIslamic":4316,"Bl":4317,"153":4318,"ction":4319,"Ġdemoc":4320,"Ġbetta":4321,"Ġdig":4322,"Ġbar":4323,"ĠMil":4324,"ĠRobert":4325,"ĠYemi":4326,"Ġsurr":4327,"Ġcongregation":4328,"Ġapprove":4329,"Ġmos":4330,"Ġfresh":4331,"Ġthreaten":4332,"ature":4333,"Ġmask":4334,"Ġskin":4335,"Ġconsider":4336,"orm":4337,"Ġwota":4338,"FCON":4339,"At":4340,"Ġrub":4341,"apchi":4342,"Ġagencies":4343,"Ġblame":4344,"Ġkontries":4345,"Ġfocus":4346,"ĠMen":4347,"Ġtrade":4348,"ĠParis":4349,"Ġtiff":4350,"ĠChad":4351,"Ġarmed":4352,"egn":4353,"ĠIndepend":4354,"Ġbenef":4355,"owore":4356,"umour":4357,"Ġtribe":4358,"ĠMelaye":4359,"ĠProgressives":4360,"Ġdollars":4361,"Den":4362,"ĠWin":4363,"Ġnec":4364,"ĠNow":4365,"ĠHAP":4366,"Ab":4367,"ĠNk":4368,"ĠAp":4369,"ĠSierra":4370,"34":4371,"raph":4372,"tar":4373,"Ġyet":4374,"ĠPeoples":4375,"Ġplant":4376,"ĠStud":4377,"ashion":4378,"Ġsym":4379,"ted":4380,"Ġbroda":4381,"Ġcop":4382,"ĠRom":4383,"ences":4384,"iddon":4385,"Ġdeliver":4386,"Ġfraud":4387,"Ġwont":4388,"ĠKy":4389,"ancy":4390,"1719":4391,"ĠBorno":4392,"aron":4393,"iving":4394,"ĠHAPPEN":4395,"but":4396,"Ġgri":4397,"ials":4398,"36":4399,"IT":4400,"ĠDSS":4401,"ĠASUU":4402,"Ġwet":4403,"the":4404,"unle":4405,"ĠMorocco":4406,"ua":4407,"era":4408,"apt":4409,"ĠDevelop":4410,"ĠZamfara":4411,"Ġcook":4412,"Ġavoid":4413,"aku":4414,"anzania":4415,"ades":4416,"oadcast":4417,"ĠNorthwest":4418,"ĠHospital":4419,"Ġpatients":4420,"Before":4421,"Ġwish":4422,"akata":4423,"ĠDef":4424,"Ġseat":4425,"olic":4426,"ih":4427,"Ġstars":4428,"Ġeyes":4429,"assy":4430,"ĠIns":4431,"Ġsama":4432,"Ġintrod":4433,"Ġcommand":4434,"APC":4435,"iter":4436,"ĠSince":4437,"Ġdemsef":4438,"Ġpregn":4439,"ique":4440,"Ġaw":4441,"isa":4442,"ashir":4443,"Ġrecently":4444,"Ġdesign":4445,"Ġsolution":4446,"ĠMc":4447,"ĠDey":4448,"ĠBaba":4449,"Ġimprove":4450,"ows":4451,"ĠTer":4452,"Ġeviction":4453,"Ġseparatists":4454,"Ġfeature":4455,"BO":4456,"ida":4457,"Ġradio":4458,"Ġlar":4459,"ugur":4460,"Ġphoto":4461,"imb":4462,"ORT":4463,"Ġorganise":4464,"sy":4465,"Ġtelevision":4466,"alent":4467,"Ġ2011":4468,"ogn":4469,"ĠDou":4470,"iah":4471,"ĠGram":4472,"wide":4473,"Ġfund":4474,"uter":4475,"Ġpictures":4476,"ĠAbdull":4477,"Ġencourage":4478,"Un":4479,"Just":4480,"olution":4481,"ercy":4482,"Ġpon":4483,"sed":4484,"oday":4485,"Ġvice":4486,"ĠArgent":4487,"ories":4488,"rew":4489,"Ġ70":4490,"Ġpressure":4491,"Ġvoice":4492,"ĠAkp":4493,"Ġdrugs":4494,"ĠSani":4495,"Ġ2010":4496,"ĠHam":4497,"Ġpassengers":4498,"Afta":4499,"ĠProfessor":4500,"Ġsometin":4501,"Ġrace":4502,"uka":4503,"AMB":4504,"Ġpenalty":4505,"Ġkasala":4506,"ĠGab":4507,"Ġmovement":4508,"Ġburst":4509,"Ġ197":4510,"Pipo":4511,"alo":4512,"ilies":4513,"Ġpract":4514,"ĠKanye":4515,"ĠMarley":4516,"Ġoperate":4517,"Ġvictory":4518,"Ġsisters":4519,"Lagos":4520,"Ġbomb":4521,"obe":4522,"Ġshooting":4523,"49":4524,"ika":4525,"Ġens":4526,"ĠDevelopment":4527,"Ġfac":4528,"ĠMart":4529,"Ġrank":4530,"ĠFulani":4531,"ried":4532,"Ġjuju":4533,"iyu":4534,"ĠLiberia":4535,"pite":4536,"Ġnomination":4537,"Ġfarmers":4538,"ju":4539,"att":4540,"Ġforgive":4541,"emies":4542,"omat":4543,"Ġhom":4544,"Ġevribody":4545,"ĠEbola":4546,"GA":4547,"Ġfile":4548,"anch":4549,"agu":4550,"geria":4551,"KA":4552,"inem":4553,"ubai":4554,"Ġpromote":4555,"Ġpaper":4556,"ĠGen":4557,"Ġrespons":4558,"Ġcentral":4559,"Ġvictim":4560,"kina":4561,"Ġ*":4562,"ĠPutin":4563,"Ġshout":4564,"Ġmilitants":4565,"otten":4566,"sport":4567,"Ġtre":4568,"Ġmel":4569,"ĠAdele":4570,"Ġreasons":4571,"Dat":4572,"icide":4573,"urr":4574,"ĠBamenda":4575,"ĠTwo":4576,"ĠKe":4577,"154":4578,"Ġsotay":4579,"ĠMet":4580,"umb":4581,"Ġseries":4582,"ification":4583,"ĠChinese":4584,"55":4585,"ET":4586,"Ġsim":4587,"Ġ32":4588,"iser":4589,"assador":4590,"ĠAdeb":4591,"Jesus":4592,"Ġcorn":4593,"omo":4594,"ually":4595,"Ġtick":4596,"ĠDR":4597,"Ġsavant":4598,"Dr":4599,"ĠBikos":4600,"ĠWal":4601,"ugees":4602,"ĠFaso":4603,"Ġprosec":4604,"Ġscata":4605,"After":4606,"igration":4607,"ĠAmnesty":4608,"true":4609,"Ġholiday":4610,"sal":4611,"atform":4612,"Ġkey":4613,"Ġwash":4614,"ĠPal":4615,"Ġ42":4616,"ĠAbi":4617,"ĠAcad":4618,"100":4619,"ĠSouthern":4620,"Ġsometimes":4621,"led":4622,"ved":4623,"Ġprovoke":4624,"GO":4625,"Ġcontent":4626,"Ġweekend":4627,"Ġsenator":4628,"orce":4629,"ĠSy":4630,"osa":4631,"Ġboard":4632,"ĠPlay":4633,"OU":4634,"off":4635,"Ġ48":4636,"ating":4637,"Ġculture":4638,"ĠMb":4639,"olu":4640,"ĠNe":4641,"ĠAnoda":4642,"Ġdrama":4643,"Ġtaim":4644,"Ġmill":4645,"Ġgate":4646,"Ġactivities":4647,"ĠEconomic":4648,"ĠMiss":4649,"ĠPS":4650,"elly":4651,"Ġequal":4652,"Ġyahoo":4653,"Ġsever":4654,"Ġwinners":4655,"engi":4656,"PDP":4657,"ĠDapchi":4658,"ĠCrisis":4659,"Ġwitness":4660,"Ġadj":4661,"ĠSowore":4662,"unal":4663,"ĠGun":4664,"ophob":4665,"Ġsteal":4666,"ĠKar":4667,"Ġdeputy":4668,"ribute":4669,"Ġallegedly":4670,"ĠArabia":4671,"Ġtour":4672,"ĠEver":4673,"Ġ45":4674,"mith":4675,"iom":4676,"Ġcodeine":4677,"Ġdoor":4678,"aire":4679,"ĠAngel":4680,"mas":4681,"ils":4682,"Ġchair":4683,"ĠHarry":4684,"Ġclubs":4685,"Ġwelcome":4686,"Ġmalaria":4687,"ancing":4688,"Ġcommunities":4689,"Ġharassment":4690,"ĠCross":4691,"aky":4692,"ĠĠĠĠĠĠ":4693,"ĠAkwa":4694,"lement":4695,"omon":4696,"orship":4697,"ĠDepartment":4698,"Tube":4699,"ĠStadium":4700,"Ġfamilies":4701,"Ġskata":4702,"Man":4703,"TV":4704,"ruct":4705,"ghen":4706,"Ġclos":4707,"Ġflight":4708,"Ġseparate":4709,"Ġensure":4710,"million":4711,"sec":4712,"Ġconv":4713,"ĠComp":4714,"48":4715,"Ġquarter":4716,"Ġdocument":4717,"aily":4718,"Ġaut":4719,"Ġstyle":4720,"Ġfavour":4721,"Ġtie":4722,"overty":4723,"ĠParliament":4724,"SPORT":4725,"la":4726,"ĠMs":4727,"ĠFifa":4728,"ordin":4729,"ournal":4730,"ĠMrs":4731,"Ġcollabo":4732,"ĠAbdullahi":4733,"atorial":4734,"Ġaud":4735,"Ġmil":4736,"Ġriver":4737,"apan":4738,"Ġannouncement":4739,"Ġdefence":4740,"Ġshared":4741,"Ġeconomic":4742,"Ġdata":4743,"ĠIvory":4744,"ĠFrancis":4745,"eka":4746,"Ġdriver":4747,"Ġimsef":4748,"Ġchampion":4749,"Ġwords":4750,"Ġjourney":4751,"PP":4752,"Ġfig":4753,"Ġ37":4754,"ĠCath":4755,"ĠRec":4756,"ĠIPOB":4757,"ĠTanzania":4758,"ptoms":4759,"lor":4760,"Ġfestival":4761,"ille":4762,"ĠRoad":4763,"Ġattempt":4764,"keeper":4765,"ĠCollege":4766,"icle":4767,"ĠTin":4768,"ĠLy":4769,"Ġfever":4770,"Ġcharacter":4771,"lin":4772,"Ġ500":4773,"unt":4774,"Ġlisten":4775,"Ġtype":4776,"mission":4777,"Ġur":4778,"enophob":4779,"Ġaccess":4780,"eleg":4781,"ashon":4782,"ĠSeason":4783,"ottenham":4784,"Ġworth":4785,"Ġconfer":4786,"Ġinvolve":4787,"Ġpetition":4788,"Ġunion":4789,"Ġhouses":4790,"Ġdivorce":4791,"ĠNas":4792,"Ġminute":4793,"Ġinfect":4794,"Ġprofession":4795,"Ġpred":4796,"gas":4797,"Ġcateg":4798,"Ġrecogn":4799,"Ġthrow":4800,"45":4801,"den":4802,"Ġpetrol":4803,"ĠTun":4804,"Ġgrant":4805,"ĠAmbode":4806,"ĠMedia":4807,"amo":4808,"Ġplans":4809,"Ġpublish":4810,"aint":4811,"Ġobs":4812,"ĠPhil":4813,"Ġhate":4814,"urance":4815,"Getty":4816,"Ġplatform":4817,"Ġpatient":4818,"ĠWenger":4819,"Ġperformance":4820,"ĠDubai":4821,"Ġenemies":4822,"Ġspace":4823,"Ġowner":4824,"Ġvideos":4825,"ĠGrand":4826,"ĠYouTube":4827,"Ġcure":4828,"Ġcoun":4829,"ites":4830,"ako":4831,"Ġponish":4832,"EO":4833,"gree":4834,"ha":4835,"ural":4836,"ĠIke":4837,"Ġmidf":4838,"Ġidea":4839,"Our":4840,"Ġbil":4841,"ĠNet":4842,"change":4843,"Ġsuspension":4844,"ĠYaound":4845,"iet":4846,"yo":4847,"Ġrumour":4848,"ĠJo":4849,"Ġmonitor":4850,"Ġemp":4851,"Ġkidnappers":4852,"47":4853,"DA":4854,"ler":4855,"Ġdom":4856,"ĠBal":4857,"ĠEzek":4858,"Ġalias":4859,"ventus":4860,"ĠSecond":4861,"FF":4862,"Ġfix":4863,"ĠPeace":4864,"ourinho":4865,"Ġmater":4866,"ĠAirport":4867,"Ġextra":4868,"Ġpolicy":4869,"ĠAFCON":4870,"Ġrate":4871,"ĠBor":4872,"Ġjoll":4873,"wealth":4874,"Ġlecturers":4875,"Ġgat":4876,"ĠWit":4877,"ically":4878,"ĠArgentina":4879,"isia":4880,"ĠGh":4881,"Ġacting":4882,"ĠMore":4883,"usuf":4884,"Ġunto":4885,"Ġinjure":4886,"Ġsad":4887,"Ġsemi":4888,"Ġmention":4889,"Ġcaptain":4890,"erm":4891,"Ġsouthern":4892,"2019":4893,"Ġmourn":4894,"Ġapplication":4895,"35":4896,"za":4897,"Ġglobal":4898,"hole":4899,"itute":4900,"ĠPre":4901,"atakata":4902,"ĠMov":4903,"Ġscreen":4904,"Ġfighters":4905,"Ġfellow":4906,"Ġthousands":4907,"Br":4908,"Ġfather":4909,"ĠIt":4910,"ĠJournal":4911,"azz":4912,"Ġeveri":4913,"ĠIran":4914,"Ġconnect":4915,"draw":4916,"BI":4917,"ders":4918,"Ġ196":4919,"ĠCommon":4920,"Ġguide":4921,"cow":4922,"ĠMost":4923,"oship":4924,"Ġcolon":4925,"Ġcustomers":4926,"ĠYoruba":4927,"ional":4928,"ĠFore":4929,"Ġkount":4930,"ĠSex":4931,"erv":4932,"Ġfield":4933,"Ġwall":4934,"int":4935,"ĠAtt":4936,"ĠRead":4937,"Ġintroduce":4938,"Ġconference":4939,"Ġver":4940,"ĠDia":4941,"Ġkam":4942,"Ġcars":4943,"cons":4944,"Because":4945,"Ġma":4946,"ĠMary":4947,"oven":4948,"Ġcontact":4949,"Ġadministration":4950,"AEC":4951,"ĠAnn":4952,"Ġbush":4953,"Ġoffer":4954,"South":4955,"Ġlit":4956,"ushp":4957,"Ġsports":4958,"unde":4959,"Ġenvironment":4960,"Ġprayer":4961,"ĠOlymp":4962,"je":4963,"law":4964,"ĠAlh":4965,"ĠOshiom":4966,"Ġvalue":4967,"ĠBello":4968,"ĠWale":4969,"obo":4970,"Ġbridge":4971,"ĠIGP":4972,"ills":4973,"undi":4974,"Ġexpress":4975,"Ġsubmit":4976,"ĠAdeleke":4977,"orter":4978,"ĠAgb":4979,"ĠAffairs":4980,"Ġstone":4981,"utions":4982,"Ġworse":4983,"ĠBridge":4984,"Ġsmoke":4985,"Sen":4986,"estic":4987,"ĠExecutive":4988,"ĠTinubu":4989,"ushpupp":4990,"39":4991,"ano":4992,"Ġoh":4993,"eek":4994,"Ġ2009":4995,"Ġbull":4996,"ĠLeb":4997,"Ġdiffic":4998,"ĠCAF":4999,"ĠChib":5000,"ĠThem":5001,"orse":5002,"Ġmob":5003,"ĠSom":5004,"Ġequ":5005,"ĠII":5006,"ĠJack":5007,"Ġpraise":5008,"ĠStars":5009,"Ġservices":5010,"ĠMacron":5011,"Ġhang":5012,"ĠĠĠĠĠ":5013,"Ġleadership":5014,"sp":5015,"Ġsak":5016,"ĠLady":5017,"assa":5018,"ielder":5019,"Ġindependence":5020,"Ġpil":5021,"ĠSir":5022,"ĠAli":5023,"Ġarrang":5024,"Ġearth":5025,"Ġengine":5026,"Ġmillions":5027,"Ġbase":5028,"Ġassa":5029,"oyd":5030,"ushpuppi":5031,"inn":5032,"Ġdial":5033,"edi":5034,"ources":5035,"ĠHIV":5036,"ffort":5037,"iko":5038,"ĠIfe":5039,"CR":5040,"Ondo":5041,"Ġlaugh":5042,"ĠAde":5043,"noghen":5044,"Ġmigrants":5045,"Ġlab":5046,"ĠCardi":5047,"Ġdeadi":5048,"Ġath":5049,"Ġdeaths":5050,"Ġnearly":5051,"Ġsiddon":5052,"epper":5053,"Ġ38":5054,"Ġship":5055,"Ġprisoners":5056,"ĠOyo":5057,"ĠSouthwest":5058,"Ġsecondary":5059,"Ġargue":5060,"Ġnaim":5061,"ĠUmar":5062,"quar":5063,"ĠSolomon":5064,"ĠOw":5065,"ede":5066,"Ġweak":5067,"okes":5068,"Ġsquad":5069,"Ġlistin":5070,"Ġgist":5071,"ĠMa":5072,"ĠWild":5073,"ĠJapan":5074,"ĠInside":5075,"Ġassault":5076,"Ġkry":5077,"ĠWi":5078,"ĠAlgeria":5079,"ĠPanther":5080,"ĠMain":5081,"okoto":5082,"Ġsenate":5083,"Ġpoverty":5084,"ĠTottenham":5085,"esi":5086,"omorrow":5087,"Ġlost":5088,"Ġimself":5089,"Ġamount":5090,"Ġorig":5091,"ĠFrank":5092,"Ġmodel":5093,"Ġpunishment":5094,"Ġparticip":5095,"Ġproducts":5096,"ability":5097,"Ġunit":5098,"weight":5099,"Ġapolog":5100,"Ġreligion":5101,"ĠNDDC":5102,"Ah":5103,"View":5104,"anish":5105,"Ġkatakata":5106,"Ġprize":5107,"Ġtroph":5108,"Ġwithdraw":5109,"inisters":5110,"Ġphys":5111,"ails":5112,"atural":5113,"Ġsuggest":5114,"Ġdifficult":5115,"ĠJAMB":5116,"Ġanybodi":5117,"Ġgoalkeeper":5118,"Ġconduct":5119,"Ġcorner":5120,"Ġdid":5121,"ĠTok":5122,"ified":5123,"Ġpostp":5124,"World":5125,"oom":5126,"once":5127,"ĠIgh":5128,"ĠTiwa":5129,"ĠKill":5130,"Ġabi":5131,"ĠYusuf":5132,"Ġrefugees":5133,"Ġsafety":5134,"selves":5135,"Ġairl":5136,"Ġhttps":5137,"Ġsuspected":5138,"Ġsnake":5139,"Ġseparatist":5140,"OM":5141,"dis":5142,"Ġmount":5143,"ĠZuma":5144,"now":5145,"ĠSay":5146,"ĠJew":5147,"ource":5148,"oyin":5149,"pector":5150,"Ġfourth":5151,"ĠBus":5152,"Ġpraiz":5153,"Ġnewsp":5154,"ĠMak":5155,"Ġeffort":5156,"Ġkingdom":5157,"Ġgener":5158,"Ġseveral":5159,"AL":5160,"Since":5161,"andan":5162,"Ġattention":5163,"emble":5164,"ĠIbom":5165,"ĠCharles":5166,"Ġpour":5167,"Ġalthough":5168,"ĠLast":5169,"ĠOnnoghen":5170,"luck":5171,"ĠKum":5172,"Ġflog":5173,"gu":5174,"Ġgang":5175,"ĠBet":5176,"Ġboat":5177,"ĠRock":5178,"iful":5179,"ograph":5180,"500":5181,"like":5182,"sex":5183,"istan":5184,"ibility":5185,"ĠAdv":5186,"People":5187,"yn":5188,"Ġsons":5189,"ĠSport":5190,"ĠOf":5191,"unic":5192,"ĠPer":5193,"ĠRepresent":5194,"Ġprimaries":5195,"ĠOpen":5196,"Ġdry":5197,"Ġtort":5198,"Ġdisturb":5199,"addy":5200,"ĠMourinho":5201,"ĠOke":5202,"ĠJuventus":5203,"Ġmidfielder":5204,"44":5205,"Ġclash":5206,"ĠShi":5207,"Ġguys":5208,"ĠSil":5209,"Ġprove":5210,"ceed":5211,"ilitary":5212,"Ġcelebration":5213,"Ġtechnology":5214,"Ġbread":5215,"Ġmiddle":5216,"ĠSpe":5217,"lean":5218,"ĠWatch":5219,"ibo":5220,"Ġconcert":5221,"icester":5222,"ilon":5223,"ĠTar":5224,"ĠPapa":5225,"ifer":5226,"Africa":5227,"Ġquestions":5228,"gium":5229,"CC":5230,"Ġelectionone":5231,"ristiano":5232,"ĠChristmas":5233,"ĠKamto":5234,"PA":5235,"coh":5236,"ĠTem":5237,"Ġbear":5238,"taff":5239,"Ġpolling":5240,"autiful":5241,"omas":5242,"Ġmyself":5243,"Ġfinals":5244,"BC":5245,"you":5246,"Ġfat":5247,"ĠNengi":5248,"Ġ300":5249,"ĠGirls":5250,"allow":5251,"Ġjump":5252,"ĠCommonwealth":5253,"Ġfair":5254,"Ġworship":5255,"Ġprogress":5256,"ĠMohamed":5257,"ius":5258,"Ġgy":5259,"ĠEU":5260,"opa":5261,"ract":5262,"Ġwoship":5263,"Ġgay":5264,"ĠAaron":5265,"ĠEmer":5266,"Ġgroun":5267,"Ġsea":5268,"Ġslave":5269,"ĠOfficer":5270,"kin":5271,"Ġsound":5272,"enger":5273,"idel":5274,"ĠCons":5275,"Ġpassport":5276,"abio":5277,"aus":5278,"Ġfashion":5279,"ired":5280,"Ġ2007":5281,"Ġachieve":5282,"gun":5283,"itation":5284,"ĠDJ":5285,"Ġdemocracy":5286,"aguda":5287,"Ġdeleg":5288,"Ġpot":5289,"ĠPresidency":5290,"Ġfill":5291,"ĠSmith":5292,"ĠMercy":5293,"ipe":5294,"Ġseka":5295,"Ġwild":5296,"Ġknock":5297,"ĠImage":5298,"angote":5299,"ĠAhm":5300,"par":5301,"gina":5302,"VC":5303,"ĠStaff":5304,"ĠWAEC":5305,"ĠJac":5306,"Ġtree":5307,"Ġloan":5308,"Ġusers":5309,"Ġgunmen":5310,"ĠBurkina":5311,"Ġklot":5312,"Ġdialogue":5313,"Ġoffence":5314,"Ġtowns":5315,"Ġinstit":5316,"Ġedition":5317,"Ġtomorrow":5318,"ila":5319,"Ġyi":5320,"oti":5321,"aching":5322,"Ġcolle":5323,"ĠMuslim":5324,".'":5325,"ĠCamp":5326,"Ġkom":5327,"ĠShatta":5328,"Ġ1999":5329,"Meanwhile":5330,"Ġsport":5331,"ĠDes":5332,"Ġdog":5333,"Ġinvestment":5334,"ĠDoct":5335,"Ġgatz":5336,"bah":5337,"iately":5338,"Ġsector":5339,"Ġmach":5340,"Ġeart":5341,"ĠView":5342,"ĠKab":5343,"ardash":5344,"Ġcurse":5345,"Ġarrangement":5346,"Ġmental":5347,"rec":5348,"Ġtrack":5349,"Ġhimself":5350,"ĠAustralia":5351,"Ġprotests":5352,"ering":5353,"Ġdir":5354,"ĠFederation":5355,"ĠBu":5356,"ĠKelly":5357,"Ġproducer":5358,"32":5359,"Ġbas":5360,"andon":5361,"unmi":5362,"Ġband":5363,"ĠSokoto":5364,"ĠForeign":5365,"ĠSu":5366,"Ġooo":5367,"Ġ39":5368,"ĠHol":5369,"Ġexecutive":5370,"Ġknown":5371,"ĠManagement":5372,"ĠFloyd":5373,"Ġreligious":5374,"Ġbenefit":5375,"td":5376,"ayode":5377,"Ġproud":5378,"ĠLim":5379,"Ġtrap":5380,"Ġehn":5381,"eum":5382,"ko":5383,"xy":5384,"Ġsun":5385,"icop":5386,"ington":5387,"ĠHon":5388,"Ġvoting":5389,"NPC":5390,"Olu":5391,"ston":5392,"Ġrock":5393,"ĠFound":5394,"quine":5395,"Ġmadam":5396,"Os":5397,"Ġcult":5398,"ĠAKA":5399,"ĠUz":5400,"ĠFat":5401,"Americ":5402,"hold":5403,"Ġ44":5404,"Ġeverywhere":5405,"Ġearlier":5406,"Ġcurrently":5407,"cohol":5408,"WAS":5409,"umu":5410,"Ġdivide":5411,"ĠGrammy":5412,"ĠLeban":5413,"Ang":5414,"inic":5415,"ĠSch":5416,"Ġoo":5417,"ĠBad":5418,"Ġpartner":5419,"ancer":5420,"ĠAsh":5421,"Ġgovment":5422,"Ġpolitician":5423,"Ġreferee":5424,"EL":5425,"Ġlic":5426,"Ġlim":5427,"ĠHel":5428,"Ġflag":5429,"Ġterrorist":5430,"Ġticket":5431,"Ġdash":5432,"Ġsaid":5433,"Ġcell":5434,"Ġcough":5435,"Ġcities":5436,"ĠSong":5437,"Ġthru":5438,"Ġsotey":5439,"ennifer":5440,"YSC":5441,"Ġmet":5442,"ĠSaul":5443,"asion":5444,"Ġworst":5445,"udu":5446,"Ġfeed":5447,"Ġorganis":5448,"ĠBelgium":5449,"Ġdirty":5450,"Ġwind":5451,"ĠAL":5452,"Ġdeep":5453,"Ġretire":5454,"Ġexpose":5455,"Ġrequest":5456,"Coronavirus":5457,"General":5458,"Ġcash":5459,"ĠNun":5460,"ĠOgb":5461,"Ġ46":5462,"merc":5463,"Ġelectoral":5464,"ĠRw":5465,"auchi":5466,"efa":5467,"Ġdeter":5468,"Ġgof":5469,"ĠPerson":5470,"erself":5471,"ĠAlthough":5472,"BA":5473,"back":5474,"ĠAz":5475,"ĠPipol":5476,"ĠUm":5477,"Ġview":5478,"Ġcompete":5479,"Ġcontinent":5480,"Ġbilive":5481,"Ġsakrifice":5482,"ĠSus":5483,"ĠMP":5484,"ĠCoach":5485,"Ġcritic":5486,"atory":5487,"ĠEar":5488,"ĠMuslims":5489,"Ġidentify":5490,"Ġocc":5491,"Ġbeginning":5492,"Ġrobbery":5493,"Ġstations":5494,"uti":5495,"agas":5496,"ulu":5497,"Ġtrouble":5498,"Ġord":5499,"ĠSenior":5500,"Ġbanks":5501,"ĠBos":5502,"ellig":5503,"ĠJoe":5504,"ĠHushpuppi":5505,"ĠKardash":5506,"ĠDaniels":5507,"ĠLionel":5508,"ĠAbiola":5509,"ito":5510,"ĠAuthorities":5511,"ĠUT":5512,"wards":5513,"Ġpeaceful":5514,"Ġsoldier":5515,"don":5516,"Ġherself":5517,"odas":5518,"ĠGambia":5519,"Ġuni":5520,"Ġproblems":5521,"Ġjobs":5522,"BT":5523,"Ġwa":5524,"eless":5525,"ĠBre":5526,"ully":5527,"Ġtruck":5528,"ĠWhile":5529,"ĠIbadan":5530,"Her":5531,"mark":5532,"ĠCap":5533,"irt":5534,"Ġche":5535,"ocate":5536,"Ġjoke":5537,"Ġinflu":5538,"Ġdrivers":5539,"From":5540,"Ġdark":5541,"ĠAuthority":5542,"ulation":5543,"peach":5544,"ĠBabilon":5545,"ĠMilan":5546,"Ġfif":5547,"ĠTogo":5548,"Ġfootballer":5549,"Ġdangerous":5550,"Ġpractice":5551,"ĠRoyal":5552,"ierre":5553,"Ġconditions":5554,"wes":5555,"Ġpresidency":5556,"akes":5557,"ĠRev":5558,"azine":5559,"Ġmaintain":5560,"Ġdamage":5561,"ĠDefence":5562,"Ġnon":5563,"ura":5564,"ĠProt":5565,"Ġcrow":5566,"Ġits":5567,"Ġdefender":5568,"ĠArea":5569,"quarters":5570,"ography":5571,"ban":5572,"small":5573,"Ġimpl":5574,"Ġtish":5575,"ĠPD":5576,"ĠInformation":5577,"Ġassembly":5578,"icopter":5579,"200":5580,"Ġborrow":5581,"Ġhust":5582,"ainab":5583,"aphosa":5584,"ĠTunisia":5585,"ĠChibok":5586,"Ġlik":5587,"ĠCaf":5588,"ĠIndependent":5589,"iana":5590,"Ġwayo":5591,"ĠMane":5592,"ĠGoodluck":5593,"ĠInspector":5594,"akob":5595,"Ġ47":5596,"Ġsupply":5597,"ĠiP":5598,"ĠSerena":5599,"ĠBritain":5600,"ĠUsman":5601,"Ġuniform":5602,"EMA":5603,"Him":5604,"Or":5605,"rate":5606,"Ġmission":5607,"Ġministers":5608,"Ġrac":5609,"ĠWhat":5610,"ĠAcademy":5611,"/@":5612,"Ġbapt":5613,"oved":5614,"Ġ51":5615,"ashola":5616,"ein":5617,"lus":5618,"Ġabandon":5619,"Ġjoy":5620,"raft":5621,"Ġchoice":5622,"ĠYoung":5623,"Ġdelay":5624,"ĠAkpabio":5625,"mercial":5626,"SO":5627,"Ġstra":5628,"ĠLuc":5629,"Ġwinning":5630,"ovenant":5631,"ĠSey":5632,"play":5633,"ĠLeicester":5634,"Ġpark":5635,"ĠWeah":5636,"Ġnewspaper":5637,"Ġcy":5638,"Ġtotori":5639,"ols":5640,"ocent":5641,"Ġ43":5642,"Ġ49":5643,"Ġfollowers":5644,"Ġsyrup":5645,"ĠMagu":5646,"ĠOshiomhole":5647,"born":5648,"burg":5649,"ĠBy":5650,"Ġalcohol":5651,"ogba":5652,"Ġhearing":5653,"fight":5654,"istant":5655,"Ġdepend":5656,"ĠTimes":5657,"Ġaftern":5658,"oroquine":5659,"Ġstreets":5660,"Ġcalm":5661,"Ġtroway":5662,"Ġfoot":5663,"ids":5664,"ett":5665,"ager":5666,"years":5667,"ĠWoman":5668,"ĠRamaphosa":5669,"ality":5670,"owo":5671,"ĠOther":5672,"ĠWey":5673,"ĠWork":5674,"zer":5675,"inda":5676,"eymar":5677,"ĠSing":5678,"ĠJennifer":5679,"Ġ400":5680,"incess":5681,"Ġtrophy":5682,"Ġtight":5683,"oli":5684,"ĠDangote":5685,"ĠBob":5686,"Ġbeautiful":5687,"riv":5688,"Ġresemble":5689,"Ġcred":5690,"Ġcivilians":5691,"Ġtorture":5692,"Ġafternoon":5693,"itch":5694,"Ġknack":5695,"ĠLead":5696,"Ġflow":5697,"Ġveh":5698,"Ġexpensive":5699,"ĠDouala":5700,"Ġdeterm":5701,"wesili":5702,"jamin":5703,"Ġroyal":5704,"ĠCristiano":5705,"Ġscar":5706,"Ġplease":5707,"Ġresidents":5708,"ĠEverton":5709,"41":5710,"eel":5711,"Ġfan":5712,"itt":5713,"ĠDam":5714,"Ġcontribute":5715,"Ġscor":5716,"azonia":5717,"Ġdespite":5718,"Ġprofessional":5719,"ĠBauchi":5720,"flix":5721,"App":5722,"ging":5723,"Ġforest":5724,"Ġluck":5725,"une":5726,"Ġarrive":5727,"ĠThomas":5728,"Ġequip":5729,"avi":5730,"ĠChild":5731,"room":5732,"ĠMadam":5733,"Ġcentres":5734,"asket":5735,"arrel":5736,"Ġtanker":5737,"New":5738,"Ġwere":5739,"Ġmem":5740,"Ġaltar":5741,"ishop":5742,"shidren":5743,"rupt":5744,"fficial":5745,"atsina":5746,"Ġappointment":5747,"ĠKardashian":5748,"ĠCH":5749,"Ġweight":5750,"Ġsofa":5751,"Ġorganisation":5752,"ĠCatholic":5753,"ige":5754,"ĠBeyonce":5755,"Ġsidon":5756,"Ġdisappear":5757,"ĠTurkey":5758,"Ġwine":5759,"cha":5760,"Ġoriginal":5761,"RE":5762,"oor":5763,"ĠOper":5764,"amily":5765,"stitu":5766,"TM":5767,"nis":5768,"Ġcour":5769,"nder":5770,"Ġimmediately":5771,"Ġpayment":5772,"Ġextend":5773,"enophobia":5774,"ĠEzekwesili":5775,"Ġpure":5776,"Ġ41":5777,"Ġblind":5778,"ĠZambia":5779,"ĠBrown":5780,"ĠBurundi":5781,"Ġcommissioner":5782,"Ġhustle":5783,"Facebook":5784,"Ġak":5785,"Ġgi":5786,"eline":5787,"ĠNine":5788,"ĠOver":5789,"asi":5790,"osun":5791,"ĠLove":5792,"ĠAlso":5793,"Ġangel":5794,"Ġadjourn":5795,"Ġcategory":5796,"Ġordinary":5797,"talk":5798,"Ġtanda":5799,"ĠDj":5800,"ĠWith":5801,"ĠAdm":5802,"ĠRegina":5803,"Ġroads":5804,"ĠOrganization":5805,"ĠJacob":5806,"43":5807,"ees":5808,"loroquine":5809,"ĠNed":5810,"Ġtrip":5811,"Any":5812,"Ġbrodas":5813,"ĠAdamu":5814,"Ġremaining":5815,"ĠLawy":5816,"Ġ2000":5817,"oduc":5818,"iev":5819,"Ġevents":5820,"ĠObama":5821,"ING":5822,"Ġdetails":5823,"EF":5824,"INEC":5825,"essary":5826,"ĠAbia":5827,"ĠAdes":5828,"grand":5829,"Ġcelebs":5830,"ĠNC":5831,"amber":5832,"Ġ57":5833,"Ġeveryday":5834,"ĠReport":5835,"Ġnetwork":5836,"dro":5837,"Ġtoil":5838,"ĠCEO":5839,"Ġchem":5840,"awi":5841,"Ġyourself":5842,"Ġtopic":5843,"Ġgovnors":5844,"ĠMuhammad":5845,"tainment":5846,"ĠOlympics":5847,"ĠSpeaker":5848,"ĠJob":5849,"Ġentr":5850,"ORI":5851,"ĠFalcons":5852,"ternal":5853,"ĠSis":5854,"Ġlack":5855,"Ġimpeach":5856,"Paul":5857,"uz":5858,"Ġsue":5859,"alu":5860,"ĠSqu":5861,"lear":5862,"Ġ2008":5863,"Ġdeport":5864,"Ġkidnapping":5865,"Ġreopening":5866,"Ak":5867,"Ġaka":5868,"ĠNaw":5869,"Ġslow":5870,"Ġtwenty":5871,"Ġcopy":5872,"Ġpostpone":5873,"ĠFoundation":5874,"HE":5875,"writ":5876,"aty":5877,"Ġcinem":5878,"ĠEqu":5879,"Ġextr":5880,"Ġtraffick":5881,"agascar":5882,"few":5883,"Ġbow":5884,"Ġbabe":5885,"ĠPesin":5886,"Ġdisqual":5887,"odo":5888,"Ġalert":5889,"Ġanytime":5890,"ĠYak":5891,"Ġrefuse":5892,"BBNaija":5893,"Ġdouble":5894,"urt":5895,"ĠJord":5896,"char":5897,"ĠGodwin":5898,"Ġsugar":5899,"EFA":5900,"gg":5901,"rop":5902,"Ġauthority":5903,"ĠMand":5904,"Ġdemon":5905,"Ġreview":5906,"ĠEnugu":5907,"ĠSanusi":5908,"Ġjournalists":5909,"Ġstraight":5910,"IM":5911,"ersey":5912,"Ġexperts":5913,"Ġcustody":5914,"Ġathlet":5915,"take":5916,"Ġx":5917,"esa":5918,"ĠIgb":5919,"ĠCel":5920,"irement":5921,"ĠLassa":5922,"Ġadmit":5923,"Ġfinancial":5924,"ĠAssistant":5925,"ĠTechn":5926,"Ġweapons":5927,"Ġmosqu":5928,"Em":5929,"big":5930,"Ġhala":5931,"ĠAC":5932,"Ġlas":5933,"uments":5934,"ĠChi":5935,"Ġmanagement":5936,"auty":5937,"ĠFood":5938,"Ġsuch":5939,"Ġexcept":5940,"ĠRwanda":5941,"elligence":5942,"Ġhap":5943,"Ġloc":5944,"ĠOda":5945,"ĠECO":5946,"ĠCal":5947,"Ġkatch":5948,"ĠGame":5949,"Ġopening":5950,"Ġscient":5951,"Ġrestrict":5952,"Ġforeigners":5953,"ĠPDT":5954,"rim":5955,"Ġpepper":5956,"igbo":5957,"ĠIwo":5958,"Ġsuc":5959,"ĠZainab":5960,"Ġkwanta":5961,"iot":5962,"Ġdue":5963,"Ġble":5964,"ĠVot":5965,"ĠSimon":5966,"ĠMovement":5967,"David":5968,"ĠMik":5969,"Ġkiss":5970,"ĠRel":5971,"Ġtro":5972,"Ġcompare":5973,"Ġdisciples":5974,"nia":5975,"ziz":5976,"ĠDog":5977,"Ġyoungest":5978,"Ġstatus":5979,"Ġmusicians":5980,"Ġorganization":5981,"rones":5982,"Ġhousemate":5983,"ĠSanwo":5984,"Ġdomestic":5985,"ĠTaraba":5986,"esom":5987,"ĠDom":5988,"berg":5989,"ova":5990,"Ġaffected":5991,"Ġcongrat":5992,"aa":5993,"fr":5994,"person":5995,"ĠNeymar":5996,"ĠLions":5997,"ĠLiga":5998,"ĠPlenti":5999,"Ġacad":6000,"Ġchalleng":6001,"ĠAdams":6002,"Ġrichest":6003,"bad":6004,"ycle":6005,"Ġsession":6006,"Ġbott":6007,"oman":6008,"Ġkol":6009,"Ġcommercial":6010,"ĠAdey":6011,"ĠAustria":6012,"ĠOrganisation":6013,"Ġairline":6014,"Ġlabour":6015,"ĠPet":6016,"agwa":6017,"ples":6018,"Ġactivist":6019,"ĠArtist":6020,"ĠFinancial":6021,"Ġcinemas":6022,"load":6023,"Ġlot":6024,"ĠFire":6025,"ĠVirus":6026,"ostle":6027,"ĠHowever":6028,"Ġflights":6029,"ĠBenjamin":6030,"ĠOluw":6031,"Ġinfection":6032,"Ġdetain":6033,"incip":6034,"THER":6035,"Twitter":6036,"ĠNYSC":6037,"ĠHis":6038,"ĠInt":6039,"Ġregret":6040,"ogun":6041,"Ġinnocent":6042,"ĠUSA":6043,"ĠChristians":6044,"Ġsymptoms":6045,"Ġdere":6046,"Ġnova":6047,"Ġexchange":6048,"Ġbroadcast":6049,"Ġdeclar":6050,"Ġtraders":6051,"Ġnominate":6052,"Mad":6053,"lad":6054,"anna":6055,"iden":6056,"igen":6057,"Ġsat":6058,"atia":6059,"thank":6060,"ctions":6061,"ĠNNPC":6062,"Ġgoing":6063,"Ġdont":6064,"ugee":6065,"ĠMatt":6066,"ĠItalian":6067,"Ġassistant":6068,"ĠDebate":6069,"ĠECOWAS":6070,"Ġduty":6071,"Ġstress":6072,"Ġguidel":6073,"ĠOlam":6074,"Ġcrowd":6075,"ED":6076,"see":6077,"eder":6078,"ĠPierre":6079,"ĠKatsina":6080,"Ġmago":6081,"EAD":6082,"ĠSports":6083,"olas":6084,"ureau":6085,"ĠAminu":6086,"Ġlawmaker":6087,"ĠPSG":6088,"eem":6089,"pipol":6090,"atal":6091,"Ġrap":6092,"unk":6093,"iance":6094,"Ġbranch":6095,"Ġfollowing":6096,"ĠSpirit":6097,"Ġweti":6098,"ĠAhmad":6099,"aviour":6100,"ergy":6101,"ĠSweet":6102,"ĠFree":6103,"Ġupandan":6104,"Ġhelicopter":6105,"ĠOny":6106,"Ġbillionaire":6107,"Ġfounder":6108,"Ġmilk":6109,"ĠWilder":6110,"ĠRepresentatives":6111,"even":6112,"Ġnatural":6113,"ĠNDC":6114,"Ġdone":6115,"Ġload":6116,"Ġsuicide":6117,"ĠAndrew":6118,"Ġoperations":6119,"part":6120,"Ġmoon":6121,"Ġgall":6122,"Ġrent":6123,"Ġring":6124,"ĠTra":6125,"ĠFBI":6126,"odu":6127,"Ġquarrel":6128,"ĠFinance":6129,"Ġcomedian":6130,"ĠMuse":6131,"ĠCape":6132,"ĠAlbum":6133,"ĠShare":6134,"ĠFalz":6135,"Ġparticular":6136,"ĠMartin":6137,"ĠAlhaji":6138,"IP":6139,"ority":6140,"Ġdipl":6141,"ĠMall":6142,"ĠFil":6143,"Ġcomb":6144,"abor":6145,"riculture":6146,"Ġadvert":6147,"ĠEbony":6148,"ĠOffice":6149,"TY":6150,"Ġ2006":6151,"urse":6152,"Ġexternal":6153,"aves":6154,"eness":6155,"Ġjaguda":6156,"Ġcomputer":6157,"Ġlegend":6158,"Ġcontrover":6159,"Ġpollution":6160,"ĠNwoko":6161,"Ġfriendly":6162,"Ġsac":6163,"Ġpen":6164,"ĠMama":6165,"eeze":6166,"Ġmix":6167,"cr":6168,"Ġcos":6169,"Ġcamer":6170,"iting":6171,"ĠTORI":6172,"ĠVol":6173,"Ġdeceive":6174,"Ġmonkey":6175,"Ġprotection":6176,"Ġaccounts":6177,"Ġdetention":6178,"Ġgofment":6179,"LC":6180,"Ġweather":6181,"Ġhero":6182,"Ġanywhere":6183,"Ġproduction":6184,"Ġevribodi":6185,"ĠOkoro":6186,"Ġdelete":6187,"Ġexams":6188,"ĠNyesom":6189,"rob":6190,"ĠSteph":6191,"ĠAbacha":6192,"Ġpikins":6193,"Ġcoff":6194,"roach":6195,"ĠJordan":6196,"ĠSaf":6197,"edy":6198,"Ġdegree":6199,"agues":6200,"Ġpremi":6201,"ĠYah":6202,"inde":6203,"ĠMeghan":6204,"Ġdomot":6205,"ĠMer":6206,"ential":6207,"ĠOur":6208,"istics":6209,"ĠLil":6210,"Ġpowerful":6211,"Ġinsult":6212,"ĠMahama":6213,"Black":6214,"Ġequipment":6215,"Every":6216,"Ġhorse":6217,"Ġshops":6218,"ablish":6219,"Ġgrass":6220,"Ġleak":6221,"ĠChair":6222,"Ġspons":6223,"Ġcurfew":6224,"ĠAmbassador":6225,"Ġdisappoint":6226,"Ġbaptize":6227,"ĠYakubu":6228,"miss":6229,"Ġhun":6230,"ĠMun":6231,"Ġlift":6232,"Ġnobodi":6233,"ante":6234,"ebo":6235,"ĠGlobal":6236,"Ġhapun":6237,"ither":6238,"Ġkp":6239,"ĠWestern":6240,"Ġrev":6241,"obol":6242,"Ġparticipate":6243,"ping":6244,"wick":6245,"Ġwalk":6246,"ĠCommunity":6247,"Ġcitizen":6248,"viation":6249,"Bashir":6250,"fect":6251,"oval":6252,"usegun":6253,"Ġsecretary":6254,"Ġfotos":6255,"aylor":6256,"ĠMilitary":6257,"ĠBaf":6258,"Ġaspir":6259,"assan":6260,"Ġvarian":6261,"Ġbehaviour":6262,"Ġpriests":6263,"Ġinvolved":6264,"ĠMaurice":6265,"ructure":6266,"wetin":6267,"ĠNam":6268,"iki":6269,"ĠShell":6270,"Ġstatue":6271,"ĠPolit":6272,"Ġlargest":6273,"ION":6274,"onze":6275,"itin":6276,"ĠMn":6277,"ĠDiv":6278,"ams":6279,"ĠBon":6280,"orney":6281,"ĠAliyu":6282,"Ġsmell":6283,"Ġnumbers":6284,"ĠGhc":6285,"right":6286,"yahoo":6287,"Ġselect":6288,"Ġbri":6289,"ĠFun":6290,"ĠEst":6291,"abin":6292,"ĠAnas":6293,"rene":6294,"Ġquality":6295,"aura":6296,"ĠFlor":6297,"Ġsummit":6298,"ĠPlayer":6299,"bal":6300,"gie":6301,"yu":6302,"anga":6303,"isi":6304,"ĠGal":6305,"Ġmarried":6306,"ĠActing":6307,"inate":6308,"Ġcreat":6309,"ides":6310,"eta":6311,"Ġrival":6312,"ĠWil":6313,"utor":6314,"ĠLife":6315,"ĠRob":6316,"Ġevry":6317,"Ġbrand":6318,"ĠLevi":6319,"Ġfees":6320,"ofi":6321,"aju":6322,"afi":6323,"security":6324,"pox":6325,"ĠSatan":6326,"Ġshele":6327,"ĠWhich":6328,"Ġcolour":6329,"ĠHerdsmen":6330,"Ġnecessary":6331,"ĠJournalist":6332,"PE":6333,"Ġwould":6334,"Ġreb":6335,"Ġcapt":6336,"INN":6337,"Ġsnap":6338,"Ġmeasures":6339,"Ġmachine":6340,"IL":6341,"SA":6342,"icate":6343,"Ġkover":6344,"ĠGames":6345,"Ġregular":6346,"Ġpredict":6347,"ĠBoseman":6348,"Ok":6349,"Ġbaba":6350,"enue":6351,"ammed":6352,"ĠEvery":6353,"ĠCyr":6354,"ĠLat":6355,"Ġworker":6356,"orders":6357,"Ġeveryone":6358,"ĠPlenty":6359,"Ġ2003":6360,"Ġterrorism":6361,"ĠLyon":6362,"Ġobserve":6363,"52":6364,"eer":6365,"Ġmade":6366,"Ġren":6367,"ĠJoy":6368,"ĠDuring":6369,"ĠĠĠĠĠĠĠ":6370,"Ġsomeone":6371,"ĠThrones":6372,"Ġengage":6373,"Ġembassy":6374,"Ġtoilet":6375,"Gover":6376,"wia":6377,"itan":6378,"ĠPope":6379,"ĠEto":6380,"Ġklean":6381,"Ġgreet":6382,"ugal":6383,"Ġboyfriend":6384,"Ġtitles":6385,"ĠBayern":6386,"ployment":6387,"ĠApple":6388,"RO":6389,"ae":6390,"ĠNot":6391,"ĠOpp":6392,"ĠBol":6393,"ĠCond":6394,"ĠHen":6395,"ĠRoma":6396,"Ġgrave":6397,"ĠThird":6398,"ĠMalawi":6399,"Anglophone":6400,"RA":6401,"field":6402,"Ġhad":6403,"Ġkings":6404,"ĠLive":6405,"ocket":6406,"Ġportalone":6407,"ashons":6408,"ĠMadagascar":6409,"Ġsurround":6410,"ĠiPhone":6411,"Ġtroops":6412,"42":6413,"99":6414,"ĠAviation":6415,"ĠFar":6416,"Ġattract":6417,"Ġscene":6418,"Ġmeaning":6419,"ĠMedical":6420,"ĠLebanon":6421,"Le":6422,"Ġelse":6423,"ined":6424,"Ġbite":6425,"ĠAud":6426,"real":6427,"Ġsek":6428,"ĠKeny":6429,"Ġqualif":6430,"ette":6431,"ĠMaid":6432,"ĠNob":6433,"Ġdev":6434,"Ġchang":6435,"iant":6436,"ĠYobe":6437,"Ġ55":6438,"rison":6439,"Ġdivision":6440,"ĠIghalo":6441,"craft":6442,"Ġblog":6443,"ufai":6444,"Ġvillages":6445,"ĠKwara":6446,"ĠControl":6447,"Ġnegative":6448,"AU":6449,"omit":6450,"Ġowe":6451,"ords":6452,"ĠDrake":6453,"Ġtesting":6454,"Ġprayers":6455,"Ken":6456,"Ġsection":6457,"Ġmale":6458,"ĠLike":6459,"Ġsubs":6460,"ĠYour":6461,"ĠStella":6462,"ockdown":6463,"ussia":6464,"evin":6465,"Ġestablish":6466,"ĠTal":6467,"ĠTrib":6468,"ĠPass":6469,"ĠPikin":6470,"ĠEt":6471,"abar":6472,"Ġjun":6473,"EST":6474,"letico":6475,"Ġshaut":6476,"ĠIwobi":6477,"Mar":6478,"based":6479,"pa":6480,"ato":6481,"ĠJen":6482,"Ġwitout":6483,"ĠHollywood":6484,"ĠRadio":6485,"Ġbelong":6486,"ĠJean":6487,"Big":6488,"kel":6489,"ray":6490,"ui":6491,"ĠBall":6492,"elling":6493,"utu":6494,"ubam":6495,"Ġartiste":6496,"Ġmovies":6497,"Ġadmission":6498,"ĠGarba":6499,"omatic":6500,"DF":6501,"bes":6502,"ĠUp":6503,"inka":6504,"Prof":6505,"ĠAppeal":6506,"Ġfunny":6507,"ĠWitness":6508,"ĠPrez":6509,"stituency":6510,"face":6511,"ovic":6512,"Ġclimb":6513,"lands":6514,"ĠOby":6515,"before":6516,"anyi":6517,"Ġpanel":6518,"lie":6519,"xit":6520,"Ġwuru":6521,"Ġbal":6522,"Ġgar":6523,"ĠDist":6524,"ĠBureau":6525,"ĠPVC":6526,"ĠHot":6527,"ĠKings":6528,"Ġbrut":6529,"Ġsecure":6530,"ĠTrade":6531,"Ġclaims":6532,"Inst":6533,"Ġcomments":6534,"ĠKyari":6535,"70":6536,"NA":6537,"OTHER":6538,"ega":6539,"Ġpull":6540,"ĠNumber":6541,"Ġgods":6542,"ĠVer":6543,"ĠCBN":6544,"ĠHin":6545,"Ġenergy":6546,"Ġspokes":6547,"Ġsmile":6548,"ĠCommunic":6549,"Ġnote":6550,"ĠDrug":6551,"Ġartists":6552,"ĠBox":6553,"Ġapologise":6554,"oyi":6555,"ĠWhats":6556,"ĠInstitute":6557,"Ġinfr":6558,"ĠSwed":6559,"finals":6560,"Ġwood":6561,"Ġmaking":6562,"ĠIy":6563,"igeria":6564,"ĠBak":6565,"ĠCro":6566,"Ġvol":6567,"aving":6568,"Ġscr":6569,"ankw":6570,"ĠOlusegun":6571,"Ġhospitals":6572,"ĠGovnorship":6573,"Ġproof":6574,"ĠGabon":6575,"iary":6576,"ĠSl":6577,"ĠPark":6578,"ĠPetrol":6579,"ĠLai":6580,"ĠKa":6581,"Ġairports":6582,"Ġpregnancy":6583,"ni":6584,"thod":6585,"ĠGO":6586,"Ġprime":6587,"ĠRet":6588,"Ġcrown":6589,"AFP":6590,"ĠLawal":6591,"Ġimplement":6592,"Ġvariant":6593,"Jehovah":6594,"Ġoy":6595,"ication":6596,"ado":6597,"ĠEK":6598,"ĠUniversities":6599,"Ġmajority":6600,"Ġexamination":6601,"yright":6602,"Ġpilot":6603,"Ġathletes":6604,"-...":6605,"It":6606,"OL":6607,"Ob":6608,"Read":6609,"Ġgreen":6610,"ĠTher":6611,"ĠPI":6612,"Ġprincip":6613,"ĠLam":6614,"ĠUnder":6615,"Ġconstr":6616,"Ġconfess":6617,"Ġregional":6618,"ĠMans":6619,"ĠFela":6620,"ĠOt":6621,"isdom":6622,"ĠJay":6623,"ised":6624,"Ġallegation":6625,"Ġofficially":6626,"ĠSarah":6627,"uguri":6628,"Ġcourse":6629,"ney":6630,"pire":6631,"inst":6632,"eyang":6633,"Ġpocket":6634,"ĠMod":6635,"ĠOj":6636,"Ġhonor":6637,"ĠOlamide":6638,"EFCC":6639,"ST":6640,"hi":6641,"put":6642,"wen":6643,"Ġtask":6644,"Ġ2023":6645,"ĠVal":6646,"ĠCount":6647,"ĠUEFA":6648,"Ġcheat":6649,"Ġanyone":6650,"ĠAfghan":6651,"Ġcompet":6652,"Ġrelax":6653,"opular":6654,"ĠPortugal":6655,"Ġmissing":6656,"ĠConf":6657,"ĠRegion":6658,"Ġhundreds":6659,"ĠPalace":6660,"ubameyang":6661,"90":6662,"Ġvers":6663,"Ġdoub":6664,"Ġfool":6665,"alition":6666,"ĠĠĠĠĠĠĠĠĠĠĠĠĠĠĠĠĠ":6667,"Ġcelebrities":6668,"Ġrubber":6669,"fit":6670,"sey":6671,"say":6672,"wuru":6673,"eri":6674,"igil":6675,"ĠColl":6676,"astand":6677,"ĠSpanish":6678,"Ġglory":6679,"Ġmaybe":6680,"ĠHoly":6681,"ĠDuke":6682,"Ġsheep":6683,"ommend":6684,"ression":6685,"ĠClub":6686,"Ġcomedy":6687,"ausa":6688,"Ġcheap":6689,"city":6690,"Ġmult":6691,"eprene":6692,"Ġdiasef":6693,"avy":6694,"antine":6695,"ibe":6696,"Ġ75":6697,"Ġmostly":6698,"Ġmobile":6699,"Ġcast":6700,"Ġogas":6701,"Ġprices":6702,"ĠLG":6703,"astructure":6704,"abet":6705,"ĠPrim":6706,"angagwa":6707,"Ġheadquarters":6708,"ĠKillings":6709,"Bar":6710,"zy":6711,"Ġbiz":6712,"omen":6713,"olate":6714,"ĠTaylor":6715,"ĠFashola":6716,"ĠBiden":6717,"ĠCC":6718,"ĠPrincess":6719,"Ġcorrupt":6720,"Ġpermission":6721,"grace":6722,"Ġcirculate":6723,"Ġmaterials":6724,"Ġgyms":6725,");":6726,"igation":6727,"ĠTony":6728,"ĠFestival":6729,"ĠHapp":6730,"ĠREAD":6731,"Ġloot":6732,"Ġowners":6733,"lude":6734,"Ġpreaching":6735,"ĠAdamawa":6736,"MT":6737,"augur":6738,"Ġpur":6739,"arawa":6740,"ĠAch":6741,"ipp":6742,"Ġshift":6743,"Ġconvention":6744,"Ġenemy":6745,"Ġconfidence":6746,"ĠProgressive":6747,"ĠAlexand":6748,"from":6749,"uy":6750,"ĠEric":6751,"Ġcoming":6752,"ĠPress":6753,"Ġpartners":6754,"uclear":6755,"ĠGrace":6756,"Ġpropose":6757,"Ġgunsh":6758,"ĠNgige":6759,"98":6760,"Ġstor":6761,"Ġkare":6762,"ĠJeh":6763,"Ġspas":6764,"ĠEuropa":6765,"Ġneck":6766,"gold":6767,"nes":6768,"xico":6769,"Ġsource":6770,"ĠMount":6771,"Ġep":6772,"ĠTins":6773,"ĠPower":6774,"Ġreign":6775,"Ġagenda":6776,"Ġdistrict":6777,"Ġfavor":6778,"ĠSisiku":6779,"ĠSupp":6780,"olve":6781,"apata":6782,"anti":6783,"Ġrecommend":6784,"ĠEmirates":6785,"Ġ1990":6786,"Ġweapon":6787,"Ġpregnant":6788,"ĠNetflix":6789,"Ġsucceed":6790,"WHO":6791,"ea":6792,"Ġign":6793,"2018":6794,"thew":6795,"ĠNFF":6796,"ĠEid":6797,"ĠWa":6798,"Ġclimate":6799,"ĠConstitution":6800,"Ġgallery":6801,"51":6802,"pet":6803,"pol":6804,"Ġcool":6805,"Ġlion":6806,"ĠIS":6807,"Ġdonate":6808,"ĠPep":6809,"ĠJakob":6810,"ĠLu":6811,"ulations":6812,"Ġuncle":6813,"uea":6814,"Ġqueen":6815,"ĠNoah":6816,"Ġslap":6817,"ribution":6818,"vious":6819,"Ġpros":6820,"iversary":6821,"Ġvoter":6822,"ĠMoscow":6823,"Inside":6824,"Ġmagazine":6825,"CH":6826,"ĠNGO":6827,"ĠBas":6828,"Ġtrobol":6829,"ĠAbba":6830,"ength":6831,"Ġnationwide":6832,"Ġaware":6833,"INNER":6834,"ĠMaiduguri":6835,"04":6836,"Ġtalent":6837,"Ġnite":6838,"ĠTown":6839,"ĠCust":6840,"ivid":6841,"019":6842,"ĠStar":6843,"Ġcurrency":6844,"ĠAmbazonia":6845,"Ġplead":6846,"UK":6847,"king":6848,"ande":6849,"ĠNO":6850,"Ġeth":6851,"Ġegg":6852,"ĠFer":6853,"ĠGom":6854,"chukwu":6855,"Ġensef":6856,"ĠCameroonian":6857,"ĠBright":6858,"egun":6859,"Ġcream":6860,"Ġhydro":6861,"charge":6862,"zaky":6863,"Ġpion":6864,"ategy":6865,"Ġ($":6866,"Ġcrimes":6867,"Ġcivilian":6868,"Ġpolicemen":6869,"Ġempty":6870,"Ġguidelines":6871,"Ġraid":6872,"Ġrally":6873,"ĠProv":6874,"oku":6875,"Ġagent":6876,"Ġbronze":6877,"ĠLeah":6878,"Although":6879,"ĠTeam":6880,"Ġcriminals":6881,"Ġinstitutions":6882,"ĠNgo":6883,"ĠPs":6884,"Ġamend":6885,"ĠRem":6886,"iffer":6887,"ĠYes":6888,"Ġsomebody":6889,"Ġundastand":6890,"Ġspeed":6891,"Ġreaction":6892,"ĠAnnan":6893,"Ġbullet":6894,"fu":6895,"sl":6896,"Ġbribe":6897,"ĠAubameyang":6898,"Ġride":6899,"Ġeither":6900,"ĠToday":6901,"reed":6902,"akzaky":6903,"Ġjolly":6904,"Ġconsult":6905,"Ġelders":6906,"Ġclothes":6907,"Ġprojects":6908,"Ġrobbers":6909,"latan":6910,"Ġtay":6911,"arp":6912,"Ġstore":6913,"ĠLuke":6914,"ĠUFC":6915,"ĠCheck":6916,"Ġ56":6917,"Ġconfuse":6918,"Ġjoint":6919,"ĠNorthern":6920,"Ġbehave":6921,"OMI":6922,"life":6923,"yte":6924,"ĠSm":6925,"ĠIN":6926,"ĠOut":6927,"ĠCivil":6928,"Ġkamp":6929,"itiative":6930,"Ġcamera":6931,"Last":6932,"mm":6933,"Ġfee":6934,"arity":6935,"arant":6936,"ĠJim":6937,"ĠUtd":6938,"arious":6939,"Ġworking":6940,"Ġgirlfriend":6941,"ĠOba":6942,"ĠEliz":6943,"Ġinvestigations":6944,"Ġkwesh":6945,"Ġsidan":6946,"Ġindependent":6947,"Ġchallenges":6948,"ĠTribunal":6949,"ii":6950,"oat":6951,"Ġft":6952,"Ġcow":6953,"ured":6954,"ĠFamily":6955,"ĠCy":6956,"ĠCandid":6957,"ĠKevin":6958,"ibia":6959,"ĠAsia":6960,"Ġremind":6961,"Ġcaption":6962,"Ġcelebrity":6963,"Ġzone":6964,"Ġsilva":6965,"Ġscreening":6966,"Ġmosquito":6967,"Ġbrief":6968,"bassy":6969,"po":6970,"turn":6971,"Ġsoup":6972,"inner":6973,"ellor":6974,"Ġdoh":6975,"Ġpatapata":6976,"ĠAnti":6977,"Ġthoughts":6978,"Ġdeadline":6979,"ĠMnangagwa":6980,"Ġgender":6981,"ĠPro":6982,"Ġagents":6983,"ĠImm":6984,"Ġguard":6985,"rister":6986,"Ġassociation":6987,"Ġdocuments":6988,"ĠOlympic":6989,"Ġmelu":6990,"Goment":6991,"inma":6992,"Ġ2005":6993,"oper":6994,"Ġwanted":6995,"Ġdifference":6996,"Ġpalace":6997,"Ġterms":6998,"Ġinsist":6999,"ĠCroatia":7000,"78":7001,"Gov":7002,"Ġdaily":7003,"Ġstab":7004,"ising":7005,"ĠKor":7006,"Ġkilli":7007,"Ġteen":7008,"Ġdeserve":7009,"Ġinvasion":7010,"Ġrefugee":7011,"Ġlevels":7012,"Ġcounter":7013,"ei":7014,"mys":7015,"Ġmus":7016,"itarian":7017,"ĠSabi":7018,"Ġgoat":7019,"Ġdisgrace":7020,"irty":7021,"Ġash":7022,"Ġactors":7023,"Which":7024,"Also":7025,"abeth":7026,"Ġexpert":7027,"Ġtechnical":7028,"loy":7029,"Ġtough":7030,"olation":7031,"alla":7032,"ĠKom":7033,"Ġabove":7034,"Ġsecession":7035,"Ġtradition":7036,"ylv":7037,"ĠContent":7038,"Ġresponsible":7039,"Ġchemical":7040,"ĠOkorocha":7041,"Super":7042,"Ġer":7043,"ĠSah":7044,"ĠAirl":7045,"ilities":7046,"ammer":7047,"isl":7048,"chloroquine":7049,"apers":7050,"ĠNaomi":7051,"ĠZeal":7052,"ĠNobody":7053,"Ġemot":7054,"Ġsanctions":7055,"Ġsummer":7056,"Ġwindow":7057,"set":7058,"Ġill":7059,"Ġmir":7060,"ĠSimi":7061,"Ġinform":7062,"verage":7063,"ĠRoh":7064,"Ġcalls":7065,"ighty":7066,"Ġsimple":7067,"Ġiron":7068,"orth":7069,"ĠEle":7070,"ĠEPA":7071,"ĠUr":7072,"Ġboost":7073,"Ġloose":7074,"Ġexist":7075,"ĠDisease":7076,"asef":7077,"ĠDemocracy":7078,"Ġmeasure":7079,"ĠSecondary":7080,"abinet":7081,"rest":7082,"Ġpidgin":7083,"Ġnut":7084,"imen":7085,"ĠFans":7086,"ĠGet":7087,"ĠLee":7088,"awo":7089,"Ġevil":7090,"Ġoption":7091,"Ġ85":7092,"Ġwriter":7093,"Who":7094,"ĠResearch":7095,"Ġprefer":7096,"ĠFlood":7097,"ĠIsaac":7098,"Ġcolleagues":7099,"Una":7100,"ĠSub":7101,"Ġinject":7102,"Ġinaugur":7103,"Ġtrous":7104,"Ġsenators":7105,"Israel":7106,"fortun":7107,"ĠAttorney":7108,"Ġlabel":7109,"American":7110,"Ġsponsor":7111,"08":7112,"AE":7113,"Kano":7114,"MO":7115,"Ġtack":7116,"Ġcold":7117,"Ġmor":7118,"Ġgats":7119,"ĠSum":7120,"icles":7121,"ĠNick":7122,"asa":7123,"Ġable":7124,"ĠPrison":7125,"Ġexact":7126,"ĠYOU":7127,"Ġaccol":7128,"Ġjoinbodi":7129,"Ġevriwhere":7130,"Ġcrew":7131,"ĠScience":7132,"ividual":7133,"Terry":7134,"Ġet":7135,"Ġdump":7136,"isher":7137,"ĠEye":7138,"eart":7139,"Ġdoing":7140,"ĠBroadcast":7141,"Ġbuildings":7142,"Ġconclude":7143,"ardiola":7144,"xual":7145,"Ġcovid":7146,"Ġyeye":7147,"Ġdismiss":7148,"Ġ54":7149,"ĠOkoye":7150,"Ġdetermine":7151,"ĠMunich":7152,"ĠTheresa":7153,"Ġbizness":7154,"West":7155,"hen":7156,"nel":7157,"nic":7158,"ĠVilla":7159,"ĠPM":7160,"osted":7161,"Ġaccus":7162,"ĠAtl":7163,"Ġ2004":7164,"ĠElisha":7165,"Ġdepartment":7166,"Ġskills":7167,"ĠUTOMI":7168,"ĠBrexit":7169,"ĠAdministration":7170,"ĠEKPE":7171,"Fr":7172,"ĠSaint":7173,"Ġstorm":7174,"ĠCard":7175,"agine":7176,"ĠUche":7177,"Ġrunning":7178,"Ġbelow":7179,"Ġmessages":7180,"ĠStrike":7181,"ĠavailableView":7182,"ĠSomalia":7183,"ĠMainland":7184,"Ġdisqualify":7185,"ĠPIUS":7186,"oland":7187,"Ġlay":7188,"ellers":7189,"ĠUefa":7190,"Ġdose":7191,"Anoda":7192,"Ġheal":7193,"azi":7194,"Ġpropaty":7195,"ĠJustin":7196,"Ġsitting":7197,"ĠAyuk":7198,"Ġelder":7199,"ĠFCFA":7200,"alifor":7201,"Ġlecturer":7202,"Ġmoments":7203,"':":7204,"bon":7205,"sene":7206,"Ġnuclear":7207,"Ġgosp":7208,"Ġyellow":7209,"ĠHall":7210,"with":7211,"oken":7212,"Ġ65":7213,"ĠForbes":7214,"Ġeverybodi":7215,"Ġidentity":7216,"ĠALSO":7217,"Ġpioneer":7218,"ytechn":7219,"ĠEKPEI":7220,"Ġgospel":7221,"Two":7222,"cor":7223,"lo":7224,"ship":7225,"ati":7226,"Ġbore":7227,"Ġborders":7228,"Ġmast":7229,"ĠBashir":7230,"iru":7231,"cho":7232,"usion":7233,"Ġchase":7234,"ĠKuti":7235,"ĠAnton":7236,"achi":7237,"Ġresponsibility":7238,"ifferent":7239,"PY":7240,"han":7241,"Ġton":7242,"Ġbit":7243,"ĠDaura":7244,"Ġimage":7245,"Ġpassenger":7246,"ĠKofi":7247,"Ġreporter":7248,"Ġgeneration":7249,"ĠJudge":7250,"ĠBusiness":7251,"Ġrestrictions":7252,"Ġinfrastructure":7253,"alifornia":7254,"AY":7255,"Som":7256,"Today":7257,"zz":7258,"ĠOx":7259,"ĠOz":7260,"acity":7261,"ĠBer":7262,"Ġstake":7263,"Ġchest":7264,"uls":7265,"ĠSweden":7266,"Ġtackle":7267,"Video":7268,"Ġsens":7269,"Ġpity":7270,"etch":7271,"ĠFury":7272,"ĠGift":7273,"Ġbreeze":7274,"ĠEmbassy":7275,"Ġgoods":7276,"ufact":7277,"ĠUkrain":7278,"Trump":7279,"Ġmosque":7280,"Ġdeclaration":7281,"68":7282,"ben":7283,"onto":7284,"Ġwide":7285,"icked":7286,"ĠFull":7287,"Ġreform":7288,"alley":7289,"Ġsud":7290,"Ġrepair":7291,"ĠChampionship":7292,"ĠBoard":7293,"ĠMatthew":7294,"Ġterrorists":7295,"Ġentreprene":7296,"Ek":7297,"HCR":7298,"Ġaffairs":7299,"Ġlif":7300,"ĠTom":7301,"aging":7302,"istia":7303,"Ġmeans":7304,"apo":7305,"Ġopt":7306,"Ġbiography":7307,"ologist":7308,"Ġtribunal":7309,"ĠCrimes":7310,"lusive":7311,"just":7312,"mail":7313,"Ġwise":7314,"ĠSant":7315,"ĠMust":7316,"ĠMax":7317,"ĠFever":7318,"ĠBuea":7319,"ĠKol":7320,"Ġspot":7321,"Ġperman":7322,"ĠServ":7323,"ridge":7324,"dinga":7325,"Ġexpected":7326,"Ġproced":7327,"Ġgbas":7328,"Ġcyber":7329,"Ġbottom":7330,"uwa":7331,"Ġprepar":7332,"ula":7333,"quick":7334,"ĠAbout":7335,"Ġrepeat":7336,"ancellor":7337,"Ġgovernors":7338,"aje":7339,"Ġrespet":7340,"Ġlegs":7341,"ICEF":7342,"Ġdollar":7343,"ĠXenophobia":7344,"ĠPetroleum":7345,"unanya":7346,"Ġreven":7347,"ache":7348,"Ġactions":7349,"ĠMuhammed":7350,"ĠSeven":7351,"Ġphotos":7352,"ĠConte":7353,"oney":7354,"Ġaverage":7355,"ĠTabe":7356,"ĠFemale":7357,"Ġbeauty":7358,"achukwu":7359,"Ġseek":7360,"ĠThat":7361,"Ġthrone":7362,"ĠChadwick":7363,"Ġphysical":7364,"ĠRelations":7365,"ĠElizabeth":7366,"pers":7367,"ĠDaily":7368,"ĠBud":7369,"ively":7370,"ibodi":7371,"Ġcareful":7372,"Former":7373,"Ġprophet":7374,"annel":7375,"Ġballot":7376,"Ġquarantine":7377,"Ġfigures":7378,"Most":7379,"km":7380,"Ġdiabet":7381,"Ġnons":7382,"ashe":7383,"ĠRot":7384,"onga":7385,"Ġ52":7386,"ĠAdem":7387,"That":7388,"ophet":7389,"ĠBalogun":7390,"Ġsudden":7391,"03":7392,"RM":7393,"TN":7394,"Ġmaster":7395,"ĠWash":7396,"ĠLew":7397,"reate":7398,"Ġspec":7399,"ĠInternet":7400,"Ġassure":7401,"Ġswallow":7402,"ĠJosef":7403,"ĠPoland":7404,"ĠWaec":7405,"En":7406,"RC":7407,"Yes":7408,"Ġtent":7409,"Ġcra":7410,"Ġhung":7411,"ĠAth":7412,"ĠCalifornia":7413,"Ġkor":7414,"uta":7415,"ĠHous":7416,"Ġabs":7417,"Ġjersey":7418,"ĠZlatan":7419,"Ġscience":7420,"Nigerians":7421,"going":7422,"Ġindividual":7423,"ĠAgu":7424,"Ġbooks":7425,"ĠFCT":7426,"Ġshutdown":7427,"ĠMandela":7428,".''":7429,"King":7430,"mond":7431,"onel":7432,"ĠSwit":7433,"ĠPere":7434,"ĠEj":7435,"Ġchick":7436,"Ġbusinesses":7437,"ĠPlan":7438,"ĠActs":7439,"Ġclosure":7440,"ĠYahaya":7441,"AG":7442,"ten":7443,"wed":7444,"Ġting":7445,"Ġbone":7446,"ĠAso":7447,"Ġlite":7448,"iles":7449,"ĠIj":7450,"irgin":7451,"ĠLolo":7452,"ieh":7453,"iban":7454,"Ġ64":7455,"oooo":7456,"Ġsett":7457,"ĠIndian":7458,"ĠOrt":7459,"ground":7460,"Ġapart":7461,"ĠRichard":7462,"Ġfuneral":7463,"Ġsurrender":7464,"Ġrecognise":7465,"ĠAdeosun":7466,"ievement":7467,"Ġhunger":7468,"Ġchanges":7469,"DAC":7470,"zgold":7471,"Ġke":7472,"Ġtab":7473,"Ġsand":7474,"ĠDum":7475,"aced":7476,"ritory":7477,"Ġruler":7478,"AFDAC":7479,"ronic":7480,"ĠGuardiola":7481,"Ġvaccination":7482,"Ġimpact":7483,"Justice":7484,"akyi":7485,"ĠHisbah":7486,"Ġignore":7487,"PL":7488,"Ġol":7489,"ĠMoz":7490,"Ġrit":7491,"ĠCodeine":7492,"Ġkana":7493,"ustain":7494,"antage":7495,"Ġ1994":7496,"Ġconcerns":7497,"ĠAyo":7498,"ĠKwesi":7499,"ĠMinute":7500,"ĠANOTHER":7501,"Ġcriticise":7502,"OK":7503,"Ġtag":7504,"ems":7505,"amad":7506,"acle":7507,"ĠResident":7508,"ĠShow":7509,"Ġhigher":7510,"Ġsongwrit":7511,"Ġimpose":7512,"ĠBoris":7513,"ĠDoctor":7514,"ĠNgozi":7515,"GH":7516,"mund":7517,"Ġfully":7518,"Ġmate":7519,"Ġgot":7520,"Ġbeach":7521,"ĠWeek":7522,"opy":7523,"ĠLGA":7524,"Ġmedal":7525,"esina":7526,"Ġoffa":7527,"Ġsky":7528,"Ġguns":7529,"Ġkountry":7530,"Ġlittle":7531,"xychloroquine":7532,"ĠLucy":7533,"sk":7534,"ilar":7535,"ĠBala":7536,"ĠHausa":7537,"acks":7538,"issau":7539,"ĠForum":7540,"Ġrecording":7541,"Ġthemselves":7542,"ĠAndre":7543,"Afric":7544,"anny":7545,"ĠClin":7546,"Ġharm":7547,"ĠKwankw":7548,"ĠFootballer":7549,"Ġscheme":7550,"zerland":7551,"Ġcongratulate":7552,"?,":7553,"FI":7554,"ĠSun":7555,"ĠLas":7556,"Ġapprec":7557,"azon":7558,"Ġdistancing":7559,"Ġseriously":7560,"Ġprofessor":7561,"Ġexpire":7562,"Ġcircum":7563,"Ib":7564,"May":7565,"Ġ/":7566,"eland":7567,"elson":7568,"Ġroll":7569,"ĠOch":7570,"ĠBecause":7571,"ĠChe":7572,"ĠGree":7573,"ĠUwa":7574,"ĠKayode":7575,"under":7576,"Ġoverse":7577,"ĠAngola":7578,"ĠIfunanya":7579,"ĠĠĠĠĠĠĠĠĠĠĠĠĠĠĠĠĠĠĠĠĠĠĠĠĠĠĠĠĠĠĠĠĠĠĠĠĠĠĠĠĠĠĠĠĠĠĠĠĠĠĠĠĠĠĠĠĠĠĠĠĠĠĠĠ":7580,"tedola":7581,"ĠSym":7582,"Ġtrouser":7583,"?\"":7584,"MM":7585,"Sp":7586,"ned":7587,"oum":7588,"icron":7589,"Ġrans":7590,"ĠHu":7591,"ĠLand":7592,"aribu":7593,"ewa":7594,"Ġanniversary":7595,"ĠSea":7596,"ĠEnter":7597,"Ġ1993":7598,"Ġviolent":7599,"OS":7600,"care":7601,"Ġwimen":7602,"Ġsins":7603,"Ġpension":7604,"bery":7605,"Ġrat":7606,"ĠOld":7607,"ĠBishop":7608,"eption":7609,"aps":7610,"Ġkiller":7611,"ibr":7612,"ĠĠĠĠĠĠĠĠĠĠĠĠĠĠĠĠĠĠ":7613,"ĠEbuka":7614,"Ġtwins":7615,"Ġranking":7616,"Ġlikely":7617,"TMPY":7618,"Ġcapture":7619,"Ġhungry":7620,"Posted":7621,"WC":7622,"ged":7623,"pose":7624,"aness":7625,"Ġtee":7626,"Ġhat":7627,"ĠOdinga":7628,"ĠCP":7629,"ĠHy":7630,"ĠLos":7631,"Ġstrength":7632,"Ġpanic":7633,"Ġdocumentary":7634,"ĠJackson":7635,"ĠNunieh":7636,"ĠKenyatta":7637,"ĠServices":7638,"Boko":7639,"Like":7640,"lict":7641,"pob":7642,"Ġtips":7643,"atar":7644,"Ġfeems":7645,"iyi":7646,"ylum":7647,"ĠWalter":7648,"ĠWhatsApp":7649,"Ġnonsense":7650,"dia":7651,"Ġmout":7652,"Ġni":7653,"Ġliving":7654,"adies":7655,"ĠCancer":7656,"ĠKemi":7657,"Ġsoft":7658,"Ġaria":7659,"Ġclock":7660,"risky":7661,"Ġprobe":7662,"ĠMexico":7663,"ĠOmar":7664,"Ġresearchers":7665,"Ġtyp":7666,"ĠAkinw":7667,"salms":7668,"Ġcolonial":7669,"igenous":7670,"Ġdoubt":7671,"4019":7672,"Ex":7673,"ck":7674,"Ġmand":7675,"Ġnashons":7676,"etta":7677,"ĠCode":7678,"ĠRod":7679,"Ġbigin":7680,"ĠMinimum":7681,"Ġambassador":7682,"AD":7683,"Tok":7684,"si":7685,"Ġcedi":7686,"Ġmer":7687,"Ġdemma":7688,"isas":7689,"osexual":7690,"ĠAbeg":7691,"Ġstrategy":7692,"Ġseconds":7693,"uku":7694,"Ġsigns":7695,"Ġveget":7696,"Ġemail":7697,"ĠMcC":7698,"Ġfigure":7699,"ĠStephen":7700,"Ġcabinet":7701,"ayi":7702,"ĠSule":7703,"this":7704,"ĠFani":7705,"ĠEz":7706,"ĠEti":7707,"Ġdoes":7708,"Ġarriv":7709,"Ġuser":7710,"veni":7711,"Ġrelate":7712,"Ġclosed":7713,"Ġservant":7714,"month":7715,"Ġlinks":7716,"ĠJulius":7717,"alentine":7718,"ETTY":7719,"ĠSwitzerland":7720,"%.":7721,"Five":7722,"oros":7723,"Ġtension":7724,"ĠSDF":7725,"ĠBa":7726,"ĠWell":7727,"ishon":7728,"Ġ66":7729,"Ġexplode":7730,"ajide":7731,"ĠAgain":7732,"Ġapostle":7733,"Ġblessing":7734,"ĠEquatorial":7735,"Ġdiabetes":7736,"gers":7737,"imobi":7738,"ĠBern":7739,"ĠKeb":7740,"inees":7741,"ĠGodsw":7742,"ĠTrue":7743,"Ġlandl":7744,"Ġfailure":7745,"Ġethnic":7746,"ĠRohr":7747,"El":7748,"sc":7749,"yal":7750,"Ġporn":7751,"alian":7752,"ĠSix":7753,"Ġtoll":7754,"Ġdisaster":7755,"ĠHope":7756,"ĠEll":7757,"Ġprofile":7758,"Ġapproval":7759,"Ġargument":7760,"77":7761,"Sam":7762,"jure":7763,"Ġwicked":7764,"Ġcoc":7765,"olera":7766,"ĠDar":7767,"Ġrail":7768,"Ġbeer":7769,"ĠEf":7770,"riel":7771,"Ġexport":7772,"Ġyounger":7773,"Ġdiscrim":7774,"ĠTeni":7775,"Ġ2002":7776,"Ġstandard":7777,"Ġharvest":7778,"Ġcustomer":7779,"ĠAdviser":7780,"Ġpop":7781,"ĠSa":7782,"Ġtowards":7783,"ĠTax":7784,"ĠBah":7785,"ĠPict":7786,"ĠEgb":7787,"ĠCost":7788,"allah":7789,"Ġsevent":7790,"ĠMarvel":7791,"Ġconflict":7792,"Ġgovern":7793,"EndSARS":7794,"ĠRamadan":7795,"ĠPrize":7796,"Ġefforts":7797,"ĠFilistia":7798,"ku":7799,"maker":7800,"Ġmoto":7801,"omago":7802,"ĠMTN":7803,"Ġdemself":7804,"Ġkoko":7805,"chie":7806,"Ġgrace":7807,"ĠSharibu":7808,"ĠMonkey":7809,"ambique":7810,"Ġmotherhood":7811,"Kenya":7812,"ced":7813,"ux":7814,"eni":7815,"ĠMend":7816,"ĠOtedola":7817,"ĠBola":7818,"ĠVill":7819,"ortion":7820,"ulf":7821,"ĠStat":7822,"Ġshows":7823,"Ġadop":7824,"oha":7825,"ĠEmeka":7826,"Ġadvantage":7827,"iamond":7828,"96":7829,"NC":7830,"Top":7831,"rey":7832,"Ġfal":7833,"Ġtif":7834,"Ġaid":7835,"Ġaim":7836,"Ġcart":7837,"esl":7838,"Ġram":7839,"ĠBry":7840,"ĠHan":7841,"ĠHeb":7842,"Ġ53":7843,"uga":7844,"ĠImmanuel":7845,"ĠArsene":7846,"ertain":7847,"ference":7848,"Ġspeaker":7849,"ĠAyew":7850,"''.":7851,"etherlands":7852,"ĠStreet":7853,"ĠWashington":7854,"ĠNelson":7855,"ĠAgy":7856,"uno":7857,"isc":7858,"ĠGaga":7859,"enders":7860,"ongo":7861,"Ġresources":7862,"Ġusing":7863,"ĠAdesina":7864,"ĠReps":7865,"Ġdeploy":7866,"ĠGoal":7867,"ijah":7868,"ĠIndependence":7869,"Ġlarge":7870,"ois":7871,"Ġwisdom":7872,"Ġnurse":7873,"seases":7874,"Ġbusinessman":7875,"Ġscam":7876,"Ġoppon":7877,"Ġphones":7878,"Ġkwes":7879,"ĠPriest":7880,"Ġdigital":7881,"ermain":7882,"ĠTaliban":7883,"ĠAfghanistan":7884,"Go":7885,"UT":7886,"atic":7887,"Ġbum":7888,"ĠSab":7889,"Ġhack":7890,"ĠDance":7891,"Ġstick":7892,"Ġkut":7893,"ĠJoh":7894,"Ġreward":7895,"Ġvow":7896,"Ġmanufact":7897,"ĠNair":7898,"Ġworldwide":7899,"Ġpropert":7900,"Ġartistes":7901,"annels":7902,"Ġquickly":7903,"ĠMarket":7904,"innick":7905,"Ġbrutality":7906,"Ju":7907,"Ġfoul":7908,"atu":7909,"ster":7910,"iab":7911,"ĠTai":7912,"Ġyes":7913,"ĠEr":7914,"Ġasylum":7915,"Ġalarm":7916,"ister":7917,"ĠLA":7918,"ensh":7919,"Ġfloor":7920,"ĠMorgan":7921,"ihanna":7922,"Ġoptions":7923,"ĠAdemola":7924,"Ġsale":7925,"idents":7926,"ĠDike":7927,"Ġsaying":7928,"Ġevr":7929,"ĠAbe":7930,"Ġque":7931,"ĠShek":7932,"Ġsmart":7933,"ĠBarrister":7934,"ĠEnvironment":7935,"ĠUNHCR":7936,"Ġconnection":7937,"ĠPatrick":7938,"alyst":7939,"ĠAngeles":7940,"ĠCompany":7941,"ĠShiite":7942,"ĠLimited":7943,"Ġlimit":7944,"ĠMPs":7945,"ĠAntonio":7946,"Ġsoul":7947,"omise":7948,"ĠMam":7949,"Ġlin":7950,"ĠFOR":7951,"isf":7952,"isions":7953,"ĠPop":7954,"ĠGreen":7955,"oses":7956,"antakyi":7957,"ĠChim":7958,"Ġguarant":7959,"ĠCorps":7960,"Ġreactions":7961,"iasia":7962,"ĠMenzgold":7963,"ĠNasarawa":7964,"Ġmaterial":7965,"ĠTemple":7966,"Ġfifth":7967,"ĠMuseveni":7968,"Free":7969,"uiz":7970,"ĠSi":7971,"isu":7972,"otal":7973,"iro":7974,"osal":7975,"agers":7976,"ĠKey":7977,"Ġrecall":7978,"aziz":7979,"Ġrestaur":7980,"Ġtweets":7981,"ĠCriminal":7982,"Ġimmigration":7983,"Ġconstitutional":7984,"ĠStudents":7985,"ledge":7986,"Ġinfections":7987,"Ġcredit":7988,"Ġritual":7989,"gar":7990,"anu":7991,"Ġbird":7992,"Ġmumu":7993,"idu":7994,"ĠMD":7995,"achel":7996,"ĠRef":7997,"Ġpromot":7998,"Ġtribute":7999,"ming":8000,"ĠFM":8001,"Ġentertainment":8002,"ĠTex":8003,"Ġnominees":8004,"Ġinfluence":8005,"ĠChairmo":8006,"omitable":8007,"Ġfain":8008,"ĠSon":8009,"ĠNic":8010,"Ġofisas":8011,"ĠBil":8012,"ĠWhere":8013,"odun":8014,"ĠGw":8015,"forcement":8016,"aban":8017,"orshu":8018,"Ġseed":8019,"Ġtext":8020,"ĠQTMPY":8021,"ĠOscar":8022,"Ġdeadly":8023,"Ġneighbours":8024,"ĠAudio":8025,"Ġbalance":8026,"Ġransom":8027,"Re":8028,"house":8029,"ĠSmall":8030,"ĠNLC":8031,"ĠOh":8032,"aco":8033,"ĠWINNER":8034,"opra":8035,"Ġvenue":8036,"Ġvarious":8037,"Ġunits":8038,"Ġ59":8039,"Ġstarting":8040,"ĠBabat":8041,"Plenti":8042,"Ġlicense":8043,"ĠCHAN":8044,"ziza":8045,"robeat":8046,"Ġpermanent":8047,"76":8048,"ault":8049,"korn":8050,"Ġcattle":8051,"Ġhum":8052,"ĠTour":8053,"ĠFather":8054,"ĠPinnick":8055,"Ġnah":8056,"ĠCamb":8057,"Ġ1000":8058,"Ġupon":8059,"Ġkontinu":8060,"Ġsomet":8061,"Ġsuspended":8062,"ĠNyantakyi":8063,"Ġshoulder":8064,"Ġorganisers":8065,"ĠLawyer":8066,"ĠTexas":8067,"Yu":8068,"kn":8069,"kw":8070,"mago":8071,"rine":8072,"aru":8073,"ications":8074,"ĠMas":8075,"Ġdisplay":8076,"chan":8077,"Ġtrail":8078,"apter":8079,"Ġfighting":8080,"ĠCorpor":8081,"Ġprevious":8082,"Ġapartment":8083,"ĠAjimobi":8084,"Ġtrafficking":8085,"By":8086,"Ġbasket":8087,"emp":8088,"Ġmort":8089,"ĠPopular":8090,"ĠWater":8091,"Ġmethod":8092,"endar":8093,"board":8094,"Ġheadache":8095,"azing":8096,"ĠInstead":8097,"ĠAtletico":8098,"Ġtests":8099,"ĠOmicron":8100,"IDS":8101,"Ġvaccines":8102,"Ġcalc":8103,"chez":8104,"ĠOperation":8105,"ĠNCDC":8106,"ĠEbonyi":8107,"ĠUkrainian":8108,"ĠClinton":8109,"ĠGodswill":8110,"gs":8111,"more":8112,"Ġdif":8113,"Ġdiseases":8114,"Ġhammer":8115,"ĠMot":8116,"oles":8117,"ĠID":8118,"Ġwealth":8119,"Ġnose":8120,"Ġvigil":8121,"ĠProphet":8122,"Ġunless":8123,"Ġarm":8124,"ĠSte":8125,"Ġ600":8126,"Ġactually":8127,"....":8128,"Ġmagomago":8129,"Ġprosecution":8130,"ĠIfeanyi":8131,"ĠBuild":8132,"ĠSur":8133,"ĠSadio":8134,"ĠSiasia":8135,"ĠConc":8136,"ortmund":8137,"Ġvan":8138,"ĠProsec":8139,"Ġsoap":8140,"Ġrulers":8141,"Ġtemper":8142,"opsy":8143,"Ġproducers":8144,"ĠWales":8145,"ĠEmergency":8146,"ulsory":8147,"ĠNairobi":8148,"Ġproperties":8149,".)":8150,"iw":8151,"ĠBoss":8152,"ises":8153,"Ġchamber":8154,"ĠKidn":8155,"umba":8156,"Ġloyal":8157,"ĠMaria":8158,"Ġ72":8159,"sha":8160,"annes":8161,"ĠJones":8162,"ĠProgram":8163,"Ġrequirement":8164,"Ġempower":8165,"cowas":8166,"Ġdarkness":8167,"Ġprincipal":8168,"Ġprosper":8169,"Dia":8170,"Ol":8171,"dat":8172,"ium":8173,"Ġsize":8174,"Ġtools":8175,"Ġhall":8176,"Ġhire":8177,"ĠTiam":8178,"Ġinsecurity":8179,"ĠLes":8180,"Ġ76":8181,"Ġ800":8182,"Ġminority":8183,"Ġguest":8184,"Ġswim":8185,"ĠComoros":8186,"Ġheavyweight":8187,"Ġfighter":8188,"ĠZealand":8189,"bin":8190,"yna":8191,"atto":8192,"star":8193,"ĠMember":8194,"indele":8195,"Ġstudio":8196,"ĠFacebookDe":8197,"Ġlonger":8198,"amoah":8199,"ĠImmigration":8200,"'-":8201,"bear":8202,"nn":8203,"urun":8204,"Ġthirty":8205,"Ġbeef":8206,"ĠGMT":8207,"Ġprish":8208,"Ġant":8209,"Ġunions":8210,"Ġattackers":8211,"ooth":8212,"othy":8213,"Ġinstagram":8214,"billion":8215,"Ġdancing":8216,"owa":8217,"ĠTak":8218,"ĠRoch":8219,"ecca":8220,"avour":8221,"ĠBrig":8222,"469":8223,"ontay":8224,"Ġthroughout":8225,"grade":8226,"Ġswod":8227,"Ġprofet":8228,"Ġtears":8229,"Ġnominations":8230,"Ġvehicles":8231,"ĠReturn":8232,"ĠMozambique":8233,"ĠKebbi":8234,"Bible":8235,"Gu":8236,"vin":8237,"ĠMir":8238,"ĠNetherlands":8239,"ĠValentine":8240,"Ġcomfort":8241,"Ġ120":8242,"istrate":8243,"Ġclinic":8244,"Ġpresidents":8245,"Ġmeetings":8246,"ĠSamson":8247,"Ġdebt":8248,"5311":8249,"Ġmodern":8250,"Manchester":8251,"Ġdelegates":8252,"09":8253,"Ind":8254,"ND":8255,"Sex":8256,"can":8257,"ĠDiamond":8258,"Ġly":8259,"ĠIhe":8260,"ĠLuk":8261,"ĠReb":8262,"ĠInf":8263,"oki":8264,"ĠSharia":8265,"Ġfreeze":8266,"Inter":8267,"ĠJeff":8268,"ĠFunke":8269,"ĠCyril":8270,"ĠCustoms":8271,"Deh":8272,"With":8273,"cars":8274,"tag":8275,"Ġir":8276,"inema":8277,"Ġpose":8278,"union":8279,"ĠCam":8280,"abiri":8281,"ĠRap":8282,"Ġtrick":8283,"ĠInec":8284,"Ġ61":8285,"Ġcondol":8286,"ĠArticle":8287,"ĠWarri":8288,"ĠVictoria":8289,"ĠEmery":8290,"HS":8291,"LE":8292,"ĠMid":8293,"ĠDortmund":8294,"ĠPita":8295,"ĠJazz":8296,"ĠHome":8297,"oka":8298,"antic":8299,"eboy":8300,"Ġ62":8301,"ĠTrad":8302,"Ġcompulsory":8303,"Ġaircraft":8304,"apha":8305,"ĠWilliam":8306,"ĠChukw":8307,"ĠLeader":8308,"ĠMikel":8309,"Ġconstruction":8310,"ĠLGBT":8311,"ĠPrimary":8312,"Ġsettlement":8313,"Bur":8314,"John":8315,"KO":8316,"lol":8317,"oody":8318,"oria":8319,"itude":8320,"icial":8321,"ĠDaddy":8322,"ĠNEMA":8323,"bers":8324,"ĠTHE":8325,"ĠFah":8326,"Ġstones":8327,"uties":8328,"Ġrever":8329,"ĠKal":8330,"Ġmek":8331,"umi":8332,"eath":8333,"Ġplaying":8334,"Ġquiet":8335,"Ġcompound":8336,"ĠIndomitable":8337,"Ġjudges":8338,"ĠExam":8339,"ĠAction":8340,"Ġgrowth":8341,"ĠSchools":8342,"parency":8343,"ĠRevolution":8344,"ĠAdesanya":8345,"ĠTechnology":8346,"ĠTiamiyu":8347,"uo":8348,"Ġporshu":8349,"Ġcode":8350,"Ġhill":8351,"ĠMem":8352,"imir":8353,"apher":8354,"ieber":8355,"Ġgoments":8356,"Ġunity":8357,"ĠYahoo":8358,"oyele":8359,"ailand":8360,"ĠGrande":8361,"Ġfalse":8362,"bol":8363,"iation":8364,"nt":8365,"Ġded":8366,"Ġcows":8367,"Ġmami":8368,"ĠSylv":8369,"ĠIMA":8370,"ĠPogba":8371,"ĠJam":8372,"ĠGreat":8373,"Ġactive":8374,"Ġtravellers":8375,"Ġinstr":8376,"ĠUNICEF":8377,"ĠTransport":8378,"Atiku":8379,"ĠApart":8380,"African":8381,"ĠKwankwaso":8382,"Meet":8383,"MBuhari":8384,"Ġigbo":8385,"Ġtosh":8386,"Ġhook":8387,"ĠMill":8388,"ĠIM":8389,"ĠTog":8390,"ĠFilm":8391,"unte":8392,"ĠUAE":8393,"ized":8394,"ĠĠĠĠĠĠĠĠĠ":8395,"Ġ77":8396,"Ġ78":8397,"Ġbreath":8398,"Ġhealthy":8399,"Ġrecords":8400,"ĠExper":8401,"Ġsubject":8402,"Ġintelligence":8403,"ĠAnybody":8404,"Ġteeth":8405,"Ġdifren":8406,"iqu":8407,"Ġhash":8408,"tha":8409,"igue":8410,"ĠJamm":8411,"ĠLives":8412,"Ġtrillion":8413,"ments":8414,"achers":8415,"Ġused":8416,"ĠSheik":8417,"sharp":8418,"Ġcampus":8419,"ĠBeth":8420,"Ġwonda":8421,"Ġengagement":8422,"ĠDoctors":8423,"ĠDivision":8424,"urunziza":8425,"'m":8426,"Oda":8427,"Ġberi":8428,"Ġcat":8429,"elu":8430,"ĠMath":8431,"ĠNAFDAC":8432,"igar":8433,"unities":8434,"odge":8435,"about":8436,"ĠThank":8437,"Ġpersonnel":8438,"ĠNorway":8439,"ĠSecret":8440,"Ġsouthwest":8441,"umble":8442,"Ġjollof":8443,"oducer":8444,"Ġacademic":8445,"Ġchicken":8446,"Cl":8447,"__":8448,"hn":8449,"Ġfem":8450,"Ġsustain":8451,"Ġaer":8452,"andal":8453,"ĠIC":8454,"ĠTelevision":8455,"Ġdonkey":8456,"ĠOil":8457,"irut":8458,"Ġpipeline":8459,"ĠRihanna":8460,"ifts":8461,"Ġcalled":8462,"ĠTrust":8463,"Ġpoo":8464,"ousands":8465,"Ġsavants":8466,"Ġdiscussion":8467,"Ġscientists":8468,"ĠJenner":8469,"ĠOrtom":8470,"she":8471,"war":8472,"ilation":8473,"ĠIDP":8474,"Ġkids":8475,"ĠJama":8476,"ĠLake":8477,"ocked":8478,"Ġunem":8479,"Ġcards":8480,"Ġarms":8481,"237":8482,"Ġopin":8483,"ĠThey":8484,"Ġoffices":8485,"ĠAmina":8486,"iddy":8487,"Ġvisitors":8488,"Ġeveritin":8489,"ĠMusk":8490,"oyinbo":8491,"holders":8492,"ĠAirlines":8493,"die":8494,"ties":8495,"Ġwestern":8496,"Ġstuff":8497,"ĠWath":8498,"opl":8499,"Ġallege":8500,"ains":8501,"ĠKaz":8502,"Ġherbal":8503,"ĠImam":8504,"president":8505,"Ġmonthly":8506,"Ġkidney":8507,"Ġsolid":8508,"Ġgreatest":8509,"Ġspiritual":8510,"Ġschol":8511,"Ġtreason":8512,"ĠAdeboye":8513,"ĠBafana":8514,"reedom":8515,"Do":8516,"org":8517,"Ġta":8518,"ĠSel":8519,"ĠAP":8520,"ĠFir":8521,"ĠPA":8522,"Ġkil":8523,"Ġwitch":8524,"apore":8525,"ounce":8526,"Ġaddict":8527,"aze":8528,"Ġmilitant":8529,"ĠAndy":8530,"Ġdefensive":8531,"Ġfilms":8532,"ological":8533,"Ġcollabor":8534,"ĠTeaching":8535,"ĠNkurunziza":8536,"Ġsimilar":8537,"Ġakordin":8538,"Ġrenew":8539,"ĠIMAG":8540,"79":8541,"Donald":8542,"RI":8543,"ln":8544,"nal":8545,"erun":8546,"ora":8547,"Ġnarr":8548,"ĠNj":8549,"ĠBul":8550,"ampton":8551,"ĠOlu":8552,"Ġcapacity":8553,"ĠAmericans":8554,"ĠWedding":8555,"Ġhumanitarian":8556,"ĠCommander":8557,"Ġchairmo":8558,"Ġfifty":8559,"ĠAkinwunmi":8560,"Ġarrival":8561,"61":8562,"ĠSn":8563,"epo":8564,"Ġongoing":8565,"Ġknife":8566,"Ġprotet":8567,"Ġfinance":8568,"Ġhighlight":8569,"While":8570,"Ġallowed":8571,"ĠBabajide":8572,"ĠRegional":8573,"Ġfavourite":8574,"ĠSilva":8575,"ĠBobrisky":8576,"ĠBallon":8577,"Ġtypes":8578,"father":8579,"ser":8580,"Ġfinger":8581,"emaya":8582,"itive":8583,"Ġnations":8584,"ĠTank":8585,"ĠOF":8586,"asse":8587,"ĠEze":8588,"ĠCry":8589,"aged":8590,"Ġtakeover":8591,"Ġentire":8592,"aila":8593,"ĠAustralian":8594,"ĠOgoni":8595,"Ġappearance":8596,"Ġmasks":8597,"Ġconvict":8598,"Senator":8599,"Ġmountin":8600,"ĠRotimi":8601,"Bab":8602,"Court":8603,"bas":8604,"cer":8605,"some":8606,"omet":8607,"stant":8608,"uries":8609,"Ġnoise":8610,"acho":8611,"ĠHarv":8612,"Ġprovince":8613,"Ġinteg":8614,"ĠMarkle":8615,"Ġcitizenship":8616,"Arsenal":8617,"ĠKhal":8618,"ĠSquad":8619,"Ġsubsid":8620,"Psalms":8621,"beat":8622,"fire":8623,"ening":8624,"ĠMens":8625,"igi":8626,"Ġnaija":8627,"ĠEC":8628,"ĠCatal":8629,"odies":8630,"ĠKr":8631,"Ġunfortun":8632,"oba":8633,"Ġstren":8634,"idnight":8635,"Ġcondom":8636,"Ġdepression":8637,"Ġ1998":8638,"Ġflooding":8639,"ĠPolic":8640,"ĠFranklin":8641,"ĠHotel":8642,"ĠCommunications":8643,"Ġappreciate":8644,"ĠExamination":8645,"orah":8646,"Ġeduc":8647,"ĠFit":8648,"ĠVlad":8649,"Ġker":8650,"iple":8651,"Ġdeir":8652,"ĠChid":8653,"Ġexplan":8654,"Ġcrude":8655,"ĠSenators":8656,"ĠOnly":8657,"lopp":8658,"Ġsista":8659,"Ġchurches":8660,"Ġactivity":8661,"Ġnegot":8662,"Ġsacrifice":8663,"Ġhydroxychloroquine":8664,"ZA":8665,"ouples":8666,"Ġgifts":8667,"Ġstream":8668,"odie":8669,"ĠGates":8670,"ĠGamb":8671,"ĠHou":8672,"Ġagriculture":8673,"Ġspy":8674,"Ġentry":8675,"elechi":8676,"ĠGovernors":8677,"Ġfootballers":8678,"porary":8679,"Ġtaxi":8680,"ĠIkoyi":8681,"Ġhomosexual":8682,"Ġlicence":8683,"ĠSingapore":8684,"Ġexactly":8685,"Ġevriday":8686,".#":8687,"Ev":8688,"More":8689,"rity":8690,"Ġfaint":8691,"ĠSection":8692,"ĠPak":8693,"ĠStan":8694,"Ġconfident":8695,"ĠBeirut":8696,"Ġbehalf":8697,"Ġescort":8698,"ĠEastern":8699,"Ġeastern":8700,"Ġversion":8701,"Sometimes":8702,"ĠOxford":8703,"ĠJammeh":8704,"Act":8705,"Official":8706,"fred":8707,"Ġsir":8708,"ĠMass":8709,"ĠAven":8710,"ĠTam":8711,"ĠFel":8712,"pper":8713,"Ġshoe":8714,"Ġchat":8715,"ĠAkindele":8716,"Ġparent":8717,"ealous":8718,"ĠMatter":8719,"Ġfasting":8720,"Ġbags":8721,"Instead":8722,"Elect":8723,"Ġbic":8724,"ĠMadu":8725,"ĠAM":8726,"ĠTre":8727,"ĠFero":8728,"ĠBEST":8729,"Ġnails":8730,"Ġdear":8731,"ĠHaz":8732,"ĠLaur":8733,"ĠThailand":8734,"ĠObiano":8735,"ĠMonaco":8736,"Ġaccused":8737,"Ġmarkets":8738,"Ġprofets":8739,"ordinator":8740,"ĠIkeja":8741,"amadol":8742,"Day":8743,"avery":8744,"woman":8745,"Ġpitch":8746,"Ġforms":8747,"Ġ2001":8748,"eti":8749,"bert":8750,"Ġladies":8751,"ĠJr":8752,"ĠRema":8753,"Ġconstituency":8754,"ĠDeontay":8755,"ĠQatar":8756,"ought":8757,"ĠAmae":8758,"Ġsigning":8759,"Ġdesert":8760,"ĠIndex":8761,"igrants":8762,"Ġ1980":8763,"ĠEthiopian":8764,"Ġachievement":8765,"sych":8766,"ĠBabatunde":8767,"ĠAmaechi":8768,"88":8769,"Gr":8770,"Not":8771,"National":8772,"mates":8773,"Ġwun":8774,"Ġhuge":8775,"Ġyong":8776,"ĠHil":8777,"Ġprem":8778,"ĠRabi":8779,"quake":8780,"Ġje":8781,"Ġhappiness":8782,"ĠĠĠĠĠĠĠĠĠĠĠĠĠĠĠ":8783,"Ġcompens":8784,"Ġparade":8785,"What":8786,"Ġlongest":8787,"Ġtennis":8788,"ijab":8789,"Ġscarcity":8790,"ĠVoters":8791,"Ġaspirants":8792,"Ġjunior":8793,"Ġvolunte":8794,"Ġsecessionist":8795,"ĠCambridge":8796,"ez":8797,"Ġess":8798,"embe":8799,"aro":8800,"icago":8801,"ĠGene":8802,"istic":8803,"allenge":8804,"ĠDev":8805,"ĠĠĠĠĠĠĠĠĠĠĠĠĠ":8806,"Ġbeating":8807,"ĠMoney":8808,"Ġitems":8809,"oboam":8810,"Ġknockout":8811,"Ġsatisf":8812,"ĠNobel":8813,"ĠGombe":8814,"Law":8815,"Women":8816,"wan":8817,"Ġfederation":8818,"Ġtel":8819,"Ġbom":8820,"Ġbath":8821,"eli":8822,"ĠMO":8823,"ĠMari":8824,"ĠMiddle":8825,"Ġloud":8826,"ĠBack":8827,"ĠBieber":8828,"ĠCRM":8829,"irds":8830,"ĠJub":8831,"Ġtrut":8832,"umah":8833,"akh":8834,"Ġlog":8835,"Ġ74":8836,"ĠArts":8837,"efo":8838,"ĠDenmark":8839,"Ġcontestants":8840,"Ġsexually":8841,"Ġsurviv":8842,"Ġfacility":8843,"fuoma":8844,"ĠSymptoms":8845,"Con":8846,"Zakzaky":8847,"run":8848,"Ġpound":8849,"ĠSemen":8850,"ĠTask":8851,"Ġdischarge":8852,"ĠWood":8853,"Ġdeat":8854,"ums":8855,"ĠInn":8856,"Ġfamous":8857,"afemi":8858,"Ġcharity":8859,"Ġeveribodi":8860,"Ġkeeper":8861,"standing":8862,"Ġrobot":8863,"ĠSwift":8864,"Ġvehicle":8865,"Jer":8866,"LEA":8867,"RS":8868,"kh":8869,"mes":8870,"Ġmidnight":8871,"Ġng":8872,"Ġnurs":8873,"Ġhorn":8874,"etic":8875,"olowo":8876,"edral":8877,"Ġstamp":8878,"ĠCN":8879,"Ġdisability":8880,"ĠLou":8881,"obey":8882,"Ġbye":8883,"ĠAdeg":8884,"Ġisolation":8885,"ĠAlliance":8886,"ĠIndigenous":8887,"Ġorganiz":8888,"ĠOkon":8889,"castle":8890,"Ġemployment":8891,"ĠTokyo":8892,"banj":8893,"600":8894,"Om":8895,"Real":8896,"ext":8897,"ĠSadi":8898,"icon":8899,"ĠMajor":8900,"Ġrerun":8901,"iling":8902,"ĠCorn":8903,"Ġkreate":8904,"Ġdispl":8905,"Ġchapter":8906,"ĠChancellor":8907,"ĠChicago":8908,"plain":8909,"Ġ71":8910,"anka":8911,"Ġrealise":8912,"ĠBarca":8913,"ACE":8914,"ĠMoshood":8915,"Ġinspire":8916,"ĠPolytechn":8917,"!!!":8918,"Ġkollect":8919,"ĠMallam":8920,"ĠOpposition":8921,"hh":8922,"power":8923,"ĠNEC":8924,"igo":8925,"ĠTonto":8926,"ĠOgbonge":8927,"ĠVP":8928,"ĠHal":8929,"ariat":8930,"ogbo":8931,"Ġtech":8932,"Ġ73":8933,"ĠAirways":8934,"Nobody":8935,"ĠClar":8936,"ĠMoab":8937,"Ġcolleague":8938,"ĠHenry":8939,"ĠMustapha":8940,"Germain":8941,"Sec":8942,"UC":8943,"lings":8944,"rice":8945,"sial":8946,"Ġtaste":8947,"Ġpadi":8948,"Ġcinema":8949,"stal":8950,"ĠMaj":8951,"ĠNap":8952,"ĠTy":8953,"ĠTill":8954,"amanda":8955,"Ġkovenant":8956,"Ġprince":8957,"rewa":8958,"ĠRog":8959,"ivia":8960,"avel":8961,"ĠChima":8962,"Ġarrested":8963,"Ġisland":8964,"Ġflower":8965,"Ġcoast":8966,"Ġinfl":8967,"ĠBaby":8968,"ĠHeadies":8969,"Ġphotogr":8970,"Ġdemonst":8971,"ĠChioma":8972,"ĠWathoni":8973,"Ser":8974,"Ġwosh":8975,"eyond":8976,"2020":8977,"Ġhur":8978,"Ġdiss":8979,"Ġprint":8980,"Ġshey":8981,"ĠUfuoma":8982,"ĠAnt":8983,"Ġafford":8984,"Ġsuit":8985,"Ġevac":8986,"Ġmont":8987,"ogunle":8988,"ĠWhit":8989,"Ġmath":8990,"Ġ68":8991,"Ġ86":8992,"ĠTeachers":8993,"ĠCarl":8994,"ĠAwolowo":8995,"Ġtrees":8996,"ĠAdebayo":8997,"Ġautopsy":8998,"Ġprediction":8999,"Ġlocation":9000,"ĠNamibia":9001,"ĠSahara":9002,"Jos":9003,"KE":9004,"ros":9005,"rite":9006,"Ġpieces":9007,"Ġpapers":9008,"Ġcock":9009,"Ġdemol":9010,"Ġfre":9011,"ĠCamer":9012,"ĠWat":9013,"odele":9014,"osis":9015,"ĠHassan":9016,"ĠRah":9017,"quer":9018,"oking":9019,"Ġleaf":9020,"ĠBiggie":9021,"ontri":9022,"ĠBless":9023,"Ġtenure":9024,"ĠCanad":9025,"ĠAdekunle":9026,"ĠPhilipp":9027,"Ġstakeholders":9028,"ĠIMAGES":9029,"First":9030,"lers":9031,"min":9032,"won":9033,"Ġnid":9034,"ĠDabiri":9035,"imid":9036,"entral":9037,"ĠFeat":9038,"ĠBillion":9039,"otic":9040,"Ġimagine":9041,"Ġregime":9042,"ĠIsh":9043,"ĠCameroonians":9044,"ĠAmidu":9045,"Ġelected":9046,"Ġactivists":9047,"Ġlesson":9048,"Ġangels":9049,"oluwa":9050,"Ġorganisations":9051,"Ġcoffin":9052,"ĠFlorida":9053,"ĠDistrict":9054,"Ġinjection":9055,"ĠProgramme":9056,"Ġaeropl":9057,"ĠHouston":9058,"02":9059,"Egypt":9060,"Te":9061,"WA":9062,"coin":9063,"lma":9064,"rel":9065,"Ġwons":9066,"Ġpiss":9067,"Ġbench":9068,"Ġforty":9069,"ĠSake":9070,"igba":9071,"Ġaside":9072,"ĠKash":9073,"anaan":9074,"Ġadult":9075,"coming":9076,"Ġourself":9077,"reathe":9078,"Ġnotin":9079,"ĠOlub":9080,"Ġmarks":9081,"Ġinvitation":9082,"Ġcomplet":9083,"Ġinsurance":9084,"ĠConference":9085,"MAA":9086,"Ġprocedure":9087,"oa":9088,"Ġwid":9089,"ĠAge":9090,"ĠTs":9091,"asph":9092,"ĠEcowas":9093,"elles":9094,"iang":9095,"Ġbuying":9096,"Ġbusy":9097,"ibu":9098,"gbos":9099,"ĠColonel":9100,"celand":9101,"Ġcritical":9102,"ĠWinter":9103,"ĠShiites":9104,"Ġdiplomatic":9105,"ĠCountry":9106,"ĠRochas":9107,"vy":9108,"wi":9109,"Ġfi":9110,"anacho":9111,"Ġcann":9112,"essed":9113,"ĠSark":9114,"Ġlap":9115,"ĠIh":9116,"ĠBoth":9117,"Ġrece":9118,"ivity":9119,"away":9120,"Ġapproach":9121,"Ġbride":9122,"ĠAriana":9123,"ĠManager":9124,"Ġ150":9125,"Ġobject":9126,"However":9127,"Ġ1992":9128,"Ġnorthwest":9129,"Ġspeaking":9130,"estyle":9131,"Ġambul":9132,"ĠCorporation":9133,"ĠLukaku":9134,"Ġhashtag":9135,"ĠBethel":9136,"Authorities":9137,"Emer":9138,"fall":9139,"las":9140,"Ġdaugh":9141,"Ġhama":9142,"ĠDun":9143,"ĠDoll":9144,"iadom":9145,"Ġliver":9146,"owers":9147,"ĠPost":9148,"eez":9149,"Ġmechan":9150,"akanda":9151,"Ġmining":9152,"respect":9153,"ĠSerie":9154,"uchess":9155,"ĠOmoyele":9156,"Ġapology":9157,"Ġfoundation":9158,"Ġrubb":9159,"Ġengineer":9160,"Ġdemonstration":9161,"Rivers":9162,"oes":9163,"pata":9164,"Ġcouples":9165,"Ġgap":9166,"Ġhole":9167,"etola":9168,"uro":9169,"ĠFaith":9170,"ambo":9171,"ĠBib":9172,"Ġonto":9173,"Ġagg":9174,"Ġresolve":9175,"Ġsperm":9176,"ĠAddo":9177,"Ġrestore":9178,"Ġopportunities":9179,"ĠGunners":9180,"Ġcontroversy":9181,"ĠVolta":9182,"ĠSafety":9183,"BS":9184,"Kayode":9185,"uah":9186,"Ġsote":9187,"Ġcigar":9188,"ared":9189,"ĠOrd":9190,"ĠLate":9191,"ĠUse":9192,"ĠKlopp":9193,"ricane":9194,"ĠAfrobeat":9195,"Ġbroke":9196,"ekan":9197,"ĠArch":9198,"afar":9199,"ĠSanchez":9200,"Ġideas":9201,"ĠNasir":9202,"ĠFatoyinbo":9203,"ĠMerkel":9204,"Ġreverse":9205,"Iv":9206,"Nor":9207,"dy":9208,"Ġnin":9209,"idane":9210,"ĠAU":9211,"eller":9212,"ĠGirl":9213,"ĠGala":9214,"ĠKp":9215,"Ġgetting":9216,"ĠRash":9217,"ecine":9218,"ĠProd":9219,"Ġinterim":9220,"Ġ67":9221,"ĠFront":9222,"Ġeverytin":9223,"afa":9224,"Ġperfect":9225,"Ġproposal":9226,"ĠGuard":9227,"giene":9228,"ĠUzod":9229,"Ġoccup":9230,"ĠChildren":9231,"ĠMensah":9232,"IE":9233,"Par":9234,"Too":9235,"rition":9236,"spe":9237,"orf":9238,"Ġgid":9239,"ĠSoy":9240,"ĠDut":9241,"ĠNab":9242,"ĠIpob":9243,"ĠTacha":9244,"ĠBot":9245,"Ġshirt":9246,"istle":9247,"Ġboast":9248,"ĠKalu":9249,"ĠRay":9250,"Ġjet":9251,"ĠAbbo":9252,"Ġhealthcare":9253,"Ġslavery":9254,"Ġrepresentatives":9255,"ijet":9256,"ATE":9257,"Ġsilver":9258,"Ġviews":9259,"ĠEarlier":9260,"ĠPolitical":9261,"Ġqualifier":9262,"ĠProject":9263,"ĠBuilding":9264,"Ġnegotiate":9265,"Rep":9266,"Sc":9267,"VF":9268,"Winner":9269,"uly":9270,"Ġwives":9271,"Ġbarr":9272,"ĠSep":9273,"edia":9274,"ĠVAR":9275,"witness":9276,"ardo":9277,"Ġ63":9278,"ĠUnit":9279,"ĠForces":9280,"Ġflu":9281,"Ġdistance":9282,"Ġorganize":9283,"Ġteachersone":9284,"ONG":9285,"Ġkwik":9286,"ĠPriv":9287,"Ġsched":9288,"ĠWinner":9289,"ĠRoman":9290,"ĠPerform":9291,"ĠLewis":9292,"case":9293,"yria":9294,"Ġaff":9295,"arus":9296,"ĠMic":9297,"ĠMins":9298,"ĠFreedom":9299,"ateful":9300,"ĠCub":9301,"Ġdisorder":9302,"aken":9303,"Ġposts":9304,".\"\"\"":9305,"ĠMarc":9306,"Ġwarr":9307,"ĠCorruption":9308,"ĠOnye":9309,"ĠOscars":9310,"Ġinspir":9311,"Ġregistered":9312,"Ġprostitute":9313,"Ġzoo":9314,"ĠHelen":9315,"ĠLawyers":9316,"Ġcontroversial":9317,"Ġopinion":9318,"Ġexplanation":9319,"Ġwunjure":9320,"Ġdaughters":9321,"Ge":9322,"bell":9323,"Ġdust":9324,"Ġnort":9325,"ĠDiddy":9326,"ĠCoun":9327,"undesl":9328,"ysis":9329,"plos":9330,"ĠNewcastle":9331,"keepers":9332,"Ġcoaches":9333,"ĠFayemi":9334,"Ġembarr":9335,"ĠStudent":9336,"Ġdesigner":9337,"ĠGabriel":9338,"Ġverse":9339,"ĠAlexander":9340,"ĠOchanya":9341,"ĠCosta":9342,"ĠVladimir":9343,"GETTY":9344,"aq":9345,"hones":9346,"pass":9347,"erri":9348,"Ġbreathe":9349,"Ġlol":9350,"ĠFest":9351,"Ġstories":9352,"agina":9353,"ĠKelechi":9354,"ifo":9355,"Ġhowever":9356,"Ġkillers":9357,"Ġ69":9358,"Ġreported":9359,"Ġvision":9360,"Ġphase":9361,"ĠEko":9362,"ĠAyodele":9363,"Ġpoliceman":9364,"ĠScient":9365,"Ġnegoti":9366,"Ġcultural":9367,"ĠIntelligence":9368,"Ġashawo":9369,"Ġinauguration":9370,"Ġentrepreneur":9371,"undesliga":9372,"lock":9373,"ving":9374,"eran":9375,"Ġpunch":9376,"Ġraiz":9377,"Ġrijet":9378,"ĠIceland":9379,"ĠVeg":9380,"irmed":9381,"roll":9382,"ichi":9383,"roid":9384,"ĠKenyan":9385,"Ġsixth":9386,"esha":9387,"Ġtwelf":9388,"ĠScott":9389,"Ġspokesman":9390,"ĠMansur":9391,"Ġepis":9392,"ĠIheanacho":9393,"Ġsubsidy":9394,"07":9395,"PR":9396,"Sey":9397,"Sabi":9398,"fast":9399,"kins":9400,"mate":9401,"ran":9402,"anib":9403,"Ġwave":9404,"Ġtall":9405,"Ġpump":9406,"Ġauth":9407,"Ġcertain":9408,"ĠSold":9409,"ĠMu":9410,"ĠMom":9411,"ĠDid":9412,"ĠNkr":9413,"iac":9414,"osu":9415,"Ġchances":9416,"abeg":9417,"Ġconvers":9418,"Ġburnt":9419,"Ġpaint":9420,"ĠBiodun":9421,"ĠBoys":9422,"ĠPublicity":9423,"Ġpetroleum":9424,"Ġinstitution":9425,"Ġbasic":9426,"Ġbandits":9427,"ĠSusan":9428,"Ġgarri":9429,"HIS":9430,"south":9431,"Ġnigeria":9432,"Ġhug":9433,"ĠOu":9434,"ĠGad":9435,"osi":9436,"verts":9437,"ĠHur":9438,"Ġanc":9439,"Ġmysef":9440,"ĠMayor":9441,"ĠAbram":9442,"Ġspark":9443,"Ġlegisl":9444,"ĠAllah":9445,"Ġcentury":9446,"ĠAcademic":9447,"Abu":9448,"Res":9449,"yth":9450,"Ġtatto":9451,"Ġsam":9452,"Ġdiarr":9453,"itution":9454,"ido":9455,"ĠAja":9456,"iman":9457,"Ġboku":9458,"ables":9459,"ĠKyl":9460,"Ġeva":9461,"Ġschoolg":9462,"Ġpartial":9463,"ĠAdew":9464,"Ġquote":9465,"eparat":9466,"ĠPremium":9467,"ĠOffa":9468,"Army":9469,"Ġextrad":9470,"ĠArtiste":9471,"ĠBudget":9472,"Best":9473,"ao":9474,"orodu":9475,"ĠDak":9476,"Ġlower":9477,"ĠFeder":9478,"ĠJada":9479,"Ġhersef":9480,"ĠRun":9481,"ĠInitiative":9482,"ibition":9483,"ĠTheat":9484,"ĠShar":9485,"ĠAssyria":9486,"Christ":9487,"ĠOyed":9488,"Ġfloods":9489,"hoea":9490,"Ġintimid":9491,"Ġtariff":9492,"Ġservants":9493,"ĠMahm":9494,"Ġparliamentary":9495,"ĠOfficials":9496,"Ġemotional":9497,"ĠSylvester":9498,"Ben":9499,"Minister":9500,"Up":9501,"Ġcould":9502,"esis":9503,"ittle":9504,"areness":9505,"stan":9506,"Ġlung":9507,"ilee":9508,"ĠBang":9509,"ĠViol":9510,"Ġabus":9511,"Ġcomply":9512,"Ġprotoc":9513,"Ġannual":9514,"Ġpastors":9515,"Ġimprison":9516,"uguese":9517,"Ġaudio":9518,"ĠProtest":9519,"instein":9520,"Ġdiscrimination":9521,"86":9522,"fe":9523,"feed":9524,"rs":9525,"ril":9526,"riss":9527,"two":9528,"Ġbor":9529,"etable":9530,"ĠDuchess":9531,"Ġlagos":9532,"opyright":9533,"Ġadverts":9534,"ĠAlade":9535,"ĠThings":9536,"Ġnotes":9537,"azu":9538,"Ġcoalition":9539,"Ġpickins":9540,"ĠMalaria":9541,"Ġconcerning":9542,"Ġinjuries":9543,"Ġglass":9544,"Plenty":9545,"Ġdemocratic":9546,"Ġgovernance":9547,"ĠTaiwo":9548,"known":9549,"Ġwarrant":9550,"Air":9551,"PF":9552,"host":9553,"Ġmates":9554,"Ġnature":9555,"ĠDav":9556,"ĠTalk":9557,"sect":9558,"ĠWay":9559,"Ġprovid":9560,"Ġwhistle":9561,"abel":9562,"Ġ...":9563,"avo":9564,"ĠChannels":9565,"Ġneeds":9566,"Ġplanning":9567,"Thank":9568,"Ġpositions":9569,"Ġclasses":9570,"enophobic":9571,"Ġracism":9572,"ĠWilson":9573,"Ġaccolades":9574,"Ġunemployment":9575,"Ġnarrate":9576,"ĠRabiu":9577,"Ġrubbish":9578,"fo":9579,"happ":9580,"Ġice":9581,"Ġtired":9582,"Ġbully":9583,"Ġgiant":9584,"Ġhop":9585,"ĠDNA":9586,"ĠNato":9587,"Ġriot":9588,"uson":9589,"agn":9590,"ĠHom":9591,"ĠHus":9592,"Ġcholera":9593,"arden":9594,"Ġspill":9595,"ĠAliko":9596,"auwa":9597,"Ġpalis":9598,"ĠPortuguese":9599,"They":9600,"ixy":9601,"ĠPhoto":9602,"Ġcongress":9603,"ĠMichelle":9604,"Ġdreams":9605,"Ġadopt":9606,"ĠJohannes":9607,"Ġscholars":9608,"80":9609,"JN":9610,"Ġfault":9611,"Ġce":9612,"Ġmic":9613,"Ġmuse":9614,"ayomi":9615,"ĠMimi":9616,"Ġstock":9617,"Ġstead":9618,"ĠVinc":9619,"ĠLater":9620,"ĠLAS":9621,"ĠLinda":9622,"undering":9623,"Ġclient":9624,"areem":9625,"Ġ700":9626,"ichie":9627,"ĠEdochie":9628,"Ġaddiction":9629,"Ġpalm":9630,"Ġassurance":9631,"pha":9632,"ĠJonas":9633,"ĠMagic":9634,"Ġtrowey":9635,"Herdsmen":9636,"ĠMendy":9637,"97":9638,"Russia":9639,"ss":9640,"Ġtings":9641,"inwa":9642,"Ġcope":9643,"urers":9644,"Ġinit":9645,"ĠCole":9646,"ĠJum":9647,"rics":9648,"ĠStorm":9649,"raf":9650,"ĠThousands":9651,"ĠResp":9652,"Ġdirectly":9653,"pora":9654,"Ġokada":9655,"ĠOyetola":9656,"Ġglad":9657,"Ġresignation":9658,"Ġplatforms":9659,"Ġimpeachment":9660,"ĠChimamanda":9661,"asseh":9662,"ĠPakistan":9663,"ĠOyedepo":9664,"Har":9665,"Lion":9666,"Liverpool":9667,"MB":9668,"Port":9669,"UR":9670,"bia":9671,"bian":9672,"xi":9673,"Ġfolo":9674,"Ġtaking":9675,"itis":9676,"ĠSound":9677,"ĠSlam":9678,"ĠAwa":9679,"ĠValley":9680,"ĠCopy":9681,"ĠWine":9682,"ĠHart":9683,"ĠHaj":9684,"Ġanalyst":9685,"ĠKid":9686,"ĠCho":9687,"oga":9688,"pected":9689,"Ġdownload":9690,"Ġmenstr":9691,"ustrial":9692,"ertiary":9693,"ĠActress":9694,"Ġroof":9695,"ĠMinaj":9696,"ĠTimothy":9697,"ĠCapital":9698,"Ġscorer":9699,"East":9700,"Jose":9701,"WIT":9702,"gen":9703,"jud":9704,"Ġcous":9705,"ĠSag":9706,"ĠDa":9707,"ĠNad":9708,"igb":9709,"ĠTO":9710,"ĠFab":9711,"ĠEph":9712,"ĠCall":9713,"ĠWE":9714,"cean":9715,"Ġpassion":9716,"ocation":9717,"Ġknowledge":9718,"jaer":9719,"Ġbroad":9720,"Ġopress":9721,"ĠArmed":9722,"Ġstretch":9723,"Ġconfusion":9724,"Ġpersons":9725,"Ġ95":9726,"fully":9727,"Ġfarmer":9728,"resp":9729,"UST":9730,"NGR":9731,"ĠNeo":9732,"Ġkolobi":9733,"ĠTraf":9734,"Ġgunshot":9735,"800":9736,"Erewa":9737,"Person":9738,"cu":9739,"cious":9740,"jah":9741,"ker":9742,"uate":9743,"uise":9744,"inue":9745,"ĠSociety":9746,"imp":9747,"ingham":9748,"ĠOoni":9749,"Ġyawa":9750,"ĠBat":9751,"Ġshit":9752,"Ġvent":9753,"appers":9754,"Ġupgrade":9755,"Ġfruits":9756,"iverse":9757,"ouss":9758,"ĠOsaka":9759,"Ġterritory":9760,"Three":9761,"Ġproph":9762,"Ġinterested":9763,"Ġangry":9764,"Ġfacilities":9765,"Ġcreative":9766,"Ġwuruwuru":9767,"ĠEntertainment":9768,"Ġtrailer":9769,"Ġintegrity":9770,"Ġbicycle":9771,"ĠNkrumah":9772,"cell":9773,"Ġbodies":9774,"owl":9775,"ĠON":9776,"Ġsays":9777,"ĠPRO":9778,"ĠEp":9779,"ĠCAN":9780,"Ġdisobey":9781,"Ġshange":9782,"ending":9783,"iece":9784,"Ġevict":9785,"Ġreading":9786,"Ġusual":9787,"enses":9788,"ificate":9789,"ĠBez":9790,"ĠSaleh":9791,"Ġpresence":9792,"Ġalongside":9793,"Ġrumours":9794,"Ġearthquake":9795,"ĠLatest":9796,"Ġpurpose":9797,"Ġetc":9798,"ĠSteve":9799,"ĠBibixy":9800,"WITTER":9801,"TS":9802,"cott":9803,"hour":9804,"hall":9805,"iences":9806,"vis":9807,"ware":9808,"onna":9809,"Ġnative":9810,"ĠSk":9811,"ĠFR":9812,"ĠOdas":9813,"agraph":9814,"assing":9815,"abu":9816,"Ġwomb":9817,"apped":9818,"ĠZidane":9819,"Ġ81":9820,"Ġentertain":9821,"rika":9822,"boyega":9823,"Ġqualification":9824,"Chief":9825,"Ġselfie":9826,"Ġrecovery":9827,"ĠAppiah":9828,"Ġchiefs":9829,"ĠlinkRead":9830,"lementary":9831,"ĠShareView":9832,"Ġqualifiers":9833,"ĠConstitutional":9834,"ĠCandidate":9835,"Ġbriefing":9836,"Ġkerewa":9837,"ĠBlessing":9838,"During":9839,"Ms":9840,"good":9841,"kg":9842,"inated":9843,"Ġgut":9844,"ĠMTV":9845,"Ġrange":9846,"ĠCass":9847,"Ġkourt":9848,"ĠGive":9849,"Ġchill":9850,"ĠKanaan":9851,"ĠRome":9852,"onye":9853,"Ġstruct":9854,"ĠAden":9855,"Ġquit":9856,"ĠSouthampton":9857,"amba":9858,"ĠOsag":9859,"ĠBlues":9860,"Ġinspect":9861,"ĠLawan":9862,"Ġmotiv":9863,"ĠBook":9864,"Ġtwin":9865,"Ġsanction":9866,"Isaya":9867,"Ġneighbouring":9868,"ĠFAAN":9869,"Ġmassive":9870,"ĠKyiv":9871,"Ġfunds":9872,"Ġcompetitions":9873,"Ġkwesion":9874,"asphemy":9875,"Emerick":9876,"ĠCubana":9877,"400":9878,"Ear":9879,"Jerem":9880,"night":9881,"Ġlaf":9882,"Ġloved":9883,"ĠTor":9884,"ĠFashion":9885,"Ġinsect":9886,"lead":9887,"ĠHop":9888,"Ġchannel":9889,"ĠRos":9890,"ĠStam":9891,"afe":9892,"Ġhotels":9893,"ĠProfet":9894,"Ġrepresentative":9895,"Ġseats":9896,"gasm":9897,"Ġwildaness":9898,"ĠNapoli":9899,"ĠTheatre":9900,"ĠJohannesburg":9901,"Rev":9902,"iya":9903,"inations":9904,"Ġauthor":9905,"ĠSA":9906,"ĠAAC":9907,"iland":9908,"ĠVen":9909,"chelles":9910,"oso":9911,"ĠList":9912,"ogb":9913,"Ġaccred":9914,"angida":9915,"Ġparagraph":9916,"Ġtheirself":9917,"Ġbelief":9918,"ĠAgriculture":9919,"Ġsomtin":9920,"Ġsides":9921,"Ġstorey":9922,"AA":9923,"IR":9924,"Local":9925,"rac":9926,"inbo":9927,"Ġbeyond":9928,"Ġcant":9929,"ĠNation":9930,"Ġrates":9931,"imba":9932,"ĠTw":9933,"ĠJoint":9934,"ĠHann":9935,"Ġchain":9936,"ikt":9937,"ĠStory":9938,"Ġquench":9939,"Ġolder":9940,"ĠHezek":9941,"Ġassets":9942,"Ġsalaries":9943,"Ġalbums":9944,"Ġcalendar":9945,"Ġmiles":9946,"Ġgenerate":9947,"ĠKumasi":9948,"ĠVerde":9949,"Ġlandlord":9950,"ĠTogoland":9951,"89":9952,"Brit":9953,"Co":9954,"Ġult":9955,"Ġward":9956,"itsha":9957,"ĠSher":9958,"Ġrom":9959,"iak":9960,"sein":9961,"sequ":9962,"ĠBit":9963,"ĠBass":9964,"ĠPot":9965,"istry":9966,"Ġvanish":9967,"Ġdrown":9968,"ĠChange":9969,"woy":9970,"angel":9971,"angers":9972,"anking":9973,"ĠInvestigation":9974,"Ġstudies":9975,"Ġretirement":9976,"ĠChristop":9977,"ĠSerge":9978,"END":9979,"Ġmotion":9980,"Ġvalid":9981,"ĠOdion":9982,"Ġcopyright":9983,"Ġcommander":9984,"juana":9985,"Davido":9986,"Ġpenis":9987,"Ġpremier":9988,"Ġguarantee":9989,"ĠProsecutor":9990,"Ġaeroplane":9991,"Mon":9992,"fi":9993,"heart":9994,"official":9995,"pikin":9996,"papa":9997,"rane":9998,"Ġwata":9999,"Ġrather":10000,"ĠCir":10001,"ĠGy":10002,"ĠGian":10003,"Ġabortion":10004,"witch":10005,"okp":10006,"Ġregard":10007,"Ġheads":10008,"ements":10009,"azy":10010,"Ġinfo":10011,"ĠOmo":10012,"Ġdrinks":10013,"Ġmanagers":10014,"Ġshocking":10015,"build":10016,"Ġpersonality":10017,"Amb":10018,"operate":10019,"ĠVegas":10020,"Rufai":10021,"ks":10022,"wear":10023,"wise":10024,"Ġbid":10025,"Ġod":10026,"olf":10027,"igbe":10028,"otas":10029,"Ġdece":10030,"usu":10031,"ĠLet":10032,"ĠLamp":10033,"ĠUber":10034,"ĠRuiz":10035,"ĠChyna":10036,"Ġkilled":10037,"ĠStation":10038,"ebe":10039,"Ġleading":10040,"Ġcomplex":10041,"neth":10042,"egan":10043,"Ġrelocate":10044,"ĠAccount":10045,"Ġallowance":10046,"Chelsea":10047,"Ġthroway":10048,"Ġscarce":10049,"Ġlucky":10050,"News":10051,"ĠFreeze":10052,"ĠSantos":10053,"Ġmortuary":10054,"Ġgidigba":10055,"84":10056,"Copyright":10057,"LO":10058,"Ph":10059,"free":10060,"rog":10061,"Ġfulf":10062,"Ġpool":10063,"emoney":10064,"Ġmakers":10065,"Ġnice":10066,"ĠMuna":10067,"ĠDM":10068,"ĠDer":10069,"ĠDick":10070,"iment":10071,"ĠFox":10072,"ĠOv":10073,"Ġther":10074,"ĠBong":10075,"ĠGent":10076,"Ġchart":10077,"Ġtrace":10078,"apy":10079,"ansion":10080,"Ġusually":10081,"Ġcollection":10082,"Ġleta":10083,"uchi":10084,"Ġadviser":10085,"Ġproceed":10086,"Ġmagic":10087,"Ġextension":10088,"ĠOfficial":10089,"Ġcheating":10090,"ĠPerformance":10091,"ĠTrafford":10092,"Kaduna":10093,"Of":10094,"Out":10095,"Zimbabwe":10096,"follow":10097,"emat":10098,"Ġoath":10099,"ĠDoz":10100,"ideon":10101,"Ġll":10102,"ĠFake":10103,"edu":10104,"ĠPil":10105,"ĠCertificate":10106,"ĠGH":10107,"ĠGer":10108,"osite":10109,"oving":10110,"ustin":10111,"Ġtransl":10112,"Ġ79":10113,"ĠAdichie":10114,"ĠManasseh":10115,"perly":10116,"Ġministerial":10117,"Ġcommitted":10118,"Ġwonderful":10119,"Ġprosecutor":10120,"ĠCalabar":10121,"ĠDominic":10122,"Ġmultiple":10123,"beaten":10124,"speaking":10125,"Abuja":10126,"ĠStamford":10127,"Eb":10128,"huru":10129,"lines":10130,"yi":10131,"yard":10132,"Ġele":10133,"ĠNPP":10134,"Ġlions":10135,"ĠOge":10136,"ĠBou":10137,"ĠCa":10138,"ĠGFA":10139,"ĠLord":10140,"ears":10141,"ĠRoll":10142,"Ġmeh":10143,"Ġexit":10144,"ĠChile":10145,"Ġknee":10146,"Ġfirm":10147,"Ġadults":10148,"ĠZion":10149,"ĠForm":10150,"boe":10151,"Ġoverall":10152,"Ġwriting":10153,"engui":10154,"uji":10155,"Ġprivacy":10156,"Ġintention":10157,"Ġestate":10158,"ĠANC":10159,"ĠPST":10160,"Ġadjust":10161,"ĠRecords":10162,"Ġpotential":10163,"Ġfilling":10164,"Ġcells":10165,"Madam":10166,"ĠModric":10167,"Ġolive":10168,"Ġmandate":10169,"ĠJazzy":10170,"anibaj":10171,"Ġsteady":10172,"Jeremaya":10173,"gal":10174,"lets":10175,"Ġq":10176,"ono":10177,"Ġmash":10178,"alysis":10179,"ican":10180,"ĠDele":10181,"ĠDSP":10182,"ĠIll":10183,"ĠBundesliga":10184,"ĠEdom":10185,"Ġdisrespect":10186,"Ġreh":10187,"ĠLockdown":10188,"ribody":10189,"ĠYellow":10190,"Ġworks":10191,"Ġclin":10192,"ĠUnity":10193,"Ġ1960":10194,"Ġsmugg":10195,"Ġwrapper":10196,"Ġwarm":10197,"Ġinvestors":10198,"ĠDrogba":10199,"Ġupdates":10200,"ĠExplos":10201,"Ġsubstit":10202,"Ġlanguages":10203,"ĠIreland":10204,"Ġawareness":10205,"United":10206,"urrency":10207,"Ġjolli":10208,"ĠMaina":10209,"Ġapologize":10210,"Governor":10211,"ĠCNN":10212,"ĠCanadian":10213,"ĠVincent":10214,"Comm":10215,"Ug":10216,"cal":10217,"lies":10218,"rough":10219,"Ġbike":10220,"ĠNeb":10221,"eds":10222,"ĠJa":10223,"endu":10224,"herit":10225,"Ġrepublic":10226,"Ġ87":10227,"ĠSheeran":10228,"Ġsmooth":10229,"Ġendure":10230,"Ġassess":10231,"Ġcampaigns":10232,"ĠLegend":10233,"Ġpresenter":10234,"oshima":10235,"urray":10236,"Senegal":10237,"asheed":10238,"ĠRodr":10239,"ĠMcCain":10240,"hon":10241,"vieve":10242,"eno":10243,"Ġment":10244,"Ġhell":10245,"ĠMou":10246,"ĠDram":10247,"ĠFavour":10248,"ĠPH":10249,"ĠPay":10250,"ĠEaster":10251,"osing":10252,"Ġvac":10253,"ummy":10254,"Ġapps":10255,"ĠStand":10256,"ĠAbike":10257,"overbs":10258,"Ġstrange":10259,"Ġtrying":10260,"Ġsignal":10261,"Ġnationals":10262,"ĠBarack":10263,"ĠPartey":10264,"malik":10265,"Ġpolicies":10266,"Ġexcuse":10267,"Ġimmunity":10268,"ĠAND":10269,"Ġprosecute":10270,"ĠOwerri":10271,"Government":10272,"ĠConfederation":10273,"Ġgunshots":10274,"Joshua":10275,"ĠUzodinma":10276,"Ġimprisonment":10277,"Bissau":10278,"non":10279,"nashon":10280,"Ġfert":10281,"Ġwakar":10282,"Ġbump":10283,"ĠMMM":10284,"ĠNdi":10285,"ĠTake":10286,"amed":10287,"Ġstrict":10288,"isers":10289,"terling":10290,"ership":10291,"Ġdrones":10292,"tah":10293,"ĠYar":10294,"achir":10295,"Ġnewly":10296,"ehinde":10297,"ĠElectric":10298,"Ġrelated":10299,"Ġemir":10300,"ĠSalisu":10301,"Ġnominee":10302,"ihad":10303,"ĠGrammys":10304,"Ġinfected":10305,"ĠCampbell":10306,"ĠAshanti":10307,"ĠCaptain":10308,"ĠConduct":10309,"ĠOzil":10310,"Ġrestaurant":10311,"ĠPolytechnic":10312,"lmao":10313,"95":10314,"cond":10315,"zie":10316,"Ġfourt":10317,"Ġsect":10318,"Ġpe":10319,"alode":10320,"iciary":10321,"ĠAda":10322,"ĠFace":10323,"ĠPent":10324,"ĠCas":10325,"Ġweb":10326,"ĠHill":10327,"ĠRita":10328,"ived":10329,"okovic":10330,"ikon":10331,"Ġtalking":10332,"ooney":10333,"ĠShogunle":10334,"Ġpermit":10335,"ĠAmazon":10336,"ĠBiggy":10337,"aniel":10338,"Ġconcerned":10339,"Ġnortheast":10340,"ĠConvention":10341,"ĠBurnley":10342,"Ġcommunication":10343,"ĠNDLEA":10344,"BOOK":10345,"ĠAlhassan":10346,"Ġmobil":10347,"alloween":10348,"ĠDespite":10349,"ĠHelp":10350,"Ġcombat":10351,"ACEBOOK":10352,"ĠSarkodie":10353,"ĠSoyinka":10354,"ĠResponse":10355,"Mor":10356,"Will":10357,"fish":10358,"Ġbot":10359,"Ġca":10360,"Ġcame":10361,"itical":10362,"arak":10363,"thur":10364,"ĠDana":10365,"adona":10366,"ĠEve":10367,"utral":10368,"ĠHO":10369,"ĠHear":10370,"upid":10371,"appe":10372,"uhan":10373,"ĠAbbas":10374,"Ġinternal":10375,"Ġaddition":10376,"ĠSenatorial":10377,"ernot":10378,"ĠBenz":10379,"Ġcaps":10380,"Ġcamps":10381,"ĠElba":10382,"ĠBabangida":10383,"ASUU":10384,"ĠNnaji":10385,"ĠFalana":10386,"ĠYaounde":10387,"ĠIgbalode":10388,"ĠJeho":10389,"Ġkorrect":10390,"FIFA":10391,"ĠPictures":10392,"ĠOsagie":10393,"cee":10394,"gio":10395,"lete":10396,"vid":10397,"Ġwing":10398,"inter":10399,"Ġnone":10400,"ando":10401,"ĠIVF":10402,"Ġpret":10403,"Ġtruly":10404,"Ġgrab":10405,"Ġresur":10406,"Ġspray":10407,"prof":10408,"Ġ84":10409,"ilead":10410,"ĠLeon":10411,"Ġsmuggle":10412,"Ġcollege":10413,"Ġprisoner":10414,"ĠElijah":10415,"Ġseasons":10416,"ĠPorto":10417,"ĠSeed":10418,"Ġdistribute":10419,"Ġinvade":10420,"ĠAhab":10421,"Ġ1997":10422,"ĠOffset":10423,"Ġambush":10424,"ĠAbdulmalik":10425,"ĠNext":10426,"ĠBoxing":10427,"Ġsotei":10428,"Sal":10429,"cy":10430,"name":10431,"point":10432,"Ġicon":10433,"ered":10434,"Ġpish":10435,"Ġbirds":10436,"emeter":10437,"ĠSU":10438,"ĠNgan":10439,"berry":10440,"Ġroot":10441,"Ġdemselves":10442,"lease":10443,"ĠRaw":10444,"Ġjazz":10445,"ĠIss":10446,"asha":10447,"Ġconfirmed":10448,"ĠMancho":10449,"Ġcondoms":10450,"ĠPlace":10451,"Ġassign":10452,"Them":10453,"Ġslaves":10454,"ĠActor":10455,"iyan":10456,"Ġprofit":10457,"Ġbabies":10458,"Ġsurvey":10459,"ĠScot":10460,"Ġinteresting":10461,"ĠSolsk":10462,"Ġassistance":10463,"Ġsilence":10464,"ĠMaryam":10465,"ĠCampaign":10466,"ĠCCTV":10467,"ĠShekau":10468,"ĠCrystal":10469,"Ġcompensation":10470,"Ġconversation":10471,"Revolution":10472,"BE":10473,"Bay":10474,"IPOB":10475,"JC":10476,"ront":10477,"zani":10478,"anj":10479,"ĠSAN":10480,"Ġtoler":10481,"igawa":10482,"imony":10483,"ĠIl":10484,"Ġgoats":10485,"ingers":10486,"ĠBra":10487,"Ġability":10488,"Ġtrump":10489,"Ġexpr":10490,"Ġsoot":10491,"ariot":10492,"ĠLevel":10493,"Ġbackground":10494,"fuli":10495,"ernity":10496,"ĠĠĠĠĠĠĠĠĠĠĠĠĠĠĠĠĠĠĠ":10497,"ĠSev":10498,"ĠTolanibaj":10499,"Ġrefin":10500,"Ġrefund":10501,"ĠOyibo":10502,"ĠReds":10503,"ternative":10504,"salm":10505,"ĠSeyi":10506,"oducers":10507,"ĠEllen":10508,"Ġvigilante":10509,"Ġinflation":10510,"Ġepisode":10511,"Job":10512,"uja":10513,"wife":10514,"Ġsources":10515,"Ġbound":10516,"ĠTik":10517,"acked":10518,"ĠCulture":10519,"Ġcoma":10520,"ĠWalk":10521,"Ġshape":10522,"ARD":10523,"ĠKareem":10524,"ĠRaj":10525,"Ġjealous":10526,"Ġunbeaten":10527,"aha":10528,"ĠĠĠĠĠĠĠĠĠĠĠĠĠĠ":10529,"anced":10530,"Ġrecession":10531,"ĠEminem":10532,"ĠAmaju":10533,"ĠBlue":10534,"ĠIndones":10535,"rats":10536,"Ġ250":10537,"Ġoperatives":10538,"Ġvillagers":10539,"Ġsharperly":10540,"fraim":10541,"Ġimmigrants":10542,"Ġhomes":10543,"ĠGunmen":10544,"Ġgenerator":10545,"ĠSeychelles":10546,"Ġoyibo":10547,"ĠSummit":10548,"Ġrevenge":10549,"Ġlinked":10550,"Gen":10551,"Men":10552,"tey":10553,"Ġdos":10554,"Ġpad":10555,"itary":10556,"iding":10557,"ĠBag":10558,"ĠWuhan":10559,"ĠGernot":10560,"agon":10561,"Ġprior":10562,"ĠUhuru":10563,"rea":10564,"Ġunasef":10565,"okada":10566,"Ġcarpet":10567,"uben":10568,"Ġboycott":10569,"ĠZel":10570,"Ġstrateg":10571,"airo":10572,"ĠObafemi":10573,"Ġdefin":10574,"Ġelectronic":10575,"Ġlaundering":10576,"ĠEngine":10577,"ĠCenter":10578,"IVE":10579,"Ġkloud":10580,"Ġconvoy":10581,"Ġjollificate":10582,"ĠSexual":10583,"ĠDjokovic":10584,"WCON":10585,"ĠHarvey":10586,"ĠKashamu":10587,"ĠChristopher":10588,"93":10589,"DM":10590,"Mi":10591,"Your":10592,"har":10593,"li":10594,"Ġdancer":10595,"Ġdiet":10596,"ĠMatch":10597,"ĠFern":10598,"ĠVirgin":10599,"ĠEke":10600,"ĠGiadom":10601,"Ġreunion":10602,"ĠHauwa":10603,"ĠKay":10604,"Ġgrateful":10605,"Ġaccidents":10606,"ĠMarriage":10607,"Ġtransform":10608,"Ġincome":10609,"ĠEmployment":10610,"ĠSeries":10611,"Ġsalute":10612,"Ġconspir":10613,"rible":10614,"Ġthanks":10615,"uppy":10616,"utiny":10617,"Ġlowest":10618,"Ġmelecine":10619,"Ġphysically":10620,"Ġrebels":10621,"ĠBolt":10622,"Ġsongwriter":10623,"ĠKeyamo":10624,"ĠTanko":10625,"Ġunfortunate":10626,"Ġscholarship":10627,"Ġdeceased":10628,"CE":10629,"Sah":10630,"_)":10631,"Ġtape":10632,"Ġsout":10633,"Ġpet":10634,"Ġpaid":10635,"Ġpsych":10636,"enne":10637,"esy":10638,"Ġmothers":10639,"oming":10640,"ĠSterling":10641,"ĠMKO":10642,"ĠIra":10643,"ĠTamb":10644,"ĠTotal":10645,"adia":10646,"ĠPu":10647,"ĠCJN":10648,"Ġkause":10649,"ĠLangu":10650,"Ġvois":10651,"ably":10652,"ĠKo":10653,"ĠKond":10654,"Ġregain":10655,"Ġeffective":10656,"gae":10657,"Ġlooking":10658,"Ġoldest":10659,"Ġthroat":10660,"TAG":10661,"Ġapproved":10662,"ochie":10663,"Ġobser":10664,"ĠEarth":10665,"Ġracist":10666,"Ġsekond":10667,"ĠRebecca":10668,"ĠOnyeama":10669,"Ġbottle":10670,"ĠSolskjaer":10671,"300":10672,"IF":10673,"Mich":10674,"fine":10675,"gian":10676,"gov":10677,"guson":10678,"hand":10679,"oire":10680,"vant":10681,"erberg":10682,"Ġtaya":10683,"Ġsem":10684,"ĠSand":10685,"ĠSala":10686,"ĠMA":10687,"ĠBuff":10688,"ĠVee":10689,"chat":10690,"orian":10691,"Ġtra":10692,"ĠSton":10693,"inistries":10694,"izer":10695,"Ġ89":10696,"Ġgoverning":10697,"Ġheader":10698,"ĠIdent":10699,"Ġrelatives":10700,"ĠOsin":10701,"Ġthought":10702,"ĠEuro":10703,"Ġfailed":10704,"ĠBanky":10705,"Ġtwice":10706,"ylon":10707,"Ġsanitiz":10708,"ĠIsaak":10709,"ĠTransparency":10710,"ĠApapa":10711,"Ġbleaching":10712,"Ġmonkeypox":10713,"Ġteenager":10714,"corruption":10715,"ĠAthlet":10716,"ĠMonkeypox":10717,"ĠHussein":10718,"ĠSeedorf":10719,"PS":10720,"WE":10721,"ales":10722,"icians":10723,"ĠMut":10724,"ĠMillion":10725,"Ġanoint":10726,"Ġtrag":10727,"quare":10728,"Ġorgasm":10729,"ongry":10730,"ebwoy":10731,"Ġretail":10732,"ospel":10733,"Ġearn":10734,"Ġhonest":10735,"ĠSeun":10736,"ĠMovie":10737,"America":10738,"ĠMagufuli":10739,"Ġaccusation":10740,"Ġcircumc":10741,"Ġbasketball":10742,"Ġeleven":10743,"Other":10744,"hel":10745,"lar":10746,"Ġdiziz":10747,"Ġpig":10748,"ĠSid":10749,"them":10750,"ĠMub":10751,"ĠMont":10752,"acar":10753,"Ġsheet":10754,"Ġconstant":10755,"Ġfacebook":10756,"apem":10757,"riate":10758,"endum":10759,"ueze":10760,"Ġdating":10761,"ĠAdet":10762,"ĠAku":10763,"uki":10764,"ĠAngela":10765,"ĠIslamist":10766,"ĠIkorodu":10767,"ĠBrazilian":10768,"ĠDeborah":10769,"iterrane":10770,"itchen":10771,"ĠNicki":10772,"Ġschoolgirls":10773,"iterranean":10774,"Dey":10775,"Deb":10776,"JA":10777,"VE":10778,"gate":10779,"rufai":10780,"Ġbatch":10781,"Ġmood":10782,"Ġtold":10783,"ĠNBA":10784,"Ġrural":10785,"ĠTutu":10786,"ĠBeat":10787,"oder":10788,"operation":10789,"Ġshiddon":10790,"Ġexh":10791,"ĠKane":10792,"ĠAsa":10793,"Ġ99":10794,"Ġovertake":10795,"lesh":10796,"afia":10797,"Ġtheme":10798,"Ġmainly":10799,"Ġslay":10800,"Ġpainting":10801,"Ġ1995":10802,"ĠOmoz":10803,"ĠEdward":10804,"ĠIgon":10805,"ithole":10806,"ĠKorean":10807,"ĠDooshima":10808,"Ġmigrant":10809,"ĠMcG":10810,"ĠMbappe":10811,"Ġtourism":10812,"urtala":10813,"Ġoyinbo":10814,"Ġcartoon":10815,"Jerusalem":10816,"Ġcockroach":10817,"Ġdiarrhoea":10818,"ĠFederer":10819,"ĠViolence":10820,"ĠBezos":10821,"AIDS":10822,"Je":10823,"Kw":10824,"Woman":10825,"nar":10826,"rape":10827,"ruction":10828,"tell":10829,"wer":10830,"Ġmari":10831,"arthe":10832,"ĠSul":10833,"ician":10834,"icious":10835,"ĠDifferent":10836,"ĠNs":10837,"isolate":10838,"ĠUk":10839,"Ġboot":10840,"Ġneutral":10841,"Ġabd":10842,"aven":10843,"arisee":10844,"Ġ82":10845,"Ġacts":10846,"Ġcourts":10847,"Ġbigger":10848,"Ġretweet":10849,"Ġlegit":10850,"Ġvexnashon":10851,"ĠElon":10852,"Ġsharing":10853,"ĠConstituency":10854,"Ġmayor":10855,"Ġhygiene":10856,"True":10857,"Ġdelivery":10858,"Ġfunding":10859,"Ġcategories":10860,"ĠNetwork":10861,"lawful":10862,"ĠCelebr":10863,"Ġpremiere":10864,"Ġrevolution":10865,"ĠBrighton":10866,"Burkina":10867,"Ġinitial":10868,"Ġcousin":10869,"artheid":10870,"?\"\"":10871,"Mal":10872,"burn":10873,"fake":10874,"hin":10875,"Ġsort":10876,"Ġswitch":10877,"ĠMurtala":10878,"ĠNu":10879,"ĠNom":10880,"imhen":10881,"ĠIle":10882,"ĠBody":10883,"ĠCBT":10884,"ellite":10885,"ĠWel":10886,"ocod":10887,"ĠRose":10888,"ĠStop":10889,"ĠAbayomi":10890,"Ġenforcement":10891,"ultural":10892,"izz":10893,"ossible":10894,"Ġcenter":10895,"Ġsalt":10896,"Ġadvocate":10897,"ĠTolulope":10898,"ungu":10899,"nywood":10900,"Ġimpress":10901,"Ġaudit":10902,"edioha":10903,"ropol":10904,"Ġbleach":10905,"Ġdisappointed":10906,"Ġdevil":10907,"Ġscratch":10908,"Ġamendment":10909,"ĠSabat":10910,"ĠRoger":10911,"ĠOrder":10912,"Baba":10913,"DI":10914,"makers":10915,"pto":10916,"Ġfib":10917,"enga":10918,"emask":10919,"Ġhia":10920,"stances":10921,"ĠMade":10922,"ĠNight":10923,"Ġrope":10924,"ĠFollow":10925,"ĠBET":10926,"adow":10927,"ĠEL":10928,"ĠJigawa":10929,"ĠGilead":10930,"ĠHa":10931,"ĠHo":10932,"ĠHip":10933,"ĠKend":10934,"ĠKron":10935,"okuta":10936,"merce":10937,"ĠKannywood":10938,"ĠMarse":10939,"aduate":10940,"embley":10941,"Ġselling":10942,"Ġbreakdown":10943,"Ġsites":10944,"Ġwaiting":10945,"swana":10946,"Ġviolate":10947,"Ġfriendship":10948,"ĠDiri":10949,"ĠPoloo":10950,"Ġadminist":10951,"ĠWarning":10952,"Ġshopping":10953,"imbas":10954,"Ġlikes":10955,"ĠHappy":10956,"ĠSupport":10957,"ĠAtlantic":10958,"Ġcraiy":10959,"Ġnurses":10960,"ĠClarence":10961,"ĠCounty":10962,"Ag":10963,"Eng":10964,"Ronaldo":10965,"mor":10966,"Ġomo":10967,"Ġmimbas":10968,"Ġgan":10969,"andy":10970,"ĠMi":10971,"ĠMav":10972,"ĠNavy":10973,"ĠFall":10974,"ĠWembley":10975,"Ġ110":10976,"agb":10977,"ĠKnow":10978,"rez":10979,"ĠRyan":10980,"Ġtimetable":10981,"Ġlogo":10982,"hew":10983,"Ġblasphemy":10984,"Ġreporters":10985,"Ġ88":10986,"afoot":10987,"Ġreleased":10988,"ĠIslands":10989,"ĠOnitsha":10990,"Ġartwork":10991,"Ġcontainer":10992,"ICE":10993,"Young":10994,"bled":10995,"Ġrecognize":10996,"Ġdelegate":10997,"ĠCoachella":10998,"Ġtraffickers":10999,"ĠAguero":11000,"Ġhumans":11001,"ĠDidier":11002,"emetery":11003,"ĠStonebwoy":11004,"\"-":11005,"66":11006,"Bikos":11007,"not":11008,"oala":11009,"pesin":11010,"poo":11011,"su":11012,"emor":11013,"ĠSinger":11014,"stein":11015,"ĠTed":11016,"ĠTob":11017,"ĠBreak":11018,"ĠLittle":11019,"iane":11020,"ĠReh":11021,"ecafoot":11022,"Ġworried":11023,"arib":11024,"Ġroutes":11025,"Ġtransmission":11026,"ampson":11027,"ĠArena":11028,"ĠBloom":11029,"Ġinstall":11030,"Ġseventh":11031,"razy":11032,"Ġpageant":11033,"Ġkommit":11034,"Ġfunction":11035,"Ġfacemask":11036,"ĠBorussia":11037,"ĠOwusu":11038,"ĠNunoo":11039,"Ġcoffee":11040,"ĠFerguson":11041,"International":11042,"ĠWhitemoney":11043,"ĠIhedioha":11044,"ĠFestus":11045,"Ġmuseum":11046,"ĠIgonikon":11047,",'":11048,"85":11049,"Rob":11050,"Virus":11051,"des":11052,"merson":11053,"yemi":11054,"ayer":11055,"Ġhumble":11056,"ĠNav":11057,"Ġroles":11058,"ĠBoub":11059,"Ġ105":11060,"istory":11061,"ĠLong":11062,"ĠKovenant":11063,"ĠRape":11064,"umer":11065,"ĠPromise":11066,"awei":11067,"Ġseen":11068,"ĠUnai":11069,"ĠUniverse":11070,"weep":11071,"weala":11072,"Ġdefect":11073,"ĠAccess":11074,"Ġasset":11075,"ĠSean":11076,"Ġdirective":11077,"essional":11078,"ĠBoat":11079,"Ġrising":11080,"ĠNdidi":11081,"Ġdisciple":11082,"ĠKarina":11083,"Ġcounsel":11084,"ĠJournalists":11085,"Ġathlete":11086,"ĠTechnical":11087,"ĠPeters":11088,"ĠCandidates":11089,"Ġmasturb":11090,"ĠHousing":11091,"ĠCarlos":11092,"Ġmarijuana":11093,"bye":11094,"mn":11095,"Ġdoti":11096,"Ġswell":11097,"Ġnashon":11098,"ĠSP":11099,"Ġhip":11100,"Ġhijab":11101,"Ġhongry":11102,"ĠMother":11103,"ĠDias":11104,"ĠDeath":11105,"unu":11106,"ĠEg":11107,"ARA":11108,"Ġamebo":11109,"ocide":11110,"ikles":11111,"apping":11112,"Ġmedals":11113,"ebi":11114,"Ġclick":11115,"rises":11116,"athon":11117,"pret":11118,"Ġsupposed":11119,"zech":11120,"Ġskill":11121,"Ġdeals":11122,"Ġ1996":11123,"Ġdrinking":11124,"ĠAbdel":11125,"ermanent":11126,"ĠMediterranean":11127,"ĠMagazine":11128,"Ġtemporary":11129,"Ġthreats":11130,"Ġ1986":11131,"Ġtotally":11132,"Ġreferendum":11133,"ĠAdesua":11134,"ĠLouis":11135,"ĠDickson":11136,"Ġqw":11137,"ĠScotland":11138,"ĠKronikles":11139,"Dec":11140,"ech":11141,"iu":11142,"Ġid":11143,"Ġfift":11144,"Ġwire":11145,"eyi":11146,"Ġdiam":11147,"Ġdiagn":11148,"aran":11149,"Ġnick":11150,"ĠSeparat":11151,"idou":11152,"ĠMaster":11153,"ĠNAS":11154,"ĠAK":11155,"enter":11156,"ĠTiger":11157,"ĠOre":11158,"Ġinherit":11159,"adise":11160,"ĠPink":11161,"ĠPerry":11162,"ĠEfraim":11163,"ĠCat":11164,"ĠGay":11165,"ĠGospel":11166,"ĠHalloween":11167,"ĠLie":11168,"ĠKontri":11169,"ostles":11170,"Ġju":11171,"orsement":11172,"ĠPres":11173,"ĠYaba":11174,"Ġmeanwhile":11175,"oft":11176,"Ġestimate":11177,"alyt":11178,"ĠTurk":11179,"Ġengineers":11180,"ĠKumbo":11181,"Ġdogs":11182,"Ġfoolish":11183,"Ġqueue":11184,"ĠSevilla":11185,"bel":11186,"cles":11187,"fun":11188,"iye":11189,"mel":11190,"pur":11191,"Ġfo":11192,"Ġfel":11193,"Ġpm":11194,"esar":11195,"Ġghost":11196,"arch":11197,"ĠSaid":11198,"Ġhaving":11199,"ĠTek":11200,"ĠTunde":11201,"ĠFuture":11202,"ĠPen":11203,"ĠPsalm":11204,"Ġplate":11205,"abal":11206,"ĠKas":11207,"ĠRo":11208,"action":11209,"Ġsoja":11210,"Ġbro":11211,"Ġclients":11212,"Ġseeing":11213,"ĠThose":11214,"ĠEmmys":11215,"ĠAmmon":11216,"Ġcooperate":11217,"Ġkorna":11218,"Ġsenatorial":11219,"ĠOsimhen":11220,"Ġarticle":11221,"Ġslang":11222,"ĠEkw":11223,"ĠOgund":11224,"Ġsoutheast":11225,"ĠMaurit":11226,"Ġ1970":11227,"Ġaudience":11228,"ĠCathedral":11229,"Ġmountain":11230,"Ġbasis":11231,"Ġacademy":11232,"Instagram":11233,"Ġmosquitoes":11234,"ĠSuleiman":11235,"NCDC":11236,"ĠGenevieve":11237,"Ġfixt":11238,"Ġoccupy":11239,"ĠIraq":11240,"Rec":11241,"know":11242,"rence":11243,"trick":11244,"Ġing":11245,"Ġduties":11246,"Ġbatter":11247,"Ġcake":11248,"Ġmine":11249,"ouda":11250,"itely":11251,"Ġgal":11252,"ĠNike":11253,"ĠNHIS":11254,"iago":11255,"ĠTest":11256,"ĠBuck":11257,"ĠCos":11258,"ĠCast":11259,"ĠCome":11260,"ours":11261,"ĠKon":11262,"Ġtrit":11263,"iven":11264,"ĠProducer":11265,"Ġdrone":11266,"ĠDeh":11267,"ensus":11268,"ĠOlad":11269,"Ġfarms":11270,"ĠKenneth":11271,"Ġobodo":11272,"Prince":11273,"Ġstandards":11274,"Ġsales":11275,"China":11276,"Ġblackmail":11277,"Ġdemands":11278,"ĠNwachukwu":11279,"Ġambition":11280,"ĠSquare":11281,"Ġrequirements":11282,"ĠBulg":11283,"ENDSARS":11284,"BU":11285,"CL":11286,"Fl":11287,"Jud":11288,"MC":11289,"VP":11290,"bishop":11291,"ien":11292,"jan":11293,"oning":11294,"Ġtap":11295,"Ġdict":11296,"ĠDal":11297,"ĠDas":11298,"ĠIbe":11299,"Ġinitiative":11300,"unni":11301,"ĠBaw":11302,"ĠBobi":11303,"Ġbeings":11304,"ĠVogue":11305,"ĠPunch":11306,"ĠEazi":11307,"ĠCopa":11308,"Ġkitchen":11309,"ĠWord":11310,"utation":11311,"ĠHere":11312,"Ġanger":11313,"rees":11314,"ĠRest":11315,"umo":11316,"actions":11317,"ĠLagosians":11318,"Ġkontrol":11319,"athers":11320,"ashes":11321,"ĠBruno":11322,"Ġ91":11323,"Ġtestimony":11324,"ĠPlus":11325,"Ġsolo":11326,"ĠReporter":11327,"Ġfaithful":11328,"ĠCarol":11329,"idiot":11330,"ĠJoel":11331,"ĠUmaru":11332,"ĠAdeyeye":11333,"Ġblogger":11334,"Ġopponent":11335,"ĠNicolas":11336,"abanako":11337,"opraiz":11338,"Ġtemperature":11339,"Ġdemolish":11340,"ĠPhilippines":11341,"ĠProduct":11342,"ematics":11343,"Nn":11344,"OC":11345,"bet":11346,"kom":11347,"onn":11348,"Ġfowl":11349,"Ġpit":11350,"Ġpowers":11351,"Ġcas":11352,"araya":11353,"ĠNE":11354,"ĠOle":11355,"ĠPermanent":11356,"leaf":11357,"lewed":11358,"ipt":11359,"ĠGyan":11360,"ĠGboyega":11361,"ĠKi":11362,"ĠKad":11363,"ĠKachukwu":11364,"ovich":11365,"ĠRaila":11366,"Ġjihad":11367,"Ġexec":11368,"Naira":11369,"Ġupload":11370,"ĠChallenge":11371,"Ġcargo":11372,"ĠSteven":11373,"ĠAboub":11374,"ĠAded":11375,"Ġpolio":11376,"ĠSha":11377,"Ġwarri":11378,"uale":11379,"Ġeyewitness":11380,"Ġyorsef":11381,"Ġprogrammes":11382,"Challa":11383,"PoliceNG":11384,"ijing":11385,"ĠKeita":11386,"ĠAgbor":11387,"Ġdelegation":11388,"ĠMuseum":11389,"Ġmiracle":11390,"Ġcomfortable":11391,"ĠFireboy":11392,"ĠWatford":11393,"ython":11394,"ĠDakolo":11395,"ĠBongben":11396,"Ġdiamond":11397,"lewedim":11398,"83":11399,"Apart":11400,"Cr":11401,"TO":11402,"YA":11403,"lass":11404,"nest":11405,"Ġflesh":11406,"Ġsweep":11407,"Ġge":11408,"ĠMurray":11409,"ĠDari":11410,"ĠAston":11411,"owu":11412,"ĠWy":11413,"ĠWage":11414,"utical":11415,"Ġamazing":11416,"fori":11417,"ĠKir":11418,"ĠRuga":11419,"oster":11420,"Ġjack":11421,"ĠPraise":11422,"ĠAnalyt":11423,"Ġupcoming":11424,"ĠChika":11425,"udo":11426,"Ġbutch":11427,"Ġmonies":11428,"ĠNaz":11429,"Ġattitude":11430,"ĠAlm":11431,"Ġcrush":11432,"neum":11433,"Ġdecisions":11434,"Ġrelevant":11435,"elfare":11436,"rative":11437,"Ġpopularly":11438,"Ġpainful":11439,"ĠExcell":11440,"Ġsistas":11441,"ĠBabachir":11442,"Ġhistor":11443,"Ġdetect":11444,"Ġimmune":11445,"ĠUsifo":11446,"Ġbedroom":11447,"ĠPhilip":11448,"ĠLebanese":11449,"ĠDogara":11450,"ĠLuis":11451,"Ġpreparation":11452,"Judah":11453,"ĠMembers":11454,"Ġcondolences":11455,"ĠFeaturing":11456,"ĠPrivate":11457,"Ġexpression":11458,"(@":11459,"**":11460,"65":11461,"Ay":11462,"AFCON":11463,"Social":11464,"found":11465,"gment":11466,"hy":11467,"hou":11468,"Ġtail":11469,"Ġsample":11470,"Ġbaff":11471,"ĠSime":11472,"ander":11473,"throw":11474,"urdi":11475,"ĠAustin":11476,"ĠToy":11477,"ĠFa":11478,"utors":11479,"ĠHad":11480,"Ġboo":11481,"Ġvishon":11482,"Ġtheat":11483,"Ġunt":11484,"Ġlef":11485,"Ġwins":11486,"ĠAlb":11487,"iversal":11488,"Ġteaching":11489,"ĠHeavy":11490,"Ife":11491,"Ġexpo":11492,"ĠDirect":11493,"ĠHeadquarters":11494,"ĠKamaru":11495,"ervative":11496,"ĠRepresentative":11497,"Ġoccasion":11498,"Ġbranches":11499,"ĠLamido":11500,"ĠAgainst":11501,"Ġcocaine":11502,"Ġstrenjas":11503,"ĠTillerson":11504,"Ġcompletely":11505,"Ġmechanic":11506,"Net":11507,"Well":11508,"baba":11509,"date":11510,"lisher":11511,"nassing":11512,"Ġsopraiz":11513,"Ġgiving":11514,"ĠSoph":11515,"ĠSky":11516,"anded":11517,"ĠNon":11518,"ĠATM":11519,"ĠTuk":11520,"ĠTigr":11521,"ĠVAT":11522,"isory":11523,"Ġnail":11524,"ĠCoc":11525,"Ġdisin":11526,"Ġfame":11527,"ĠForest":11528,"ĠArem":11529,"ommod":11530,"ĠEmmerson":11531,"Ġbelt":11532,"ĠBlood":11533,"Ġcommitment":11534,"Ġmoves":11535,"imals":11536,"Ġtribes":11537,"Ġcardiac":11538,"Ġmistakes":11539,"Ġwaist":11540,"ĠOjukwu":11541,"iable":11542,"Ġsometime":11543,"ĠBotswana":11544,"Ġconspiracy":11545,"Brazil":11546,"eva":11547,"sen":11548,"atai":11549,"Ġmighty":11550,"ĠSall":11551,"Ġdonation":11552,"ĠPete":11553,"ĠErit":11554,"ĠWole":11555,"ĠJide":11556,"ĠJong":11557,"ĠHong":11558,"ĠKola":11559,"umia":11560,"ĠYul":11561,"oola":11562,"woof":11563,"ĠStall":11564,"ĠAba":11565,"Ġ83":11566,"Ġadditional":11567,"ĠManaging":11568,"ensic":11569,"Ġwrest":11570,"Ġendorse":11571,"ERS":11572,"ERAP":11573,"Ġhighly":11574,"Ġhighway":11575,"ĠWeinstein":11576,"ĠIndustry":11577,"Ġevriwia":11578,"Ġmissile":11579,"ĠBeijing":11580,"Ġpharm":11581,"iyefa":11582,"Ġharsh":11583,"ĠMedicine":11584,"Ġsystems":11585,"Ġdebut":11586,"Ġpolls":11587,"Ġexclusive":11588,"Ġprevention":11589,"ĠOshoala":11590,"Ġpenalties":11591,"ĠPatrice":11592,"urgen":11593,"Ġlitre":11594,"Osun":11595,"ĠUTME":11596,"Ġscientist":11597,"ĠOluwat":11598,"ĠCommunication":11599,"Ġsongwriters":11600,"ĠGreek":11601,"ĠGreece":11602,"Ġcalculate":11603,"ĠDuncan":11604,"Ġembarrass":11605,"ĠScientists":11606,"ĠAjax":11607,"Ġbumper":11608,"ĠRawlings":11609,"ĠLanguage":11610,"67":11611,"??":11612,"RU":11613,"Sierra":11614,"mama":11615,"etti":11616,"ĠBased":11617,"isat":11618,"Ġfrustr":11619,"ĠCID":11620,"outube":11621,"aceutical":11622,"Ġvia":11623,"Ġvagina":11624,"areth":11625,"ĠZuck":11626,"ĠTrain":11627,"Ġfollowed":11628,"ensions":11629,"ĠOnu":11630,"Ġoppose":11631,"Ġinstance":11632,"Ġoperators":11633,"Ġlearning":11634,"Ġreflect":11635,"itius":11636,"ĠMagistrate":11637,"Ġkidnappings":11638,"ĠRamoni":11639,"Ġillegally":11640,"ĠNwosu":11641,"Ġemerge":11642,"Ġapplicants":11643,"ĠSyria":11644,"parent":11645,"Ġinfluenc":11646,"ĠDogboe":11647,"Barcelona":11648,"Ġkampe":11649,"ĠKomla":11650,"ĠChidinma":11651,"ĠDollar":11652,"George":11653,"ĠMauritania":11654,"?'":11655,"Can":11656,"EM":11657,"Min":11658,"Mess":11659,"nigeria":11660,"oj":11661,"Ġwat":11662,"eyaw":11663,"Ġbacter":11664,"Ġforg":11665,"ĠSegun":11666,"ĠMegan":11667,"ĠDet":11668,"ĠDave":11669,"ĠOAU":11670,"asing":11671,"ĠPR":11672,"ĠCzech":11673,"ĠGas":11674,"Ġmeg":11675,"riotic":11676,"ĠYamoah":11677,"Ġregul":11678,"ogan":11679,"Ġcontribution":11680,"iba":11681,"Ġthinking":11682,"Ġimportation":11683,"Ġdistribution":11684,"why":11685,"arrest":11686,"Ġeleph":11687,"regor":11688,"ATION":11689,"Ġgbos":11690,"COVID":11691,"ĠMetropol":11692,"Ġkountries":11693,"ĠJapanese":11694,"Ġparticularly":11695,"slide":11696,"Ġbitter":11697,"ĠPolicy":11698,"Ġlogistics":11699,"Uganda":11700,"PN":11701,"Sweet":11702,"Where":11703,"rance":11704,"Ġflex":11705,"Ġnep":11706,"ĠMefo":11707,"ĠNlewedim":11708,"Ġrig":11709,"imbled":11710,"Ġlamb":11711,"sei":11712,"ĠFlight":11713,"ĠCitiz":11714,"chendu":11715,"usa":11716,"agle":11717,"ĠLaz":11718,"Ġwhats":11719,"ĠKem":11720,"ĠKel":11721,"reensh":11722,"oves":11723,"Ġjew":11724,"Ġkontinue":11725,"Ġaccommod":11726,"Ġscandal":11727,"Ġcruise":11728,"encia":11729,"Ġremix":11730,"ĠToke":11731,"Ġretired":11732,"ĠSamaria":11733,"strong":11734,"ĠSecondus":11735,"ĠSiria":11736,"Ġairlines":11737,"ĠKumba":11738,"ĠTems":11739,"lusion":11740,"Ġspokesperson":11741,"ĠBasic":11742,"Ġaccolade":11743,"Ġtonight":11744,"ĠFahim":11745,"Ġcollaboration":11746,"Baby":11747,"ĠIndonesia":11748,"ĠDiaspora":11749,"Ġingred":11750,"imbledon":11751,"cycle":11752,"Ġcable":11753,"Ġ2050":11754,"ĠMes":11755,"oly":11756,"olid":11757,"ĠAMAA":11758,"Ġlux":11759,"ilag":11760,"ĠFol":11761,"Ġstupid":11762,"Ġ101":11763,"Ġplac":11764,"ĠRh":11765,"ĠRound":11766,"ĠRuth":11767,"ansh":11768,"Ġkneel":11769,"Ġpesins":11770,"ĠAdama":11771,"ĠLev":11772,"Ġconfront":11773,"Ġreleg":11774,"ĠResources":11775,"inson":11776,"ĠEgyptian":11777,"Ġhits":11778,"Ġtempt":11779,"Ġfastest":11780,"uwal":11781,"ĠStudy":11782,"ĠDesign":11783,"Ekiti":11784,"Ġopponents":11785,"ĠAvengers":11786,"ĠHazard":11787,"ĠAdegoke":11788,"Ġaccreditation":11789,"Ġsubstitute":11790,"neumonia":11791,"63":11792,"Ap":11793,"Des":11794,"kay":11795,"wal":11796,"wich":11797,"Ġda":11798,"Ġsup":11799,"inity":11800,"oua":11801,"araki":11802,"elo":11803,"urer":11804,"ĠDip":11805,"ĠOfori":11806,"Ġya":11807,"ĠEug":11808,"ĠWimbledon":11809,"Ġ106":11810,"term":11811,"Ġamnesty":11812,"Ġplants":11813,"Ġunknown":11814,"okoro":11815,"Ġseal":11816,"ollof":11817,"ĠLeeds":11818,"mann":11819,"ĠAsaba":11820,"Ġreconc":11821,"Ġshortage":11822,"ĠOlus":11823,"ambi":11824,"Ġtestify":11825,"ĠInterior":11826,"ĠEli":11827,"ĠGovt":11828,"eshon":11829,"Ġconsent":11830,"ĠWillie":11831,"iamila":11832,"Ġgenocide":11833,"ĠMinority":11834,"Ġprostitution":11835,"ĠCrime":11836,"Ġ1983":11837,"Ġswearing":11838,"Ġcelebrations":11839,"ĠReports":11840,"ĠBonny":11841,"Samuel":11842,"Ġpounds":11843,"Ġambulance":11844,"ĠZelens":11845,"ĠDasuki":11846,"CF":11847,"Edo":11848,"Nig":11849,"OP":11850,"Say":11851,"Str":11852,"bor":11853,"eing":11854,"god":11855,"ring":11856,"rade":11857,"Ġbon":11858,"ĠDI":11859,"ĠBir":11860,"Ġstig":11861,"Ġkway":11862,"Ġdisag":11863,"oser":11864,"estine":11865,"Ġanalysis":11866,"Ġbuh":11867,"ĠStone":11868,"Ġenforce":11869,"abib":11870,"ĠDisney":11871,"resh":11872,"Ġopposite":11873,"ĠDiezani":11874,"ĠPlat":11875,"ĠSeiyefa":11876,"arko":11877,"Ġapostles":11878,"Ġ1989":11879,"ĠIII":11880,"Ġlimited":11881,"Ġfootage":11882,"Ġextrem":11883,"Ġsuddenly":11884,"Ġcraze":11885,"achelor":11886,"ĠHurricane":11887,"ĠHezekaya":11888,"ĠOgechi":11889,"ĠBoubacar":11890,"ĠZuckerberg":11891,"Don":11892,"Federal":11893,"Peter":11894,"TR":11895,"bul":11896,"caster":11897,"had":11898,"onom":11899,"Ġfeet":11900,"Ġpall":11901,"Ġcemetery":11902,"iona":11903,"ĠDC":11904,"ĠFad":11905,"uni":11906,"Ġbeans":11907,"otti":11908,"ĠCuppy":11909,"irect":11910,"ĠHak":11911,"ĠHuss":11912,"Ġprec":11913,"ĠLad":11914,"Ġbanned":11915,"Ġplot":11916,"iveness":11917,"obile":11918,"place":11919,"ĠWhitt":11920,"ĠAlbert":11921,"Ġincense":11922,"ĠThen":11923,"enson":11924,"Ġrunway":11925,"ĠOnce":11926,"ĠOnochie":11927,"ĠDiego":11928,"ĠAllen":11929,"ĠSergio":11930,"Ġcurtain":11931,"Ġpopularity":11932,"Ġexpand":11933,"Ġaviation":11934,"Ġsuperv":11935,"ĠBillboard":11936,"Ġrecognition":11937,"ĠEzekiel":11938,"Brother":11939,"Senate":11940,"putee":11941,"Ġtaskforce":11942,"Ġmuscle":11943,"zzar":11944,"ĠDumor":11945,"ĠHuawei":11946,"Ġantib":11947,"ĠInnov":11948,"Ġlaptop":11949,"xiety":11950,"respond":11951,"ĠNuhu":11952,"ocodile":11953,"ĠTurkish":11954,"ĠAboubakar":11955,"ĠWhittaker":11956,"Bad":11957,"Offic":11958,"Wit":11959,"bit":11960,"eign":11961,"mun":11962,"word":11963,"Ġsaw":11964,"Ġforced":11965,"Ġmud":11966,"Ġmax":11967,"Ġgent":11968,"ĠSkin":11969,"Ġhonga":11970,"idays":11971,"ĠNA":11972,"ĠCS":11973,"odalo":11974,"ĠHalf":11975,"Ġpls":11976,"ĠKer":11977,"ĠKehinde":11978,"Ġpata":11979,"Ġunlawful":11980,"Ġgrind":11981,"Ġregulate":11982,"Ġeffects":11983,"Ġroute":11984,"Ġbloody":11985,"ĠZeb":11986,"Ġ93":11987,"opulation":11988,"aitious":11989,"Ġsweat":11990,"Ġfarming":11991,"Ġrelationships":11992,"Ġdriving":11993,"Ġtrials":11994,"uguay":11995,"ĠRedeem":11996,"Ġsuperhero":11997,"ĠEsau":11998,"Ġurge":11999,"ĠJoab":12000,"ĠJackie":12001,"ĠMakinwa":12002,"ĠDomestic":12003,"ĠTakor":12004,"Ġinstrument":12005,"Ġvolunteer":12006,"ĠOkonjo":12007,"ĠDutch":12008,"ĠHannah":12009,"British":12010,"ĠMubarak":12011,"ĠBoateng":12012,"ĠTigray":12013,"73":12014,"Aisha":12015,"Com":12016,"LA":12017,"Liber":12018,"Ng":12019,"SONG":12020,"rian":12021,"orima":12022,"Ġced":12023,"Ġmoral":12024,"ĠSin":12025,"stance":12026,"ĠMuk":12027,"Ġled":12028,"Ġyam":12029,"ĠBissau":12030,"adne":12031,"ĠVan":12032,"ĠGideon":12033,"ches":12034,"Ġconsequ":12035,"anah":12036,"ueke":12037,"Ġarch":12038,"Ġshowcase":12039,"Ġoutcome":12040,"ĠArthur":12041,"ĠLeoc":12042,"Ġcorpers":12043,"Ġcompared":12044,"Ġdiscl":12045,"ĠMinisterial":12046,"Ġflat":12047,"ĠGrades":12048,"Ġletters":12049,"AND":12050,"ouncill":12051,"ĠActiv":12052,"Ġadvance":12053,"ĠSalv":12054,"ĠParents":12055,"Ġdefending":12056,"ĠCOZA":12057,"ĠMahrez":12058,"clone":12059,"Ġexpressway":12060,"ĠOkechukwu":12061,"ĠKingsley":12062,"Ġpartnership":12063,"Ġlifestyle":12064,"ĠHousem":12065,"azizi":12066,"ĠAPGA":12067,"Ġsurvivors":12068,"Ġorganizers":12069,"Ġcannot":12070,"69":12071,"Kim":12072,"Miss":12073,"Sudan":12074,"five":12075,"race":12076,"zig":12077,"orun":12078,"Ġwuna":12079,"Ġtertiary":12080,"Ġsight":12081,"Ġpill":12082,"ĠSS":12083,"ĠDear":12084,"ĠNou":12085,"ĠNBC":12086,"ĠAudu":12087,"ĠAWCON":12088,"ĠTabanako":12089,"atever":12090,"ĠPac":12091,"usive":12092,"agbo":12093,"abiamila":12094,"ĠRoss":12095,"Ġorph":12096,"Ġregulation":12097,"Ġintervention":12098,"ekun":12099,"ĠInvestig":12100,"Ġoverthrow":12101,"ĠEmmy":12102,"emba":12103,"ĠResult":12104,"Ġcontinu":12105,"ĠTennis":12106,"Ġhoney":12107,"Ġcollation":12108,"enez":12109,"Ġunderstanding":12110,"ĠContin":12111,"Ġterminal":12112,"Ġbreastfeed":12113,"!!!!":12114,"ĠEvans":12115,"Ġchampionship":12116,"Blog":12117,"Abd":12118,"Ġequality":12119,"Ġpostpon":12120,"Ġtrucks":12121,"Ġpenarity":12122,"ĠLatin":12123,"ĠJamaica":12124,"ĠFelix":12125,"Ġdisplaced":12126,"Ġbarracks":12127,"Ġtranslate":12128,"Ġpishure":12129,"Ġrelegation":12130,"adnezzar":12131,"87":12132,"Human":12133,"NUST":12134,"TI":12135,"nr":12136,"people":12137,"Ġfare":12138,"inside":12139,"eyard":12140,"esse":12141,"Ġgown":12142,"ĠDown":12143,"ĠNini":12144,"ĠADC":12145,"imated":12146,"ĠTell":12147,"unty":12148,"ĠWife":12149,"ĠGnassing":12150,"lying":12151,"Ġshots":12152,"ĠUyo":12153,"Ġvend":12154,"ĠYe":12155,"Ġorda":12156,"ĠStill":12157,"ugs":12158,"ĠZak":12159,"ashi":12160,"ĠObio":12161,"Ġretain":12162,"Ġ180":12163,"Afcon":12164,"ĠColomb":12165,"ĠJudicial":12166,"SCE":12167,"clip":12168,"Ġmeasles":12169,"ĠMakurdi":12170,"ĠSuicide":12171,"ĠWorks":12172,"Ġbleed":12173,"ĠAdeyemi":12174,"Ġoverseer":12175,"iworima":12176,"ĠSemeniworima":12177,"ĠSoldiers":12178,"ĠSimeon":12179,"Ġkwayet":12180,"Bank":12181,"Ed":12182,"Jo":12183,"La":12184,"Queen":12185,"Small":12186,"juju":12187,"Ġ|":12188,"eru":12189,"Ġtomat":12190,"Ġpause":12191,"Ġforensic":12192,"ĠMur":12193,"asure":12194,"ĠPa":12195,"iry":12196,"ĠJar":12197,"ĠHud":12198,"asters":12199,"ustration":12200,"Ġpath":12201,"Ġattach":12202,"ĠMarsh":12203,"ajabiamila":12204,"bean":12205,"Ġbreach":12206,"Ġsingles":12207,"ĠElrufai":12208,"eshion":12209,"ĠJeremaya":12210,"Ġinjured":12211,"Ġtwist":12212,"ozie":12213,"iodun":12214,"clusive":12215,"Ġsuperstar":12216,"ĠMauritius":12217,"Ġsymp":12218,"ĠLiman":12219,"ĠHonour":12220,"Ġmetres":12221,"ĠDrugs":12222,"ĠCypr":12223,"ĠUruguay":12224,"ĠStatistics":12225,"Ġhighlights":12226,"ĠGambino":12227,"ĠElectricity":12228,"Ġtolerate":12229,"ĠKondengui":12230,"ĠLeocadia":12231,"clipse":12232,"DR":12233,"Later":12234,"UP":12235,"grees":12236,"yor":12237,"Ġom":12238,"Ġdy":12239,"Ġsink":12240,"Ġforb":12241,"Ġrough":12242,"ĠFriend":12243,"ĠBle":12244,"ĠBichi":12245,"ĠJurgen":12246,"Ġshariot":12247,"Ġchose":12248,"Ġvirt":12249,"Ġanxiety":12250,"abas":12251,"Ġdoors":12252,"ĠRey":12253,"ĠRapper":12254,"Ġgrades":12255,"ĠChampion":12256,"ĠSurviv":12257,"Ġmature":12258,"ĠIssa":12259,"ĠShia":12260,"velation":12261,"Ġcoordinator":12262,"atoranking":12263,"Ġreturning":12264,"Ġtributes":12265,"Ġnormally":12266,"ĠMelania":12267,"Ġapplications":12268,"ĠAjayi":12269,"Ġyabis":12270,"Ġbenefits":12271,"attack":12272,"GOS":12273,"ĠRecently":12274,"Ġlabor":12275,"ĠEarly":12276,"Ġcosm":12277,"ĠCyrus":12278,"Ġmaths":12279,"ĠGuardian":12280,"Ġancest":12281,"ĠKylie":12282,"ĠBitcoin":12283,"ĠDrama":12284,"ĠZelensky":12285,"DSS":12286,"Ethiop":12287,"Four":12288,"Gun":12289,"Rem":12290,"TZ":12291,"join":12292,"mb":12293,"will":12294,"Ġdodge":12295,"Ġwelfare":12296,"Ġbounce":12297,"Ġmap":12298,"ouf":12299,"Ġhike":12300,"ĠMkh":12301,"ĠICC":12302,"ĠFecafoot":12303,"ĠOti":12304,"ĠBush":12305,"asy":12306,"ĠEgu":12307,"ipzig":12308,"irai":12309,"ĠJersey":12310,"lyn":12311,"Ġchaw":12312,"Ġwheel":12313,"ĠKl":12314,"ĠKat":12315,"ĠKong":12316,"Ġsomehow":12317,"ĠHaruna":12318,"Ġgraduates":12319,"Ġgovernments":12320,"bble":12321,"Ġrelief":12322,"Ġfeeling":12323,"lophones":12324,"Ġjudgment":12325,"ĠClose":12326,"Ġapartheid":12327,"ĠBoeing":12328,"Ġbills":12329,"ĠKwame":12330,"ĠCharl":12331,"MeToo":12332,"black":12333,"Ġtrek":12334,"Ġverify":12335,"Ġsatellite":12336,"ĠPepe":12337,"Ġillness":12338,"ĠErnest":12339,"ĠMcGregor":12340,"aribbean":12341,"ĠPinkett":12342,"ĠTukur":12343,"ĠAremeyaw":12344,"Cor":12345,"Gar":12346,"MD":12347,"Pol":12348,"bar":12349,"bow":12350,"days":12351,"fin":12352,"kick":12353,"mil":12354,"sg":12355,"wool":12356,"Ġdu":12357,"Ġawoof":12358,"Ġmut":12359,"ĠTch":12360,"ĠToyin":12361,"ĠFarisee":12362,"unice":12363,"ĠBoma":12364,"Ġstability":12365,"ĠPond":12366,"ĠEy":12367,"Ġimam":12368,"Ġpride":12369,"Ġshel":12370,"Ġven":12371,"quin":12372,"ĠNaf":12373,"Ġbright":12374,"anglement":12375,"ĠBruce":12376,"ĠQuar":12377,"ĠRefer":12378,"ĠReuben":12379,"ĠOsogbo":12380,"ĠCoalition":12381,"eremadu":12382,"quality":12383,"ĠRegist":12384,"Ġdiscipline":12385,"ĠKeke":12386,"Ġequalise":12387,"azzau":12388,"Ġenvironmental":12389,"ĠOkeke":12390,"Ġindividuals":12391,"Ġvegetables":12392,"ĠBaal":12393,"ĠMemorial":12394,"ĠSheikh":12395,"ĠAfrobeats":12396,"Ġtattoo":12397,"Ġfulfil":12398,"ĠExplosion":12399,"Ġpretend":12400,"Ġresurrect":12401,"Bet":12402,"Covid":12403,"Jon":12404,"UL":12405,"Ukr":12406,"VER":12407,"War":12408,"Ġwipe":12409,"Ġcourage":12410,"ĠSE":12411,"Ġtoy":12412,"ĠMission":12413,"Ġrip":12414,"sea":12415,"ĠCav":12416,"uto":12417,"Ġpractical":12418,"ĠLup":12419,"Ġpassing":12420,"occer":12421,"ĠKn":12422,"ĠRight":12423,"umor":12424,"upe":12425,"Ġlovers":12426,"Ġdrum":12427,"Ġcalling":12428,"ĠLeipzig":12429,"ĠAsisat":12430,"Ġ98":12431,"Ġfindings":12432,"aza":12433,"ukadnezzar":12434,"Ġmilitia":12435,"anye":12436,"Ġpublicly":12437,"ĠIbid":12438,"Ġinstruct":12439,"Ġcoaching":12440,"Ġdirection":12441,"ĠSTATE":12442,"ĠClaud":12443,"Ġupper":12444,"ĠBanks":12445,"Ġbillions":12446,"regate":12447,"ĠCrown":12448,"iliation":12449,"About":12450,"ĠAhmadu":12451,"Govnor":12452,"ĠSubstitution":12453,"France":12454,"Ġcircumstances":12455,"avoen":12456,"Ġventil":12457,"angelist":12458,"Ġboundary":12459,"ĠBulgaria":12460,"ĠAnalytica":12461,"Ġluxury":12462,"ĠEguavoen":12463,"94":12464,"DB":12465,"Ehn":12466,"German":12467,"Kab":12468,"KING":12469,"Tun":12470,"rem":12471,"rain":12472,"ville":12473,"western":12474,"Ġwent":12475,"Ġdil":12476,"Ġpin":12477,"Ġcod":12478,"Ġcaus":12479,"Ġmansion":12480,"still":12481,"ĠMang":12482,"ĠMail":12483,"ĠMait":12484,"olt":12485,"Ġstages":12486,"Ġsturb":12487,"ĠEld":12488,"ĠGil":12489,"Ġshoes":12490,"Ġchuk":12491,"rique":12492,"akin":12493,"Ġunite":12494,"Ġunited":12495,"riction":12496,"cci":12497,"Ġbroken":12498,"igns":12499,"Ġtransparent":12500,"ĠAround":12501,"ĠTrav":12502,"Ġstroke":12503,"ĠAlison":12504,"icholas":12505,"ĠDisc":12506,"Ġeverytime":12507,"Ġsignific":12508,"ĠBlac":12509,"ratulations":12510,"ĠBarb":12511,"Algeria":12512,"ĠOrom":12513,"ĠGbajabiamila":12514,"Ġcontestant":12515,"Ġhostel":12516,"ĠBuratai":12517,"Ġdozens":12518,"Ġapprop":12519,"Ġ1967":12520,"Ġbullets":12521,"ĠConsult":12522,"ĠSuwe":12523,"ĠWorkers":12524,"ĠLamar":12525,"Ġmulti":12526,"Ġseventy":12527,"ĠLGBTQ":12528,"ĠICT":12529,"Doct":12530,"Ġdissolve":12531,"ĠFRSC":12532,"Ġtrumpet":12533,"ĠEugene":12534,"):":12535,"GB":12536,"Se":12537,"beh":12538,"cience":12539,"nut":12540,"vor":12541,"Ġdm":12542,"anaya":12543,"Ġdivers":12544,"Ġbend":12545,"ĠSallah":12546,"ĠBRT":12547,"Ġkar":12548,"ĠWazizi":12549,"irates":12550,"ĠGa":12551,"ĠHots":12552,"Ġvirgin":12553,"Naim":12554,"Ġleaving":12555,"Ġreserve":12556,"plenty":12557,"Ġreputation":12558,"ĠAdel":12559,"ĠBrom":12560,"Ġsurge":12561,"Those":12562,"ĠEkambi":12563,"ĠJude":12564,"Ġfishing":12565,"ĠMetuh":12566,"offrey":12567,"Ġdidn":12568,"ĠIghodalo":12569,"ynth":12570,"CCG":12571,"ĠProtesters":12572,"Ġmemory":12573,"Ġentrance":12574,"Ġeggs":12575,"ĠKolade":12576,"ĠResidents":12577,"Ġoverseas":12578,"ĠSnap":12579,"ĠGentile":12580,"Debate":12581,"Ġqweshion":12582,"Ġbattery":12583,"ĠBawumia":12584,"BF":12585,"Back":12586,"Burn":12587,"Daniel":12588,"EP":12589,"Moh":12590,"Wizkid":12591,"have":12592,"rates":12593,"zor":12594,"oration":12595,"Ġfian":12596,"esity":12597,"Ġmum":12598,"ĠSank":12599,"ĠSDP":12600,"state":12601,"iders":12602,"ĠMC":12603,"ĠAv":12604,"ĠIA":12605,"ĠIz":12606,"ĠTurn":12607,"ĠFeb":12608,"uns":12609,"oty":12610,"ĠCov":12611,"ĠWahala":12612,"ĠJerry":12613,"ĠGokada":12614,"chew":12615,"ĠLtd":12616,"abab":12617,"artoum":12618,"ikoro":12619,"pro":12620,"Ġ737":12621,"Ġinconc":12622,"ĠObin":12623,"oweri":12624,"Ġsigned":12625,"embrance":12626,"ĠOlogb":12627,"Ġchildhood":12628,"ĠReporters":12629,"Ġhousing":12630,"ĠGovnors":12631,"ĠClimate":12632,"Ġpossession":12633,"Ġkidnapped":12634,"iterature":12635,"Ġautomatic":12636,"ervation":12637,"Ġoooo":12638,"Ġdemonstr":12639,"Ġbottles":12640,"Ġdiplom":12641,"Ġrivals":12642,"Ġrecordings":12643,"ĠRapid":12644,"ĠTraditional":12645,"ĠIMN":12646,"Ġfeminist":12647,"Ivoire":12648,"ĠMahmood":12649,"Messi":12650,"woolu":12651,"Ġinconclusive":12652,"'?":12653,"Bam":12654,"EU":12655,"Fake":12656,"Next":12657,"Sake":12658,"bus":12659,"first":12660,"look":12661,"rod":12662,"Ġfence":12663,"Ġfuck":12664,"Ġtact":12665,"Ġbele":12666,"Ġcertific":12667,"etime":12668,"ĠNancy":12669,"igible":12670,"Ġlamp":12671,"Ġease":12672,"ĠFils":12673,"ĠOsei":12674,"acco":12675,"ĠPepper":12676,"Ġkata":12677,"ĠWAS":12678,"odus":12679,"ĠGibe":12680,"ĠHR":12681,"ĠHab":12682,"ĠLulu":12683,"ĠUd":12684,"Ġtramadol":12685,"ĠAnfield":12686,"ĠAfro":12687,"issions":12688,"Ġoffside":12689,"rising":12690,"ĠArm":12691,"Ġyuz":12692,"ĠHarare":12693,"ĠHarris":12694,"ĠOla":12695,"Ġstatements":12696,"Ġvisits":12697,"ĠMalami":12698,"when":12699,"ĠPharm":12700,"Ġfactory":12701,"Ġtyre":12702,"ĠAlexis":12703,"Ġrequire":12704,"Amnesty":12705,"ĠTerritory":12706,"front":12707,"Ġaspirant":12708,"Ġrebel":12709,"Ġkweshon":12710,"Ġkeke":12711,"ĠBrymo":12712,"kwik":12713,"ĠCatalan":12714,"Ġhurry":12715,"ĠKidjo":12716,"RevolutionNow":12717,"ĠELEC":12718,"ĠMarseille":12719,"ĠTekno":12720,"Ġtheatre":12721,"Ġmaximum":12722,"ĠCyprus":12723,"GE":12724,"ply":12725,"orate":12726,"Ġwus":12727,"Ġpup":12728,"Ġcrazy":12729,"itect":12730,"ĠSC":12731,"Ġhab":12732,"ĠMis":12733,"Ġframe":12734,"ĠCher":12735,"ĠWind":12736,"osanya":12737,"ĠUl":12738,"ĠRain":12739,"ieb":12740,"awale":12741,"Ġalliance":12742,"ĠAbsal":12743,"ĠJosh":12744,"ondo":12745,"Ġoffences":12746,"ĠMaradona":12747,"Ġpersonally":12748,"Ġovercome":12749,"ofe":12750,"Ġsellers":12751,"Ġassoci":12752,"Ġdeposit":12753,"iofor":12754,"ĠOkowa":12755,"Ġbanking":12756,"ĠTega":12757,"ĠIbrahimovic":12758,"ĠIkpe":12759,"Mrs":12760,"Ġsupermark":12761,"Ġsymbol":12762,"ĠInsurance":12763,"ĠKabul":12764,"ĠSussex":12765,"ĠProtection":12766,"Ġmissionary":12767,"Madueke":12768,"ĠTonye":12769,"Ġvegetable":12770,"ĠPicture":12771,"India":12772,"Ġlyrics":12773,"ĠStormzy":12774,"reenshot":12775,"ĠOlogbond":12776,"ĠAbsalom":12777,"'re":12778,".,":12779,"DO":12780,"Love":12781,"LAS":12782,"NDC":12783,"TION":12784,"iola":12785,"rov":12786,"sina":12787,"anje":12788,"Ġada":12789,"Ġmold":12790,"sters":12791,"elek":12792,"ilola":12793,"ĠTel":12794,"ĠTos":12795,"ĠFoul":12796,"epat":12797,"Ġyakata":12798,"ĠBasket":12799,"ader":12800,"ĠCaribbean":12801,"ĠWol":12802,"ĠKate":12803,"ĠRick":12804,"ĠRooney":12805,"ĠChamber":12806,"ĠChopra":12807,"ĠCameroons":12808,"ĠTramadol":12809,"many":12810,"ĠFred":12811,"Ġcounts":12812,"show":12813,"ĠToo":12814,"Ġvisas":12815,"ificial":12816,"ields":12817,"Ġhardship":12818,"ĠExamin":12819,"Health":12820,"Ġ1982":12821,"Ġimmun":12822,"ĠKhartoum":12823,"Ġcooking":12824,"University":12825,"ĠSafe":12826,"Professor":12827,"Ġconstruct":12828,"Ġentrepreneurs":12829,"Ġspecific":12830,"ĠKazeem":12831,"Ġphotograph":12832,"Ġsamples":12833,"NGRPresident":12834,"Ġrehab":12835,"Ġcasual":12836,"Ġbacteria":12837,"ynthia":12838,"Cardi":12839,"Hon":12840,"Hin":12841,"LY":12842,"Let":12843,"Us":12844,"ios":12845,"mad":12846,"member":12847,"ped":12848,"rary":12849,"Ġera":12850,"Ġsoci":12851,"Ġpaddy":12852,"stay":12853,"ĠNke":12854,"Ġresid":12855,"owen":12856,"ĠFear":12857,"amas":12858,"acey":12859,"ĠBell":12860,"ĠPython":12861,"ĠEach":12862,"ĠElem":12863,"ĠWars":12864,"again":12865,"ĠLo":12866,"ĠLal":12867,"ĠRaf":12868,"Ġjab":12869,"Ġunc":12870,"Ġunique":12871,"ĠAbiy":12872,"Ġcler":12873,"ibaly":12874,"Ġtransition":12875,"ĠIsmail":12876,"Ġhappened":12877,"Ġdecades":12878,"Ġhearts":12879,"afo":12880,"ĠTheir":12881,"Ġremoval":12882,"aux":12883,"ĠOlisa":12884,"wueme":12885,"ĠOkp":12886,"Ġprovision":12887,"Ġinvestigative":12888,"Ġdefenders":12889,"Ġcrypto":12890,"ĠMatric":12891,"Ġmodels":12892,"oulibaly":12893,"ĠNdoki":12894,"attara":12895,"Ġkombi":12896,"Ġmasters":12897,"Ġsolidarity":12898,"ĠArchbishop":12899,"Ġinspiration":12900,"Ġstructure":12901,"okpog":12902,"ĠBuffon":12903,"ĠOsinachi":12904,"ĠMetropolitan":12905,"ĠContinental":12906,"Benue":12907,"Iweala":12908,"dings":12909,"love":12910,"try":12911,"anmi":12912,"Ġwig":12913,"Ġtl":12914,"Ġties":12915,"Ġcath":12916,"itage":12917,"Ġgave":12918,"Ġtook":12919,"ĠNatural":12920,"Ġrow":12921,"Ġeur":12922,"ĠTit":12923,"ĠFort":12924,"ĠEff":12925,"ĠCab":12926,"ĠWall":12927,"ĠJas":12928,"osho":12929,"Ġshaking":12930,"Ġshrine":12931,"ĠRas":12932,"Ġconquer":12933,"umers":12934,"oker":12935,"ĠYomi":12936,"Ġneeded":12937,"oyo":12938,"Ġwanna":12939,"arez":12940,"izin":12941,"promise":12942,"ĠAlready":12943,"Ġcorrespond":12944,"ofment":12945,"ĠGoverning":12946,"afat":12947,"ĠAmong":12948,"ĠAkure":12949,"Ġguards":12950,"Ġmatters":12951,"ĠOlivia":12952,"ĠAtal":12953,"Ġstronger":12954,"araoh":12955,"Ġbreaking":12956,"Ġindustrial":12957,"Ġmarketers":12958,"grapher":12959,"ĠOmoni":12960,"Ġperformances":12961,"ĠJonatan":12962,"ĠMorata":12963,"Ġserving":12964,"Ġcommunications":12965,"Ġgodfather":12966,"ĠJuliet":12967,"Ġmelt":12968,"Ġtickets":12969,"ĠGunnar":12970,"Ġcouns":12971,"ĠSingle":12972,"Ġmosques":12973,"ĠHappiness":12974,"Ġguests":12975,"wonwu":12976,"Ġbroadcaster":12977,"Ġpriority":12978,"ĠHotspur":12979,"ĠSnapchat":12980,"64":12981,"Fans":12982,"Game":12983,"Girls":12984,"Jen":12985,"San":12986,"Sim":12987,"Vict":12988,"bour":12989,"gover":12990,"hop":12991,"tins":12992,"wor":12993,"Ġwana":12994,"eside":12995,"ayan":12996,"elet":12997,"ĠMoon":12998,"ĠAD":12999,"ĠAigbe":13000,"Ġraitious":13001,"akeem":13002,"ĠBin":13003,"ĠCout":13004,"ĠCare":13005,"ĠWrit":13006,"ĠJal":13007,"ĠLook":13008,"ĠRiy":13009,"gho":13010,"artial":13011,"ĠChloroquine":13012,"Ġsof":13013,"Ġresist":13014,"plete":13015,"ĠAdd":13016,"Ġsmoking":13017,"Ġminor":13018,"ĠObid":13019,"ĠShey":13020,"Ġendorsement":13021,"Ġstatistics":13022,"ptoc":13023,"Ġclearly":13024,"ĠBeauty":13025,"eshi":13026,"Ġ1991":13027,"Ġrounds":13028,"Ġmagistrate":13029,"ĠBuruji":13030,"Ġmotorcycle":13031,"Ġhairst":13032,"Ġsurprised":13033,"Ġnominated":13034,"Ġcircuit":13035,"PDPNig":13036,"Ġclosest":13037,"ĠCCT":13038,"Ġnutrition":13039,"ĠHugh":13040,"Ġschedule":13041,"ĠLampard":13042,"Ġassessment":13043,"Morocco":13044,"ĠTikTok":13045,"Ġtrauma":13046,"ĠOlusola":13047,"epatitis":13048,"ĠExaminations":13049,"700":13050,"CON":13051,"GF":13052,"bag":13053,"him":13054,"kape":13055,"loe":13056,"ru":13057,"Ġdaddy":13058,"erves":13059,"Ġfisher":13060,"anju":13061,"Ġast":13062,"itate":13063,"ĠSof":13064,"ĠMack":13065,"ĠTa":13066,"ĠOri":13067,"Ġyansh":13068,"adder":13069,"ĠVisa":13070,"ĠViet":13071,"ĠEight":13072,"Ġdisp":13073,"ĠJor":13074,"Ġdegrees":13075,"osure":13076,"estin":13077,"verend":13078,"Ġrebuild":13079,"Ġshun":13080,"Ġvalley":13081,"ĠKamp":13082,"Ġgroom":13083,"osed":13084,"ounge":13085,"ĠAbiodun":13086,"Ġyoure":13087,"ĠZakzaky":13088,"ĠAlsina":13089,"Ġcrack":13090,"ĠObiang":13091,"encing":13092,"Ġarrests":13093,"Ġending":13094,"azette":13095,"Ġvisual":13096,"Ġconcede":13097,"Ġterrible":13098,"Ġmainland":13099,"Ġmainten":13100,"Ġpains":13101,"ĠExchange":13102,"Ġinsur":13103,"ĠOyegun":13104,"Ġexcited":13105,"Ġimpossible":13106,"urrently":13107,"ĠAgbaje":13108,"ĠSirika":13109,"ĠFatima":13110,"Ġkpai":13111,"ĠEsther":13112,"Ġchemicals":13113,"ĠMamman":13114,"ĠConcern":13115,"ĠFahd":13116,"OfficialPDPNig":13117,"ĠAbramovich":13118,"Ġgutter":13119,"ĠNganang":13120,"ĠAkuapem":13121,"ĠOgundipe":13122,"ĠEritrea":13123,"ĠTakoradi":13124,"ĠOlogbondiyan":13125,"Ġmaintenance":13126,"601":13127,"HA":13128,"Ke":13129,"Kanye":13130,"Ma":13131,"NO":13132,"Over":13133,"lade":13134,"Ġwl":13135,"inth":13136,"eyemi":13137,"Ġaide":13138,"Ġmop":13139,"alola":13140,"Ġgarden":13141,"ares":13142,"ĠNik":13143,"igital":13144,"imani":13145,"Ġthugs":13146,"ĠBollywood":13147,"tery":13148,"ĠHung":13149,"ĠLamb":13150,"ĠLigue":13151,"ifest":13152,"Ġpattern":13153,"Ġorders":13154,"Ġsomewhere":13155,"Ġarsenal":13156,"obia":13157,"ĠZazzau":13158,"Ġrepent":13159,"Ġattacking":13160,"ĠAsian":13161,"Ġarrow":13162,"Ġshortly":13163,"aires":13164,"ĠReverend":13165,"ukola":13166,"Ġrely":13167,"ĠAnglophones":13168,"ĠBayero":13169,"ĠRepublican":13170,"Stock":13171,"Ġgatherings":13172,"ĠRomans":13173,"Ġsadness":13174,"Ġgym":13175,"Ġsporting":13176,"ĠSeyitan":13177,"ikiwe":13178,"ĠNotre":13179,"ĠISIS":13180,"ĠPrisons":13181,"ĠPlanning":13182,"ĠVillage":13183,"ĠAbeokuta":13184,"emption":13185,"Ġtreasonable":13186,"Ġeducate":13187,"Ġevacuate":13188,"Ġtariffs":13189,"ĠNebukadnezzar":13190,"ĠSeparatists":13191,"ĠEkweremadu":13192,"ĠRedeemed":13193,"ĠReferee":13194,"!\"\"":13195,"92":13196,"Dep":13197,"Dino":13198,"Final":13199,"Happ":13200,"Mo":13201,"dam":13202,"gender":13203,"nin":13204,"nie":13205,"pay":13206,"week":13207,"Ġdinner":13208,"Ġsupreme":13209,"Ġase":13210,"emeka":13211,"omach":13212,"ĠSony":13213,"ĠDO":13214,"ĠToko":13215,"ĠTweet":13216,"ĠBand":13217,"adun":13218,"adays":13219,"ĠGareth":13220,"Ġnovel":13221,"ĠHaw":13222,"ĠLt":13223,"Ġvocal":13224,"ĠKwa":13225,"oviet":13226,"ĠRena":13227,"ĠInv":13228,"Ġunf":13229,"004":13230,"Ġinterpret":13231,"oots":13232,"Ġ97":13233,"ĠEmma":13234,"Ġsupporting":13235,"Ġdiscourage":13236,"azaya":13237,"Ġprisons":13238,"Ġpreacher":13239,"Ġdesire":13240,"rated":13241,"Ġcomplications":13242,"Ġcreation":13243,"Ġcampaigner":13244,"Ġconscience":13245,"who":13246,"ĠOgon":13247,"Ġviolation":13248,"ĠJeremy":13249,"Ghanaians":13250,"Ġeldas":13251,"Once":13252,"Ġ1987":13253,"Ġsummon":13254,"ĠOshodi":13255,"ocha":13256,"Ġsecretariat":13257,"Ġdominate":13258,"ĠOshiomole":13259,"ĠKilling":13260,"Osinbajo":13261,"ĠLilo":13262,"Google":13263,"Ġreceived":13264,"ĠHajj":13265,"ĠColombia":13266,"ĠPondei":13267,"iebube":13268,"ĠMatriculation":13269,"ĠObidiebube":13270,"Football":13271,"Gl":13272,"Id":13273,"Mimi":13274,"Nob":13275,"Number":13276,"Od":13277,"PM":13278,"VN":13279,"because":13280,"juma":13281,"rage":13282,"anie":13283,"Ġtong":13284,"Ġcave":13285,"Ġmercy":13286,"ombo":13287,"arily":13288,"ĠSri":13289,"ĠSIM":13290,"elve":13291,"imo":13292,"Ġstomach":13293,"ĠCairo":13294,"iran":13295,"child":13296,"assad":13297,"ĠKin":13298,"rich":13299,"ĠYoweri":13300,"ĠChron":13301,"Ġdressing":13302,"Ġsupplementary":13303,"Ġhousehold":13304,"Ġbuses":13305,"ĠUnilag":13306,"ĠTro":13307,"ĠAlabi":13308,"ĠShag":13309,"Ġperf":13310,"Ġflash":13311,"shithole":13312,"ĠSpokes":13313,"working":13314,"ĠTeacher":13315,"Ġrooms":13316,"ĠPhys":13317,"Ġappearances":13318,"ĠGeorg":13319,"Ġeasily":13320,"ĠRamos":13321,"Ġcommunicate":13322,"ĠNgu":13323,"Ġneighbor":13324,"ĠKhafi":13325,"killi":13326,"Ġeditor":13327,"winning":13328,"Ġtourist":13329,"Ġautism":13330,"Ġsuggestion":13331,"ĠIyabo":13332,"ĠBakare":13333,"ĠJehosh":13334,"ĠEjiofor":13335,"Maybe":13336,"Ġpremature":13337,"Ġphotographer":13338,"Ġprotocols":13339,"ĠBenzema":13340,"eredolu":13341,"ĠBloomberg":13342,"Ġfixtures":13343,"ĠLupita":13344,"Ġwusai":13345,"74":13346,"Abi":13347,"Cont":13348,"Ezek":13349,"Fore":13350,"SM":13351,"dist":13352,"every":13353,"fica":13354,"vang":13355,"onne":13356,"ettin":13357,"ĠNile":13358,"ĠNji":13359,"ĠNicholas":13360,"ĠFoto":13361,"Ġtho":13362,"unn":13363,"acement":13364,"Ġstik":13365,"ĠPon":13366,"Ġnois":13367,"ĠHard":13368,"ĠHBO":13369,"Ġshave":13370,"ĠUdom":13371,"orious":13372,"abol":13373,"ques":13374,"awu":13375,"ikwu":13376,"issa":13377,"issance":13378,"ibar":13379,"Ġoffenders":13380,"ĠUniversal":13381,"oho":13382,"ĠThai":13383,"Ġholders":13384,"Ġdepart":13385,"Ġspecialist":13386,"ĠGueye":13387,"Ġdirectors":13388,"ĠEkp":13389,"Ġwilling":13390,"lamic":13391,"ĠColumb":13392,"ĠMagn":13393,"ĠIkp":13394,"ĠĠĠĠĠĠĠĠĠĠĠĠĠĠĠĠĠĠĠĠĠĠĠĠĠĠĠĠĠĠĠĠĠĠĠĠĠĠĠĠĠĠĠĠĠĠĠĠ":13395,"Shabab":13396,"money":13397,"ĠDanjuma":13398,"uterres":13399,"ĠMartins":13400,"Ġhomeless":13401,"ĠKarl":13402,"Ġhanging":13403,"VCA":13404,"Ġmetal":13405,"Ġscoring":13406,"Ġbowl":13407,"Ġmixed":13408,"ĠFlorence":13409,"ĠWilfred":13410,"Obasanjo":13411,"ĠRemember":13412,"slow":13413,"ĠBryant":13414,"ĠCatalonia":13415,"ĠJubril":13416,"Ġaggregate":13417,"Ġobservers":13418,"Robbery":13419,"Ġjuice":13420,"ĠHousemates":13421,"ĠKampala":13422,"Ġasept":13423,"Car":13424,"Col":13425,"FACEBOOK":13426,"IB":13427,"town":13428,"ugh":13429,"Ġpiece":13430,"aren":13431,"ĠSang":13432,"ĠSoul":13433,"ĠSoviet":13434,"ĠMind":13435,"igan":13436,"ĠAst":13437,"ĠTH":13438,"ĠFT":13439,"ĠBale":13440,"ĠBeck":13441,"left":13442,"Ġimages":13443,"ĠGana":13444,"ĠLanka":13445,"ĠUpper":13446,"Ġveter":13447,"abl":13448,"ĠRB":13449,"ĠRE":13450,"ĠRul":13451,"omez":13452,"Ġunve":13453,"Ġunlike":13454,"ĠChike":13455,"ebs":13456,"Ġshowing":13457,"raud":13458,"ĠMars":13459,"ekaraya":13460,"ĠQue":13461,"ĠAsher":13462,"ĠShel":13463,"ĠShop":13464,"Ġrunner":13465,"ĠRex":13466,"ooo":13467,"onsaiz":13468,"ĠBaru":13469,"ĠOrji":13470,"Ġrestriction":13471,"ĠExpress":13472,"maad":13473,"yler":13474,"Ġanswers":13475,"ĠNewsp":13476,"ĠIgwe":13477,"Ġmotorb":13478,"ĠWaris":13479,"ĠCarter":13480,"ĠIgboho":13481,"ĠArewa":13482,"Ġemployers":13483,"ĠComputer":13484,"Ġbasin":13485,"ĠChildish":13486,"Okay":13487,"ĠBroadcasting":13488,"ĠHanifa":13489,"Ġcondolence":13490,"Ġpremises":13491,"ĠDevils":13492,"Ġsatisfied":13493,"ĠOlubadan":13494,"Ġnegotiation":13495,"ĠOuattara":13496,"Ġcaution":13497,"Saharan":13498,"72":13499,"Eagles":13500,"FG":13501,"col":13502,"cent":13503,"husband":13504,"rome":13505,"Ġ]":13506,"Ġdaw":13507,"Ġtaken":13508,"Ġsore":13509,"Ġbiko":13510,"Ġbunk":13511,"Ġmas":13512,"Ġnd":13513,"thah":13514,"eto":13515,"ĠMU":13516,"ĠMerc":13517,"olis":13518,"iggs":13519,"Ġli":13520,"adou":13521,"Ġste":13522,"ĠPoll":13523,"ĠPatoranking":13524,"Ġ119":13525,"chest":13526,"Ġsheda":13527,"Ġshisha":13528,"Ġbang":13529,"akor":13530,"Ġunn":13531,"Ġtalks":13532,"ebu":13533,"Ġbrake":13534,"Ġclap":13535,"Ġoffend":13536,"Ġaccom":13537,"ountry":13538,"ancers":13539,"Ġquot":13540,"aft":13541,"Ġpole":13542,"Ġunderground":13543,"Ġheadlines":13544,"Ġcoordin":13545,"Ġrespir":13546,"news":13547,"Ġlegacy":13548,"efin":13549,"Ġ237":13550,"Ġqualified":13551,"iyetti":13552,"Ġheartbreak":13553,"ĠNyong":13554,"ĠSwiss":13555,"ephthah":13556,"Ġaudition":13557,"Ġattempted":13558,"ĠAttack":13559,"Ġtrophies":13560,"ĠSporting":13561,"ĠKabila":13562,"ĠCHR":13563,"ĠMansa":13564,"ĠCollins":13565,"ĠCollapse":13566,"Ġproposed":13567,"Ġmorale":13568,"Ġreforms":13569,"Ibadan":13570,"Ġsoftware":13571,"Ġpromotion":13572,"ĠSecretariat":13573,"Ġessential":13574,"Ġwidow":13575,"ĠKpokpog":13576,"ĠNadal":13577,"conduct":13578,"Ġdisinfect":13579,"Ġadapt":13580,"Ġsofri":13581,"Alex":13582,"Bel":13583,"CBN":13584,"CAF":13585,"Kuti":13586,"Moses":13587,"Pastor":13588,"Russ":13589,"Time":13590,"girl":13591,"water":13592,"Ġ+":13593,"eria":13594,"inye":13595,"Ġbars":13596,"Ġgear":13597,"Ġgiven":13598,"ici":13599,"ĠMutiny":13600,"ĠNar":13601,"ĠAW":13602,"imelek":13603,"ĠlV":13604,"Ġliber":13605,"ilt":13606,"edict":13607,"ĠPerc":13608,"ĠEunice":13609,"ĠWan":13610,"ĠJem":13611,"ĠGomez":13612,"ĠHistory":13613,"ĠKNUST":13614,"Ġtrapped":13615,"Ġpatron":13616,"ĠChoice":13617,"ubo":13618,"inder":13619,"ĠFGM":13620,"Ġsew":13621,"Ġbros":13622,"raign":13623,"ĠAsamoah":13624,"Ġreception":13625,"ĠFru":13626,"ĠBrian":13627,"Ġovernight":13628,"Ġcolor":13629,"ĠShoot":13630,"Ġcounting":13631,"ĠAkere":13632,"Ġplanet":13633,"Ġflop":13634,"Ġdestruction":13635,"ĠIdriss":13636,"Ġbelie":13637,"Ġ140":13638,"Ġgrounds":13639,"ĠEnwonwu":13640,"ĠOko":13641,"mael":13642,"Ġtithe":13643,"ĠBabylon":13644,"Ġcutlass":13645,"ĠFIT":13646,"Ġvalues":13647,"ĠKamara":13648,"Ġmisconduct":13649,"Bring":13650,"Ġoccur":13651,"ĠOnyema":13652,"ĠBrighto":13653,"ĠJimoh":13654,"Ġkweshion":13655,"Ġmirak":13656,"Ġrailway":13657,"ĠDikeh":13658,"Ġrestaurants":13659,"Ġlungs":13660,"Michael":13661,"help":13662,"Netflix":13663,"Ukraine":13664,"ĠOromoni":13665,"ĠEleme":13666,"vangirai":13667,"Bill":13668,"Conc":13669,"EK":13670,"GU":13671,"Good":13672,"Ital":13673,"STV":13674,"buk":13675,"tic":13676,"onu":13677,"inec":13678,"Ġbones":13679,"Ġauction":13680,"Ġgor":13681,"three":13682,"icated":13683,"ĠDG":13684,"Ġles":13685,"Ġlines":13686,"ĠTips":13687,"seer":13688,"aming":13689,"Ġstable":13690,"ĠPick":13691,"ĠWBC":13692,"opause":13693,"vera":13694,"ĠHabib":13695,"icef":13696,"Ġalright":13697,"Ġboats":13698,"Ġvomit":13699,"ĠKag":13700,"ovak":13701,"ulpt":13702,"ĠRCCG":13703,"Ġgrazing":13704,"ĠChap":13705,"Ġmanner":13706,"ĠDean":13707,"ĠDeji":13708,"Ġclar":13709,"ordinary":13710,"Ġinterrog":13711,"ĠZen":13712,"azar":13713,"Ġdefense":13714,"Ġkidnapper":13715,"ritorial":13716,"Ġdistract":13717,"Ġobesity":13718,"Ġeskape":13719,"ĠMalays":13720,"Ġshares":13721,"ĠPhD":13722,"Ġqualifying":13723,"Ġeligible":13724,"Ġstrikes":13725,"Ġblessings":13726,"ombas":13727,"ĠEvritin":13728,"Ġurgent":13729,"ĠSirleaf":13730,"Ahmaad":13731,"ĠWorking":13732,"ĠOppong":13733,"ĠRefugees":13734,"Ġempowerment":13735,"ĠTrevor":13736,"Ġtelec":13737,"Ġprophec":13738,"Ġfifteen":13739,"Liberia":13740,"Ġresidence":13741,"ĠCoutinho":13742,"EB":13743,"Kill":13744,"Take":13745,"four":13746,"hunt":13747,"liest":13748,"mot":13749,"nedy":13750,"san":13751,"onso":13752,"Ġwinger":13753,"Ġbond":13754,"emiah":13755,"Ġnumba":13756,"ĠSource":13757,"ĠSERAP":13758,"Ġtoys":13759,"ĠMana":13760,"ĠMult":13761,"olabi":13762,"olese":13763,"ĠDim":13764,"igress":13765,"iast":13766,"Ġlunch":13767,"ĠFam":13768,"Ġ3000":13769,"Ġ350":13770,"edek":13771,"ĠBant":13772,"ĠVIP":13773,"odes":13774,"ĠGir":13775,"ĠHQ":13776,"Ġalternative":13777,"ĠLuka":13778,"Ġcomeback":13779,"ocolate":13780,"ĠRoy":13781,"riet":13782,"awee":13783,"Ġblocked":13784,"Ġtea":13785,"Ġtransitional":13786,"ĠFresh":13787,"ĠShrine":13788,"ĠAkeredolu":13789,"Ġruns":13790,"Ġbodygu":13791,"ERC":13792,"ĠĠĠĠĠĠĠĠĠĠĠĠĠĠĠĠĠĠĠĠĠĠ":13793,"ufu":13794,"ĠSpurs":13795,"Ġfeelings":13796,"ĠRussians":13797,"rooms":13798,"ĠBarrow":13799,"ĠKennedy":13800,"track":13801,"Ġslaughter":13802,"ĠCoff":13803,"ĠClass":13804,"Ġsickle":13805,"598":13806,"cling":13807,"Ġestimated":13808,"ĠSometimes":13809,"Ġengineering":13810,"Ġkomplain":13811,"writer":13812,"Ġdisappointment":13813,"Ġgarment":13814,"Ġimplementation":13815,"SuperEagles":13816,"Ġdoesn":13817,"Ġhackers":13818,"ĠLAGOS":13819,"ĠLesbian":13820,"ĠKhalid":13821,"Ġbombers":13822,"ĠNECO":13823,"ĠAgege":13824,"ĠKojo":13825,"ĠKendrick":13826,"Ġnickname":13827,"Ġsignificant":13828,"Ġyuzles":13829,"321":13830,"91":13831,"Dan":13832,"GMA":13833,"IAN":13834,"Lat":13835,"Under":13836,"call":13837,"fat":13838,"jeck":13839,"lay":13840,"mare":13841,"nam":13842,"pipo":13843,"rasheed":13844,"tower":13845,"Ġdull":13846,"Ġpneumonia":13847,"Ġmigration":13848,"Ġhorm":13849,"stop":13850,"ĠName":13851,"ĠAri":13852,"ĠTWITTER":13853,"ĠFight":13854,"ephone":13855,"ĠOgbon":13856,"ĠBach":13857,"ĠBirth":13858,"ĠBongo":13859,"isse":13860,"ĠPopulation":13861,"Ġ128":13862,"ĠJess":13863,"ĠHay":13864,"Ġshade":13865,"ĠLac":13866,"ĠLot":13867,"ĠLight":13868,"ĠKit":13869,"ĠKach":13870,"ulum":13871,"ĠRab":13872,"unday":13873,"ustice":13874,"akwa":13875,"Ġjur":13876,"ĠYoutube":13877,"ĠChannel":13878,"ĠStock":13879,"Ġregulations":13880,"Ġstranded":13881,"Ġincidents":13882,"Ġscale":13883,"Ġ94":13884,"egu":13885,"Ġpolytechn":13886,"Ġremand":13887,"ĠAkon":13888,"rench":13889,"Ġundergo":13890,"shake":13891,"okoja":13892,"ĠBenfica":13893,"peace":13894,"ĠAnderson":13895,"Ġsingers":13896,"Image":13897,"Ġdesper":13898,"Ġobtain":13899,"Proverbs":13900,"Ġstanding":13901,"ĠEnoch":13902,"porters":13903,"Ġspending":13904,"ĠJeroboam":13905,"Ġvaccinated":13906,"ĠPharaoh":13907,"Ġtaxes":13908,"Ġeventually":13909,"ĠBelarus":13910,"ĠSwan":13911,"ĠPatience":13912,"ĠGloria":13913,"bring":13914,"Ġ1979":13915,"ĠGenital":13916,"Ġsevere":13917,"Ġmountins":13918,"ĠWatchtower":13919,"Ġflags":13920,"ĠPersonal":13921,"ĠSuspected":13922,"ladesh":13923,"Ġcombine":13924,"BashirAhmaad":13925,"ĠCyber":13926,"ĠCPDM":13927,"ĠHebrew":13928,"ĠCameroun":13929,"happy":13930,"Ġfertil":13931,"ĠFernand":13932,"ĠMutilation":13933,"Ġconsequences":13934,"enezuel":13935,"Ġsturbon":13936,"Ġtactics":13937,"ĠHungary":13938,"ĠRenaissance":13939,"assadors":13940,"ĠGeorgia":13941,"'ll":13942,"5000":13943,"Both":13944,"Ik":13945,"North":13946,"OG":13947,"different":13948,"last":13949,"lik":13950,"lockdown":13951,"Ġ=":13952,"Ġug":13953,"Ġtiger":13954,"Ġcouncill":13955,"Ġmol":13956,"Ġov":13957,"Ġoya":13958,"Ġhunt":13959,"ĠMVP":13960,"ĠNev":13961,"ĠAIDS":13962,"imat":13963,"Ġlodge":13964,"entation":13965,"ĠFan":13966,"ĠBail":13967,"ĠPL":13968,"ĠPel":13969,"ĠPCR":13970,"ĠCynthia":13971,"ĠGate":13972,"Ġanthem":13973,"Ġwhatever":13974,"oco":13975,"ĠRober":13976,"artey":13977,"ricia":13978,"lando":13979,"Ġdecade":13980,"ĠOban":13981,"ĠEmil":13982,"Ġisolate":13983,"Ġexplosions":13984,"ĠTochi":13985,"Ġjudiciary":13986,"Ġsolar":13987,"Ġdeliber":13988,"Ġdefendant":13989,"Ġextent":13990,"Ġconfirmation":13991,"struction":13992,"ajiya":13993,"ĠSimone":13994,"ĠEssay":13995,"Trans":13996,"owski":13997,"ĠDouye":13998,"Ġtaims":13999,"Ġconductor":14000,"ĠPeru":14001,"ĠLucas":14002,"ĠNCAA":14003,"ĠYahya":14004,"ĠHydro":14005,"ĠEtienne":14006,"Ġmanufacturers":14007,"ĠExpert":14008,"iguez":14009,"ĠSadiq":14010,"ĠHopkins":14011,"ĠWalker":14012,"ĠTambuwal":14013,"Ġfelony":14014,"Ġelephant":14015,"ĠHonourable":14016,"ĠIbidunni":14017,"Ġeuros":14018,"Fire":14019,"Mali":14020,"Pipol":14021,"SU":14022,"Sol":14023,"Sars":14024,"Suale":14025,"TOR":14026,"klean":14027,"yy":14028,"orr":14029,"anes":14030,"Ġpak":14031,"Ġhurt":14032,"stone":14033,"ĠMorning":14034,"ĠMighty":14035,"ĠNwo":14036,"imbi":14037,"Ġliv":14038,"Ġlord":14039,"ente":14040,"ĠCow":14041,"ĠWeda":14042,"ĠJollof":14043,"Ġdeaf":14044,"ĠGuterres":14045,"ĠHakeem":14046,"iste":14047,"ĠLi":14048,"abis":14049,"ĠKiki":14050,"uled":14051,"umoro":14052,"ĠInc":14053,"ĠAnto":14054,"ĠYaw":14055,"ĠYemen":14056,"Ġarraign":14057,"ogu":14058,"ĠAugustine":14059,"Ġ1975":14060,"Ġcorp":14061,"Ġourselves":14062,"vene":14063,"Ġheard":14064,"ĠAmr":14065,"ĠAmor":14066,"Ġwrit":14067,"Ġsixt":14068,"Ġartificial":14069,"Then":14070,"Ġimportance":14071,"Producers":14072,"oked":14073,"Ġwearing":14074,"Ġformal":14075,"Ġsuccessfully":14076,"Ġtrading":14077,"Ġinjustice":14078,"rorism":14079,"Ġflying":14080,"ugged":14081,"Ġinterests":14082,"ĠArteta":14083,"Ġsumm":14084,"ĠAjib":14085,"Ġsurrog":14086,"Ġbombing":14087,"ĠEveritin":14088,"Ġgofit":14089,"ĠPassova":14090,"ĠEtomi":14091,"ĠKaisha":14092,"ĠValencia":14093,"Ġepid":14094,"ĠProvince":14095,"ĠJimmy":14096,"ĠAtlanta":14097,"ĠĠĠĠĠĠĠĠĠĠĠĠĠĠĠĠĠĠĠĠĠĠĠĠĠĠĠĠĠĠĠĠĠĠĠĠĠĠĠĠĠĠĠĠĠĠĠĠĠĠĠĠĠĠĠĠĠĠĠĠĠĠĠĠĠ":14098,"ĠĠĠĠĠĠĠĠĠĠĠĠĠĠĠĠĠĠĠĠĠĠĠĠĠĠĠĠĠĠĠĠĠĠĠĠĠĠĠĠĠĠĠĠĠĠĠĠĠĠĠĠĠĠĠĠĠĠĠĠĠĠĠĠĠĠĠĠĠĠĠĠĠ":14099,"empah":14100,"ĠChukwueze":14101,"Ġvolunteers":14102,"Ġsatisfy":14103,"Report":14104,"Ġintimidation":14105,"Ġsmuggling":14106,"Ġsectors":14107,"Ġcircumcision":14108,"Ġbutcher":14109,"ĠToyota":14110,"Ġwhatsapp":14111,"Ġaccommodation":14112,"ĠIkpeazu":14113,"ĠShagari":14114,"Are":14115,"Lockdown":14116,"Oper":14117,"Ogbonge":14118,"Sport":14119,"Tins":14120,"gans":14121,"rar":14122,"rand":14123,"uu":14124,"Ġdye":14125,"Ġfant":14126,"Ġfade":14127,"Ġwanda":14128,"Ġpas":14129,"Ġpul":14130,"Ġbul":14131,"Ġmeter":14132,"Ġmimba":14133,"ayose":14134,"Ġocean":14135,"Ġha":14136,"ĠMAR":14137,"Ġlies":14138,"ĠOthers":14139,"acing":14140,"acre":14141,"ĠPast":14142,"ĠEner":14143,"ĠCash":14144,"ĠHans":14145,"ĠHich":14146,"ĠLok":14147,"Ġbother":14148,"allo":14149,"ĠKos":14150,"reh":14151,"ovet":14152,"ecin":14153,"ecologist":14154,"Ġpatience":14155,"Ġlover":14156,"Ġ419":14157,"Ġreggae":14158,"plus":14159,"Ġdancehall":14160,"ebron":14161,"ĠImp":14162,"Ġsculpt":14163,"ohen":14164,"ĠHigher":14165,"ĠShaw":14166,"Ġplanes":14167,"Ġdefection":14168,"ĠAttah":14169,"ĠElk":14170,"Ġmembership":14171,"Ġnearby":14172,"ĠEnforcement":14173,"Ġremains":14174,"ĠSarri":14175,"graduate":14176,"Ġtherefore":14177,"ĠComfort":14178,"Ġsubstance":14179,"ĠFIRS":14180,"Ġcomplaint":14181,"ĠSoludo":14182,"ĠIrish":14183,"block":14184,"ĠEvribody":14185,"alyse":14186,"ĠTransfer":14187,"Ġdign":14188,"Ġparticipation":14189,"ĠLeaders":14190,"itten":14191,"inedine":14192,"ĠPerez":14193,"Ġkee":14194,"bearers":14195,"iquor":14196,"ĠRaymond":14197,"Ġassignment":14198,"Ġorphan":14199,"Ġforbid":14200,"ĠSankara":14201,"ĠELECAM":14202,"government":14203,"ptocurrency":14204,"Russian":14205,"inecnigeria":14206,"Caf":14207,"Eh":14208,"Lib":14209,"Osa":14210,"Papa":14211,"REA":14212,"SAN":14213,"TF":14214,"linary":14215,"rep":14216,"tra":14217,"Ġ%":14218,"Ġdota":14219,"Ġdotas":14220,"erate":14221,"Ġfil":14222,"inness":14223,"Ġbash":14224,"ĠSaga":14225,"Ġoj":14226,"ĠMiyetti":14227,"ĠDol":14228,"ĠTina":14229,"ĠToni":14230,"ĠTyler":14231,"ĠFre":14232,"ĠBisi":14233,"adel":14234,"ĠVoice":14235,"ĠPut":14236,"ĠPul":14237,"ĠEPL":14238,"Ġkuku":14239,"ĠJO":14240,"ĠGor":14241,"vereign":14242,"ĠHit":14243,"ĠHag":14244,"ĠHait":14245,"ĠUgo":14246,"ĠMeeting":14247,"ĠKur":14248,"umz":14249,"riest":14250,"Ġanywia":14251,"okri":14252,"Ġsovereign":14253,"Ġtelling":14254,"250":14255,"Ġheight":14256,"Ġactual":14257,"Ġgovt":14258,"ĠQuest":14259,"Ġrelative":14260,"ĠMonica":14261,"ĠBloody":14262,"Ġsetting":14263,"tschew":14264,"Ġremainin":14265,"ĠOkada":14266,"ĠAyuba":14267,"ribed":14268,"ĠComedy":14269,"Ġpossibility":14270,"Ġgathering":14271,"Ġpublisher":14272,"Ġclosely":14273,"Ġconvince":14274,"Ġprofessionals":14275,"Ġmourning":14276,"Ġpilgr":14277,"unicip":14278,"Ġcriticize":14279,"ĠAdeyanju":14280,"ĠOluwase":14281,"Ġregularly":14282,"Ġteenage":14283,"DonaldTrump":14284,"Ġhomosexuality":14285,"Ġtelephone":14286,"Ġaffair":14287,"Ġcharts":14288,"Canada":14289,"Ġstigma":14290,"Ġfianc":14291,"ĠIAAF":14292,"Ġtongue":14293,"ĠHichil":14294,"'ve":14295,"62":14296,"71":14297,"FL":14298,"LM":14299,"Leg":14300,"Money":14301,"NU":14302,"Part":14303,"Wakanda":14304,"Zulu":14305,"fam":14306,"home":14307,"kan":14308,"othing":14309,"phone":14310,"resident":14311,"rish":14312,"voy":14313,"xe":14314,"yles":14315,"Ġfada":14316,"atak":14317,"Ġpers":14318,"Ġpant":14319,"Ġmo":14320,"oudi":14321,"ĠSod":14322,"ĠShua":14323,"etown":14324,"ĠMai":14325,"ĠDakar":14326,"ĠNat":14327,"ĠNeh":14328,"Ġlip":14329,"Ġinqu":14330,"ĠBash":14331,"ĠPe":14332,"ĠPit":14333,"uses":14334,"ĠHundred":14335,"Ġvess":14336,"ĠKiss":14337,"ĠKaj":14338,"ĠKunle":14339,"rie":14340,"ĠYek":14341,"ansa":14342,"ĠChime":14343,"ishops":14344,"ĠDeal":14345,"Ġreaders":14346,"ĠAla":14347,"Ġserial":14348,"Ġincom":14349,"Ġcorps":14350,"ĠPidginBlog":14351,"ailed":14352,"ĠBring":14353,"too":14354,"anyana":14355,"ĠEmirate":14356,"ĠAtanga":14357,"Ġsurface":14358,"Ġmissiles":14359,"ĠGbenga":14360,"Check":14361,"Ġsafely":14362,"Ġenjoyment":14363,"ĠOgunyemi":14364,"anzibar":14365,"Art":14366,"BBCNigeria":14367,"Ġembark":14368,"Ġmisunder":14369,"Ġmisbeh":14370,"brella":14371,"ĠAwosanya":14372,"ĠDefenders":14373,"Ġintroduction":14374,"ructuring":14375,"Ġ1966":14376,"Ġwithdrawal":14377,"Ġworshippers":14378,"Ġinvestments":14379,"Ġextreme":14380,"Ġsekonsaiz":14381,"ĠUpon":14382,"Ġprocedures":14383,"Ġrevenue":14384,"ĠĠĠĠĠĠĠĠĠĠĠĠĠĠĠĠĠĠĠĠĠĠĠĠĠĠĠĠĠĠĠĠĠĠĠĠĠĠĠĠĠĠĠĠĠĠĠĠĠĠĠĠĠĠĠĠĠĠĠĠĠĠĠĠĠĠĠĠĠ":14385,"Ġkwesions":14386,"Ġdedicate":14387,"ĠDivisional":14388,"Acting":14389,"Security":14390,"ĠTsvangirai":14391,"Research":14392,"Ġextradition":14393,"Ġclinical":14394,"Ġcapsize":14395,"ĠRehoboam":14396,"CFTA":14397,"Burna":14398,"ĠĠĠĠĠĠĠĠĠĠĠĠĠĠĠĠĠĠĠĠĠĠĠĠĠĠĠĠĠĠĠĠĠĠĠĠĠĠĠĠĠĠĠĠĠĠĠĠĠĠĠĠĠĠĠĠĠĠĠĠĠ":14399,"Akin":14400,"Fi":14401,"SD":14402,"There":14403,"lim":14404,"rot":14405,"Ġut":14406,"Ġdread":14407,"Ġdias":14408,"esai":14409,"Ġmock":14410,"Ġmush":14411,"alek":14412,"Ġniger":14413,"ĠSister":14414,"Ġoder":14415,"ĠDh":14416,"ĠNY":14417,"ĠNah":14418,"ĠAid":14419,"Ġrare":14420,"Ġeclipse":14421,"owe":14422,"eps":14423,"edge":14424,"Ġyard":14425,"ĠBom":14426,"ĠBempah":14427,"ĠCarn":14428,"ĠCohen":14429,"vex":14430,"ĠWeather":14431,"ĠWaz":14432,"ĠJephthah":14433,"Ġrein":14434,"Ġshocked":14435,"Ġshadow":14436,"ĠLin":14437,"ĠLine":14438,"ĠUw":14439,"Ġtheory":14440,"ĠRans":14441,"ecost":14442,"awal":14443,"Ġaft":14444,"alkida":14445,"Ġwaya":14446,"aribe":14447,"ugo":14448,"Ġresolution":14449,"Ġclause":14450,"Ġuseless":14451,"ĠUnicef":14452,"Ġscan":14453,"Ġrecip":14454,"Ġquery":14455,"Ġ92":14456,"ĠAirports":14457,"Ġcolony":14458,"ĠShay":14459,"Ġlooks":14460,"ĠOnana":14461,"Ġphil":14462,"Ġhardworking":14463,"ungle":14464,"Still":14465,"ĠOfficers":14466,"Ġrequired":14467,"ĠPatriotic":14468,
[...]
